{"##\u592a": 30338, "##oder": 27381, "wig": 24405, "premiered": 5885, "##ais": 15593, "engined": 21235, "##ivist": 21997, "transport": 3665, "[unused596]": 601, "wearing": 4147, "##\u76ee": 30444, "diffuse": 28105, "senegal": 16028, "##ier": 3771, "##river": 24352, "outlaw": 19104, "councillor": 10674, "##inates": 28184, "fargo": 23054, "service": 2326, "reclaim": 24104, "campo": 22339, "conceded": 15848, "procession": 14385, "consumption": 8381, "waterfront": 16317, "fitch": 26062, "right": 2157, "##isson": 24077, "simplified": 11038, "prose": 12388, "tired": 5458, "[unused709]": 714, "contenders": 27236, "politically": 10317, "storm": 4040, "[unused80]": 81, "botswana": 19414, "whereupon": 26090, "##minster": 24431, "\u0996": 1354, "agreed": 3530, "infrastructure": 6502, "memory": 3638, "apologetic": 29352, "##\u3057": 30183, "awarding": 21467, "barak": 27739, "[unused611]": 616, "\u00a3": 1069, "##\u03c1": 29732, "##uck": 12722, "birmingham": 6484, "makeup": 5789, "##dington": 21504, "##gnon": 26977, "northeast": 4794, "breuning": 18177, "aux": 19554, "pyramid": 11918, "##ra": 2527, "##dern": 25888, "victories": 9248, "lawyers": 9559, "tallinn": 21169, "conde": 24707, "nbc": 6788, "upper": 3356, "conway": 14783, "violence": 4808, "atkins": 21087, "stealing": 11065, "##\u0621": 29815, "entrusted": 18011, "wroc\u0142aw": 25160, "aberdeen": 12080, "albuquerque": 19334, "liechtenstein": 26500, "nervous": 6091, "purported": 27023, "batch": 14108, "[unused341]": 346, "formal": 5337, "allocated": 11095, "acknowledging": 21894, "fitzpatrick": 26249, "internacional": 27607, "##oue": 27872, "##sque": 17729, "##rina": 11796, "privacy": 9394, "rendered": 10155, "inspections": 29589, "abandoning": 19816, "assassins": 18364, "coinage": 25396, "railroad": 4296, "##lau": 17298, "exhausted": 9069, "regained": 11842, "years": 2086, "\u6a39": 1884, "triumph": 10911, "philippines": 5137, "define": 9375, "delighted": 15936, "marino": 17185, "andersen": 18308, "binds": 20817, "hernandez": 13688, "controller": 11486, "kam": 27829, "information": 2592, "fault": 6346, "##kell": 18690, "##zen": 10431, "commentary": 8570, "ticked": 26019, "##evich": 16277, "rican": 13641, "heather": 9533, "[unused98]": 99, "##\u6d77": 30428, "deborah": 15555, "francis": 4557, "riders": 8195, "harvested": 22629, "magnolia": 24659, "traded": 7007, "##maker": 8571, "1769": 20663, "georg": 12062, "160": 8148, "beethoven": 15461, "##one": 5643, "reaction": 4668, "mundane": 24684, "##\u22c5": 30141, "##ib": 12322, "spots": 7516, "mounted": 5614, "mag": 23848, "\u677e": 1880, "confederate": 8055, "\u11bc": 1489, "hailed": 16586, "1790": 13393, "counterattack": 27835, "hills": 4564, "arising": 17707, "haste": 24748, "stabilize": 27790, "baths": 19692, "hiss": 19074, "##wad": 26016, "##promising": 25013, "sensation": 8742, "airlines": 7608, "##nsk": 25564, "started": 2318, "\u03c5": 1175, "[unused580]": 585, "negotiating": 18875, "sherwood": 19427, "dune": 21643, "netting": 26909, "stereotypes": 22807, "nicely": 19957, "##weiler": 22384, "1930": 4479, "##tower": 23196, "weeks": 3134, "worries": 15508, "berkeley": 8256, "paige": 17031, "retreated": 11672, "labeling": 28847, "suspicions": 17817, "[unused413]": 418, "##\u2026": 30064, "sonic": 12728, "stellar": 17227, "thought": 2245, "kamal": 21911, "##oped": 24174, "pleading": 16418, "\u2088": 1555, "##ctus": 22675, "runners": 7190, "hike": 21857, "bosses": 23029, "sly": 18230, "##ryn": 18143, "swings": 18755, "clarity": 15563, "justices": 19867, "salon": 11090, "universe": 5304, "mccoy": 16075, "##nable": 22966, "face": 2227, "sincerely": 25664, "##\u20b9": 30104, "duties": 5704, "clerical": 23106, "franco": 9341, "##tens": 25808, "key": 3145, "emphasize": 17902, "retaliation": 18695, "\u0d9a": 1403, "vulgar": 29364, "southampton": 11833, "##eria": 11610, "invariant": 23915, "##osi": 20049, "calgary": 10112, "calendar": 8094, "pages": 5530, "transparency": 16987, "hampton": 11615, "uptown": 28539, "buddy": 8937, "funds": 5029, "adventurer": 29506, "sao": 7509, "preston": 8475, "415": 24690, "lexi": 16105, "kennedy": 5817, "##inga": 28234, "reformed": 9114, "original": 2434, "readers": 8141, "complementary": 21053, "nintendo": 10022, "riding": 5559, "penetrated": 21653, "sarcastic": 22473, "veto": 22102, "vhs": 17550, "##urity": 25137, "hopes": 8069, "andrey": 29219, "atoms": 13353, "nest": 9089, "##gar": 6843, "indigo": 22472, "store": 3573, "miserable": 13736, "estranged": 24211, "lined": 7732, "teeth": 4091, "reeve": 20726, "kinase": 21903, "adjoining": 13562, "##ono": 17175, "confessed": 14312, "commenced": 8420, "drafts": 28967, "takeover": 15336, "##unes": 26639, "\u3042": 1646, "##ack": 8684, "willow": 11940, "##eda": 11960, "lindsay": 12110, "terminated": 12527, "##anor": 27869, "weber": 13351, "massive": 5294, "activation": 13791, "##ul": 5313, "##\u2093": 30092, "##bourne": 11634, "seminole": 28909, "\u1d35": 1493, "\u0f51": 1428, "bitterly": 19248, "pink": 5061, "deliberately": 9969, "##gers": 15776, "cord": 11601, "literary": 4706, "damages": 12394, "passed": 2979, "distribute": 16062, "armoured": 11104, "\u1110": 1467, "km\u00b2": 3186, "ever": 2412, "fm": 4718, "wielding": 26974, "prices": 7597, "mantra": 25951, "real": 2613, "planted": 8461, "wheeled": 17320, "drift": 11852, "sweatshirt": 28095, "mao": 15158, "##loaded": 17468, "##akh": 27573, "perpetrators": 27675, "blog": 9927, "dad": 3611, "267": 25491, "protest": 6186, "composing": 16572, "dracula": 18500, "##\u110e": 30001, "harvesting": 21534, "carmen": 11425, "rubin": 20524, "##rzburg": 29136, "twigs": 27964, "lake": 2697, "descending": 15127, "##eded": 19082, "waivers": 28654, "[unused118]": 123, "budgets": 26178, "##\u1019": 29973, "unpredictable": 21446, "mana": 24951, "1713": 27016, "bouts": 23666, "substitution": 20885, "concerned": 4986, "cypriot": 18543, "exploit": 18077, "klaus": 16536, "abuses": 21078, "##iensis": 27806, "bun": 21122, "[unused59]": 60, "##ers": 2545, "angled": 18756, "iss": 26354, "##fast": 24333, "filmmaking": 24466, "##\u9580": 30494, "surname": 11988, "kyushu": 25885, "categories": 7236, "assemblies": 17720, "defense": 3639, "fuse": 19976, "##ywood": 26985, "##nock": 18057, "impulse": 14982, "asia": 4021, "interruption": 24191, "shenzhen": 26555, "bean": 14068, "##dae": 6858, "##powered": 27267, "yankees": 11081, "##mada": 23574, "developments": 8973, "##isches": 27239, "sociological": 24846, "porto": 13809, "##ignon": 24796, "customary": 16120, "voyages": 21993, "##\u30c6": 30239, "warp": 24136, "witnesses": 9390, "victims": 5694, "houses": 3506, "offices": 4822, "[unused636]": 641, "edo": 18314, "hooves": 28399, "badminton": 14618, "##uta": 13210, "citizenship": 9068, "rubbish": 29132, ">": 1028, "##\u6cd5": 30427, "leap": 11679, "directional": 20396, "warped": 25618, "startup": 22752, "musica": 21137, "##ice": 6610, "eugene": 8207, "##codes": 23237, "grandchildren": 13628, "##don": 5280, "skilled": 10571, "specially": 11974, "##rance": 21621, "##orous": 25373, "rome": 4199, "verdict": 14392, "lawyer": 5160, "##lke": 28143, "barren": 20225, "##bolt": 22803, "##rian": 6862, "evacuation": 13982, "ferry": 7115, "aaa": 13360, "##zia": 12871, "##ling": 2989, "ringing": 13060, "romance": 7472, "rip": 10973, "[unused715]": 720, "plotted": 27347, "219": 20636, "mohammad": 12050, "velocity": 10146, "alleged": 6884, "pang": 20657, "##carriage": 21539, "emi": 12495, "investigator": 14064, "shifters": 21537, "oaxaca": 26923, "[unused604]": 609, "jose": 4560, "emerges": 19391, "home": 2188, "robust": 15873, "employing": 15440, "\u10e3": 1454, "175": 12862, "murderer": 13422, "urges": 23876, "recordings": 5633, "indians": 6505, "audrey": 14166, "tuition": 15413, "directing": 9855, "convey": 16636, "ic": 24582, "mons": 29408, "##nger": 11392, "radiating": 23229, "petition": 9964, "\u09aa": 1367, "##pers": 7347, "##ind": 22254, "\u30a6": 1696, "movie": 3185, "chopper": 28057, "forever": 5091, "##ert": 8743, "pitching": 14696, "##eal": 15879, "miniseries": 13612, "roster": 9238, "medallion": 22541, "torch": 12723, "##ulates": 18969, "len": 18798, "##kian": 28545, "screening": 11326, "##nn": 10695, "resembles": 12950, "classical": 4556, "reeves": 17891, "fatal": 10611, "##sin": 11493, "supplying": 17731, "persons": 5381, "opinions": 10740, "prime": 3539, "richard": 2957, "##tina": 13770, "eldest": 7310, "##urities": 29366, "qing": 13282, "breach": 12510, "commission": 3222, "[unused332]": 337, "finished": 2736, "adjusting": 19158, "limo": 23338, "katrina": 16864, "##ln": 19666, "[unused887]": 892, "wilde": 18575, "##glers": 25555, "sockets": 27540, "bellevue": 26756, "exceeds": 23651, "marin": 16400, "finest": 10418, "cbc": 13581, "tonnes": 11000, "##lmer": 23398, "widespread": 6923, "\u306e": 1671, "chilean": 12091, "playback": 18245, "vito": 25550, "schleswig": 21173, "olds": 19457, "2012": 2262, "distances": 12103, "false": 6270, "##shot": 19040, "sony": 8412, "yokohama": 20507, "structural": 8332, "##org": 21759, "##fleet": 27657, "claudio": 19569, "naughty": 20355, "commander": 3474, "##\u3002": 30162, "crusaders": 18831, "sizable": 25908, "1714": 25241, "##tell": 23567, "athletics": 6482, "rower": 21984, "##ering": 7999, "##tidae": 21861, "historic": 3181, "purchases": 17402, "monumental": 15447, "liang": 16982, "hatfield": 26853, "gavin": 9448, "tehsil": 20751, "hole": 4920, "##\u1175": 30019, "##dry": 21190, "##osed": 24768, "countered": 17970, "[unused132]": 137, "opaque": 28670, "##houses": 15666, "##bilities": 14680, "[unused958]": 963, "declares": 18806, "extends": 8908, "turin": 13667, "migration": 9230, "tumor": 13656, "declaring": 13752, "incidence": 18949, "buffet": 28305, "sanitation": 18723, "sg": 22214, "##\u79be": 30453, "chilly": 24222, "colliery": 19462, "##\u3042": 30172, "\u0638": 1287, "thru": 27046, "chambers": 8477, "acids": 12737, "crashes": 19119, "##oo": 9541, "bandage": 24446, "employed": 4846, "questions": 3980, "\u30ab": 1700, "181": 18596, "m\u00b2": 7030, "mannheim": 25116, "##vating": 26477, "potato": 14557, "##mund": 25574, "##gt": 13512, "silent": 4333, "rankings": 10385, "##\u5cf6": 30359, "retailer": 20196, "finn": 9303, "adviser": 11747, "##eld": 14273, "designs": 5617, "profitable": 15282, "constituted": 11846, "devi": 14386, "fertility": 17376, "versailles": 18346, "east": 2264, "groups": 2967, "nationalists": 17934, "mini": 7163, "cylinders": 18729, "pulses": 23894, "specifies": 27171, "##swell": 19228, "bilingual": 17636, "machines": 6681, "toledo": 13163, "sudden": 5573, "lombard": 23441, "##ate": 3686, "condemn": 28887, "jungle": 8894, "bruised": 18618, "##dal": 9305, "ash": 6683, "fencing": 15962, "often": 2411, "booking": 21725, "loop": 7077, "lionel": 14377, "giles": 13287, "##burn": 8022, "woolf": 29572, "moonlight": 11986, "brothers": 3428, "philips": 19087, "##dc": 16409, "swami": 20087, "slits": 29199, "##tie": 9515, "champions": 3966, "malvern": 28082, "ten": 2702, "sat": 2938, "dorian": 16092, "\u00b6": 1086, "firearms": 13780, "guinness": 17323, "elsie": 24603, "orlando": 10108, "talent": 5848, "madeleine": 19324, "'": 1005, "reassuring": 21093, "##sha": 7377, "ci": 25022, "segunda": 19071, "surrounding": 4193, "ignatius": 26841, "##\u30c8": 30240, "sperm": 18047, "lawrence": 5623, "tim": 5199, "##gate": 5867, "##bility": 8553, "outside": 2648, "lessons": 8220, "##rook": 25399, "##yon": 14001, "##\u672c": 30402, "verification": 22616, "granting": 15080, "estrada": 26482, "edgar": 9586, "##scoe": 28147, "magdalene": 26890, "\u0f58": 1432, "farmer": 7500, "marina": 9985, "nebula": 25677, "pedestal": 24496, "webb": 10923, "##sov": 23230, "highs": 26836, "mix": 4666, "hereditary": 14800, "capacities": 21157, "formulas": 25814, "##ando": 28574, "diffusion": 19241, "severe": 5729, "##\u05d6": 29793, "athletic": 5188, "deepened": 20183, "##\u09af": 29907, "correctional": 20873, "beak": 23525, "##\u2076": 30075, "support": 2490, "##eck": 11012, "[unused938]": 943, "ignited": 22395, "[unused378]": 383, "memorials": 22899, "hungry": 7501, "cheshire": 13789, "nbl": 28013, "##lham": 25968, "disturbances": 24535, "##liner": 20660, "fourth": 2959, "nagasaki": 27107, "##quet": 12647, "sewing": 22746, "angels": 7048, "[unused257]": 262, "fife": 20537, "drones": 24633, "impacts": 14670, "bassist": 9858, "throughout": 2802, "backed": 6153, "blackburn": 13934, "gotta": 10657, "jagger": 25827, "##written": 15773, "##hered": 27190, "inmates": 13187, "wat": 28194, "shrimp": 20130, "brands": 9639, "paris": 3000, "mhz": 11413, "overheard": 20443, "1909": 5556, "court": 2457, "restless": 15035, "novella": 20674, "mab": 26661, "octave": 21817, "##\u1165": 30008, "hay": 10974, "strawberry": 16876, "wakes": 17507, "luna": 12909, "313": 22997, "329": 29567, "alvaro": 24892, "[unused303]": 308, "enjoyment": 20195, "everything": 2673, "##creen": 24410, "##ric": 7277, "1859": 8165, "thou": 15223, "##pan": 9739, "##\u7fa9": 30462, "##\u30c3": 30237, "sports": 2998, "licked": 11181, "\u6226": 1856, "##sation": 26652, "chalmers": 29069, "swift": 9170, "swing": 7370, "staircase": 10714, "blend": 12586, "replication": 21647, "##ro": 3217, "south": 2148, "##coll": 26895, "structure": 3252, "##ti": 3775, "nelson": 5912, "nadu": 10703, "\u092f": 1332, "bra": 11655, "charters": 23010, "volatile": 20606, "tributaries": 15777, "sparkling": 16619, "conceptual": 17158, "armament": 14410, "ballistic": 19630, "207": 19843, "shortest": 20047, "thousand": 4595, "hardin": 27522, "eighteen": 7763, "realizing": 9301, "undergone": 17215, "##leigh": 13615, "##`": 29639, "goldsmith": 22389, "calculus": 19276, "davey": 20436, "kenji": 25894, "potentially": 9280, "##bon": 11735, "lizards": 23898, "\u66f8": 1871, "##ph": 8458, "contacted": 11925, "critique": 16218, "itf": 27682, "153": 16710, "grains": 17588, "confederation": 11078, "ballots": 17069, "corpse": 11547, "[unused526]": 531, "##\u00fe": 29670, "[unused512]": 517, "hope": 3246, "faust": 24021, "failing": 7989, "chronology": 17873, "keenan": 26334, "randolph": 13031, "reconstruction": 8735, "##\\": 29635, "rider": 7945, "[unused884]": 889, "badges": 23433, "hotter": 22302, "california": 2662, "thomson": 11161, "prosecutor": 12478, "tertiary": 13553, "\u570b": 1800, "##\u0456": 29760, "holocaust": 11513, "\u0686": 1303, "sullivan": 7624, "##enity": 20693, "shakespeare": 8101, "designers": 11216, "introduced": 3107, "##oto": 11439, "##iated": 15070, "christopher": 5696, "##cky": 17413, "refurbishment": 24478, "liberated": 19553, "travel": 3604, "##glia": 20011, "columbus": 8912, "suns": 19352, "wichita": 18614, "cuckoo": 29010, "comply": 14037, "curt": 20099, "mu": 14163, "comparing": 13599, "##chu": 20760, "scouts": 10158, "##llah": 18599, "impairment": 25172, "ngo": 17895, "casablanca": 24592, "excluded": 12421, "intra": 26721, "gaunt": 27534, "critics": 4401, "hapoel": 24208, "accepting": 10564, "francs": 24313, "resulting": 4525, "bethany": 16559, "luce": 19913, "notified": 19488, "unofficially": 29322, "clergy": 11646, "limb": 15291, "fancy": 11281, "metro": 6005, "fought": 4061, "##inski": 19880, "loyal": 8884, "crusade": 16282, "torres": 13101, "kane": 8472, "##bm": 25526, "##astic": 20875, "##riding": 21930, "proceeds": 10951, "oriented": 8048, "woodstock": 21028, "integrity": 11109, "##bie": 11283, "churchill": 10888, "backlash": 25748, "sufi": 21845, "constable": 12294, "##\u00a5": 29648, "##tha": 8322, "stalled": 20659, "##omo": 19506, "##aling": 21682, "digit": 15340, "join": 3693, "\u2606": 1621, "##enham": 23580, "demonstration": 10467, "sexuality": 13798, "decorative": 11584, "luther": 9678, "\u090f": 1314, "bully": 20716, "##fest": 14081, "consulate": 19972, "chargers": 18649, "socially": 14286, "robb": 26211, "mausoleum": 19049, "died": 2351, "##\u2282": 30137, "kicked": 6476, "speaker": 5882, "anyone": 3087, "##bus": 8286, "convention": 4680, "[unused590]": 595, "\u2116": 1578, "albrecht": 25542, "issued": 3843, "options": 7047, "specimens": 9908, "tracing": 16907, "fu": 11865, "sheppard": 24976, "target": 4539, "sanford": 21153, "parasite": 21198, "condoms": 29094, "persia": 16667, "distinct": 5664, "vinci": 23765, "dot": 11089, "mechanics": 9760, "folded": 6999, "spoiled": 19582, "scientific": 4045, "fears": 10069, "openings": 16556, "##air": 11215, "mainland": 8240, "prep": 17463, "soothing": 16684, "##ometric": 28993, "buyers": 17394, "communist": 4750, "moderator": 29420, "dieter": 27976, "peter": 2848, "singled": 25369, "venice": 7914, "garion": 12523, "[unused443]": 448, "orton": 25161, "simplest": 21304, "qualifiers": 18956, "crowned": 10249, "##thes": 24138, "charles": 2798, "abducted": 20361, "##iful": 18424, "establishes": 21009, "moderate": 8777, "##hein": 26496, "parkinson": 20310, "siege": 6859, "musically": 21385, "##gua": 19696, "\u057e": 1235, "##nated": 23854, "founder": 3910, "##\u0628\u0627\u062f": 25799, "wardrobe": 17828, "trapping": 22977, "##\u77f3": 30448, "diver": 17856, "##bre": 13578, "##wehr": 27156, "brilliance": 28850, "demi": 27668, "tale": 6925, "##raya": 29539, "again": 2153, "boomed": 28908, "circled": 14867, "##ji": 4478, "healthy": 7965, "##\u1d30": 30028, "exploited": 18516, "irregular": 12052, "composed": 3605, "##hia": 12995, "fulbright": 26695, "curtiss": 26431, "israelis": 28363, "melt": 14899, "we": 2057, "stature": 21120, "##49": 26224, "\u0989": 1350, "dies": 8289, "horns": 11569, "paulo": 9094, "jump": 5376, "##iner": 26455, "suffers": 17567, "kay": 10905, "madhya": 20841, "##sius": 24721, "beneath": 4218, "voted": 5444, "spears": 13957, "##media": 16969, "scrap": 15121, "remove": 6366, "##piece": 11198, "thirsty": 24907, "payne": 13470, "housemates": 28152, "raoul": 22063, "boulder": 13264, "metric": 12046, "husband": 3129, "turtles": 16489, "##uel": 16284, "##ometer": 18721, "deserved": 10849, "##hani": 23573, "##kti": 22462, "[unused550]": 555, "immersed": 26275, "[unused576]": 581, "[unused427]": 432, "\u6e05": 1903, "offshore": 12195, "modular": 19160, "sheila": 15062, "commandos": 25144, "genevieve": 20245, "creamy": 24519, "xbox": 12202, "[unused65]": 66, "kent": 5982, "##water": 5880, "rained": 28270, "gathered": 5935, "\u0921": 1321, "##fully": 7699, "paired": 12739, "references": 7604, "100th": 16919, "detained": 14620, "labyrinth": 24239, "\u0e07": 1410, "##\u05e4": 29807, "leader": 3003, "incorporate": 13265, "sinn": 26403, "freelance": 15919, "strode": 11885, "[unused933]": 938, "##unced": 22392, "##brush": 18623, "diocese": 5801, "chants": 29534, "##\u1110": 30003, "##0s": 16223, "\u03be": 1168, "spielberg": 28740, "voltage": 10004, "confirmed": 4484, "avalon": 18973, "##gical": 26715, "cafeteria": 16673, "##folia": 21710, "##nica": 12782, "##fo": 14876, "engineering": 3330, "uncertainty": 12503, "keys": 6309, "palestine": 8976, "warring": 28509, "successive": 11165, "##rin": 6657, "##lie": 8751, "proponents": 20401, "kv": 24888, "glands": 23340, "experiment": 7551, "mist": 11094, "entertainment": 4024, "\u2081": 1548, "a2": 22441, "steps": 4084, "1649": 26538, "angel": 4850, "carriage": 9118, "##iology": 20569, "tran": 25283, "pursuant": 27081, "queen": 3035, "##copic": 26461, "1987": 3055, "##jing": 29518, "harvard": 5765, "[unused676]": 681, "palace": 4186, "earthquake": 8372, "[unused285]": 290, "adelaide": 7364, "run": 2448, "##vis": 11365, "ymca": 26866, "groan": 13001, "sparrow": 19479, "semantic": 21641, "scholarships": 15691, "bluff": 14441, "hungarians": 24027, "witty": 25591, "corrugated": 27186, "observes": 24451, "blackberry": 25935, "##\u025b": 29275, "rag": 17768, "fluffy": 27036, "quietly": 5168, "[unused932]": 937, "##rini": 22612, "##uld": 21285, "seniors": 15995, "abbot": 11428, "exterior": 8829, "##stream": 21422, "legitimacy": 22568, "controllers": 21257, "golfer": 20601, "gifted": 12785, "impact": 4254, "covers": 4472, "eyre": 26975, "stack": 9991, "##iti": 25090, "\u6c5f": 1897, "weary": 16040, "ferrer": 28390, "dreaming": 12802, "teasing": 12216, "dug": 8655, "##atz": 20501, "implementations": 24977, "mother": 2388, "grandson": 7631, "##ley": 3051, "stabbing": 21690, "mouse": 8000, "319": 26499, "messages": 7696, "republicans": 10643, "soup": 11350, "utilize": 16462, "\u30ea": 1732, "milos": 26038, "##cit": 26243, "feel": 2514, "hazards": 22010, "##nzo": 25650, "domestic": 4968, "[unused389]": 394, "##eis": 17580, "##nk": 8950, "continuation": 13633, "narrator": 11185, "macdonald": 10406, "##\u09bf": 29915, "tenant": 16713, "tremor": 27734, "agencies": 6736, "pere": 23976, "aerial": 9682, "tidal": 15065, "kilometers": 7338, "##ey": 3240, "##\u4e45": 30274, "##36": 21619, "##lino": 25226, "unlawful": 22300, "retail": 7027, "bridget": 19218, "directorate": 13634, "franz": 8965, "##\u0bbe": 29931, "drawers": 22497, "oriental": 11481, "union": 2586, "receiver": 8393, ",": 1010, "shade": 8703, "\u2080": 1547, "stables": 16232, "eine": 27665, "clash": 13249, "settings": 10906, "joseph": 3312, "[unused586]": 591, "##yria": 20379, "detachments": 29568, "##dog": 16168, "creating": 4526, "photographer": 8088, "sells": 15187, "pasta": 24857, "\u53f8": 1791, "##real": 22852, "borders": 6645, "##folk": 29284, "irving": 12415, "gallantry": 22111, "brisbane": 7717, "retro": 22307, "electricity": 6451, "##sho": 22231, "\u1d58": 1506, "ethnicity": 18240, "mildly": 19499, "keeping": 4363, "recognized": 3858, "##boarding": 21172, "vfl": 13480, "##eth": 11031, "dialect": 9329, "yeah": 3398, "cara": 14418, "center": 2415, "substituted": 17316, "potomac": 18854, "gaming": 10355, "obscured": 23649, "criminals": 12290, "wexford": 23121, "janet": 9965, "[unused700]": 705, "1645": 26081, "[unused399]": 404, "##9th": 25660, "pursuit": 8463, "swinging": 11820, "[unused783]": 788, "precision": 11718, "empowerment": 23011, "relics": 16712, "##ezer": 25733, "\u79be": 1927, "righteous": 19556, "dash": 11454, "connie": 16560, "translation": 5449, "412": 25873, "downloaded": 22817, "voyage": 8774, "residues": 22644, "yang": 8675, "21st": 7398, "lifeless": 22185, "survivor": 12084, "marguerite": 15334, "sad": 6517, "beaumont": 16210, "cat": 4937, "resurrection": 15218, "lesbian": 11690, "weird": 6881, "yucatan": 28631, "perched": 17335, "forcing": 6932, "##jiang": 21786, "spoil": 27594, "##ogenic": 24278, "concordia": 24982, "squeak": 29552, "comments": 7928, "injection": 13341, "adoptive": 24787, "planner": 24555, "2": 1016, "involvement": 6624, "[unused412]": 417, "rutland": 27780, "pageant": 12438, "worrying": 15366, "clinched": 18311, "slate": 12796, "jubilee": 13078, "1856": 8708, "atkinson": 18646, "##books": 17470, "cursed": 10678, "alla": 25699, "##\u4e0d": 30270, "fuzzy": 18001, "catching": 9105, "\u00f0": 1098, "##tan": 5794, "unhappy": 12511, "##kis": 14270, "revealing": 8669, "praying": 14488, "blooms": 29037, "zen": 16729, "thankful": 18836, "\u21c4": 1589, "##\u027e": 29692, "arya": 26140, "##arded": 28037, "colony": 5701, "##z": 2480, "[unused128]": 133, "available": 2800, "drunken": 15967, "savoy": 16394, "##\uff0c": 30515, "scottish": 4104, "baritone": 14458, "register": 4236, "##cast": 10526, "dispatch": 18365, "glint": 25263, "\u03c4": 1174, "borough": 5538, "gracefully": 28266, "cl": 18856, "paws": 24392, "shiny": 12538, "stained": 9702, "configuration": 9563, "lord": 2935, "penang": 21812, "branding": 16140, "habitat": 6552, "cannot": 3685, "770": 29065, "this": 2023, "operators": 9224, "banjo": 16698, "incoming": 14932, "platoon": 13799, "promote": 5326, "accomplishment": 24718, "distributing": 20083, "[unused555]": 560, "\u0142odz": 17814, "##rate": 11657, "headlining": 26533, "##are": 12069, "surveying": 19654, "blanche": 18158, "sprinter": 19938, "##70": 19841, "front": 2392, "astor": 25159, "cups": 10268, "period": 2558, "##hope": 26441, "##\u0916": 29852, "shane": 8683, "promotional": 10319, "##tops": 25181, "rank": 4635, "ked": 16135, "##udes": 22087, "forbes": 10822, "plume": 26888, "niece": 12286, "09": 5641, "density": 4304, "manuel": 7762, "##khar": 22510, "reopened": 11882, "[unused278]": 283, "highness": 17114, "[unused832]": 837, "##dding": 27027, "moi": 25175, "destiny": 10461, "brighter": 16176, "narratives": 22143, "accommodations": 26167, "bipolar": 29398, "rockets": 12496, "hamilton": 5226, "rhine": 10950, "mcgregor": 23023, "1907": 5528, "brandenburg": 16426, "aggregate": 9572, "##uo": 19098, "patterns": 7060, "jonathan": 5655, "faculty": 4513, "##ush": 20668, "##fe": 7959, "1820": 11102, "##len": 7770, "fusiliers": 27207, "##bn": 24700, "malley": 25271, "behave": 16582, "sharon": 10666, "##ces": 9623, "headline": 17653, "arrested": 4727, "grounded": 16764, "##athi": 25457, "##ps": 4523, "masonic": 21152, "##lberg": 22927, "##tus": 5809, "cochran": 28506, "predicting": 29458, "maneuvers": 23802, "panting": 15601, "##ango": 23422, "\u0e1e": 1414, "leeds": 7873, "##iers": 10136, "vanuatu": 27625, "affordable": 15184, "##kling": 20260, "moroccan": 17494, "fjord": 26158, "[unused377]": 382, "1962": 3705, "##amp": 16613, "editing": 9260, "malaga": 27382, "##da": 2850, "luz": 26214, "anson": 25435, "##sta": 9153, "symphonic": 18957, "##\u0e21": 29951, "ito": 23333, "[unused422]": 427, "echoing": 17142, "##gration": 29397, "brooding": 28902, "met": 2777, "[unused243]": 248, "opus": 16895, "arrangements": 7565, "monasteries": 15947, "forsyth": 29434, "curls": 14484, "treatments": 13441, "pba": 21563, "\u30c8": 1714, "observations": 9420, "twisting": 12814, "breakfast": 6350, "##dles": 27822, "idiots": 28781, "blake": 6511, "lukas": 23739, "norway": 5120, "gameplay": 11247, "coe": 24873, "sustainable": 9084, "##oc": 10085, "\u056f": 1227, "##upt": 29441, "cade": 18615, "germany": 2762, "hum": 14910, "respectful": 26438, "sermon": 18408, "thieves": 15862, "concerns": 5936, "\u2092": 1562, "carving": 18441, "cheung": 22632, "\u0bae": 1389, "huts": 23326, "hezbollah": 25713, "##oed": 29099, "winds": 7266, "1881": 7005, "damascus": 16094, "##lands": 8653, "62": 5786, "##\u0bae": 29925, "offs": 12446, "seated": 8901, "\u03ba": 1164, "[unused208]": 213, "bt": 18411, "competes": 14190, "chiang": 17684, "whilst": 5819, "foundation": 3192, "spontaneously": 27491, "payload": 18093, "\u306b": 1668, "correspond": 17254, "phonetic": 26664, "membrane": 10804, "##tort": 25485, "mouthful": 28462, "weight": 3635, "##rug": 26549, "[unused57]": 58, "johansson": 26447, "assent": 27195, "mughal": 17877, "##ient": 11638, "##board": 6277, "978": 4891, "salazar": 25315, "pace": 6393, "financial": 3361, "##utable": 23056, "beginning": 2927, "depicted": 8212, "forth": 5743, "islander": 12544, "##osh": 17369, "##illa": 9386, "##ider": 18688, "deserve": 10107, "\u10d4": 1442, "saline": 28413, "joyah": 27098, "compulsory": 14770, "chopra": 28826, "[unused914]": 919, "meridian": 17984, "##ded": 5732, "linux": 11603, "starting": 3225, "##\u5fa1": 30373, "sands": 13457, "pistols": 18248, "flexible": 12379, "debates": 14379, "radically": 25796, "##ord": 8551, "variants": 10176, "canons": 21975, "wigan": 15598, "junior": 3502, "nsa": 23971, "regulars": 24945, "venezuela": 8326, "karnataka": 12092, "trafficking": 11626, "tension": 6980, "attacks": 4491, "\u091f": 1320, "scratches": 25980, "##elia": 13902, "identified": 4453, "congressman": 12295, "involved": 2920, "slovakia": 10991, "clears": 28837, "vampires": 6144, "##\u10d5": 29979, "##ress": 8303, "preparations": 12929, "sha": 21146, "rifles": 9494, "scents": 29254, "##ddy": 14968, "handles": 16024, "##\u2191": 30112, "##tt": 4779, "outraged": 23558, "198": 20003, "hinges": 25484, "crooked": 15274, "poised": 22303, "awards": 2982, "width": 9381, "accompanying": 10860, "illustrious": 26150, "##\u52dd": 30306, "instructed": 10290, "fingernails": 21243, "abyss": 22159, "##\u221e": 30128, "1679": 27924, "simultaneously": 7453, "strife": 27865, "vhf": 27527, "racetrack": 28435, "posted": 6866, "divide": 11443, "collarbone": 29600, "phoenix": 6708, "iceland": 10399, "edna": 21051, "##isen": 28992, "explosion": 7738, "surrendered": 10795, "vantage": 27274, "preliminary": 8824, "beliefs": 9029, "spruce": 19893, "judd": 20128, "ashley": 9321, "mckinley": 22121, "framework": 7705, "luxembourg": 10765, "##ins": 7076, "execute": 15389, "##tner": 18885, "##shaft": 25679, "revoked": 22837, "##inger": 9912, "magnate": 27470, "professors": 12655, "hardly": 6684, "cosmetics": 25381, "99": 5585, "skye": 16590, "gandhi": 12338, "##llen": 12179, "1821": 11723, "gregorian": 25847, "##nell": 9091, "[unused795]": 800, "openly": 10132, "##oia": 25463, "read": 3191, "hockey": 3873, "carol": 8594, "grabbed": 4046, "##ffs": 21807, "##ried": 11998, "pushes": 13956, "380": 17014, "admissions": 20247, "befriended": 23386, "deeds": 15616, "wiltshire": 17045, "producer": 3135, "\u05e0": 1257, "pandora": 19066, "bros": 10243, "distinctly": 19517, "killed": 2730, "psychiatric": 13691, "beings": 9552, "aviation": 5734, "obituary": 20815, "##\u1100": 29991, "##ass": 12054, "##i": 2072, "##ste": 13473, "##vati": 20203, "\u30eb": 1733, "##ark": 17007, "splits": 19584, "mace": 19382, "emily": 6253, "sore": 14699, "##sr": 21338, "critical": 4187, "sewage": 19873, "strive": 29453, "giggling": 21783, "size": 2946, "birch": 16421, "47th": 28243, "[unused83]": 84, "ode": 24040, "\u00a5": 1071, "##tate": 12259, "residue": 21755, "##dna": 28911, "##dale": 5634, "##hrer": 17875, "campos": 26925, "crush": 10188, "\u4e8c": 1752, "compiler": 21624, "remarried": 19316, "instruction": 7899, "nelly": 29498, "\uff01": 1986, "homework": 19453, "threads": 16457, "dominique": 18165, "traveled": 6158, "\u0564": 1222, "unitary": 22127, "##llary": 24435, "tc": 22975, "##som": 25426, "conferences": 9281, "##fying": 14116, "##\u0dbb": 29941, "delaying": 29391, "##\u5341": 30309, "calculations": 16268, "fc": 4429, "night": 2305, "attorneys": 16214, "segregated": 24382, "##\u0cb0": 29937, "##\u10db": 29984, "viruses": 18191, "##\u5409": 30319, "meredith": 10635, "researchers": 6950, "kiran": 22403, "##mel": 10199, "army": 2390, "doing": 2725, "##kow": 24144, "##iva": 11444, "rosary": 28291, "cfa": 28125, "tissue": 8153, "clerk": 7805, "##wil": 29602, "academie": 19669, "##uded": 13936, "nestor": 25397, "wallace": 7825, "ceramic": 14692, "garage": 7381, "dime": 27211, "cycles": 12709, "devastated": 13879, "[unused160]": 165, "[unused760]": 765, "deafening": 28840, "maxim": 20446, "universal": 5415, "intern": 25204, "\u0f44": 1427, "##meo": 26247, "##stis": 29472, "narrowing": 21978, "staples": 24533, "probably": 2763, "bits": 9017, "asserts": 19514, "\u5916": 1809, "flinders": 29120, "badly": 6649, "hardwood": 23165, "robertson": 9923, "fungal": 28079, "##acker": 25418, "constant": 5377, "##cano": 23803, "underneath": 7650, "caliph": 22733, "grange": 18203, "schooling": 14118, "##cked": 18141, "waited": 4741, "##dai": 21351, "canals": 17263, "\u221e": 1601, "pajamas": 27621, "romney": 19615, "nests": 17415, "\u0621": 1269, "crotch": 28629, "junction": 5098, "1635": 27426, "brutality": 24083, "clergyman": 22232, "micro": 12702, "##gation": 12540, "hydroelectric": 18541, "##bad": 9024, "reid": 9027, "##rh": 25032, "futile": 24495, "steady": 6706, "corridors": 17506, "institut": 17126, "##\u0294": 29705, "availability": 11343, "##se": 3366, "##hea": 20192, "come": 2272, "ctv": 28720, "rendering": 14259, "sacked": 14159, "agenda": 11376, "annoying": 15703, "absently": 21284, "turkmenistan": 25432, "capsule": 18269, "\u2206": 1594, "ana": 9617, "flew": 5520, "##sai": 15816, "kan": 22827, "1972": 3285, "prophet": 12168, "unmistakable": 24219, "require": 5478, "fuss": 28554, "##ides": 8621, "[unused36]": 37, "dotted": 20384, "threatens": 17016, "##vres": 24790, "meadows": 13524, "spine": 8560, "quad": 17718, "gable": 13733, "##dge": 11818, "believed": 3373, "proving": 13946, "new": 2047, "scout": 7464, "##so": 6499, "bouquet": 26700, "172": 18253, "promo": 19430, "wembley": 16538, "invaders": 17347, "sheriff": 6458, "abstraction": 24504, "hood": 7415, "marrying": 13516, "##ouse": 15441, "foxes": 24623, "##eves": 23047, "##pkins": 29531, "oblast": 10379, "hua": 23064, "sucker": 26476, "meaningless": 25120, "steele": 12872, "clubhouse": 22067, "upscale": 28276, "##zoo": 23221, "protruding": 23868, "galactic": 21375, "rotten": 11083, "[unused809]": 814, "fifteen": 5417, "whale": 13156, "scream": 6978, "jude": 12582, "[unused673]": 678, "gravity": 8992, "[unused626]": 631, "benedict": 12122, "christine": 10941, "tunisia": 13437, "dexter": 14375, "alexis": 13573, "##itia": 29050, "shuffling": 24770, "alloy": 17564, "snatch": 23365, "llc": 11775, "leukemia": 25468, "##rization": 26910, "nightfall": 28018, "counterparts": 14562, "seasons": 3692, "likely": 3497, "##\u03ba": 29726, "oakley": 28876, "##\u00df": 19310, "kaladin": 22588, "cheerleading": 25721, "##ctuated": 25638, "commando": 15054, "courtney": 14139, "catholic": 3234, "mount": 4057, "rushes": 18545, "relocation": 18344, "briefcase": 21793, "bikini": 20345, "tulane": 27437, "fulfillment": 29362, "comfortably": 18579, "salisbury": 13817, "chilling": 27017, "lifting": 8783, "lebanese": 12592, "rohan": 28605, "commons": 7674, "##sz": 17112, "##not": 17048, "##fold": 10371, "spear": 12341, "surgery": 5970, "segregation": 18771, "##rator": 16259, "nicole": 9851, "cheerful": 18350, "visits": 7879, "infants": 16725, "disappeared": 5419, "deity": 12764, "antiquities": 21387, "agents": 6074, "##hic": 16066, "roommate": 18328, "admitted": 4914, "louder": 10989, "##\u5c07": 30354, "n": 1050, "pond": 8644, "bravery": 16534, "##hyllum": 27750, "\u0433": 1183, "secrecy": 20259, "navarro": 23524, "fleets": 25515, "harp": 14601, "federal": 2976, "token": 19204, "##ener": 24454, "ninja": 14104, "vet": 29525, "belinda": 24574, "director": 2472, "centred": 16441, "concessions": 20638, "##foot": 13064, "##dley": 14232, "paying": 7079, "seeded": 13916, "yoo": 26823, "canterbury": 9976, "##san": 8791, "surprises": 20096, "licking": 17033, "monks": 9978, "navajo": 22440, "##hiko": 22204, "global": 3795, "1867": 7517, "##num": 19172, "fitting": 11414, "##ran": 5521, "jeep": 14007, "juvenile": 11799, "hook": 8103, "##iro": 9711, "fitness": 10516, "terraces": 25633, "therefore": 3568, "throws": 11618, "cognitive": 10699, "inc": 4297, "flash": 5956, "kindness": 16056, "##inations": 22045, "##layer": 24314, "##hner": 28989, "unpublished": 19106, "iowa": 5947, "##\u2022": 30063, "parliament": 3323, "barrage": 19359, "messaging": 24732, "villagers": 11904, "##\u00b4": 29658, "##inated": 15833, "remodeled": 27170, "##skin": 29334, "\u9fb8": 1983, "hansen": 13328, "mai": 14736, "getting": 2893, "##\u2207": 30123, "##chia": 20881, "tab": 21628, "theft": 11933, "tracts": 22069, "postwar": 20013, "judged": 13224, "slang": 21435, "enlarged": 11792, "physically": 8186, "sober": 17358, "##isa": 14268, "##tized": 23355, "tributary": 8914, "##\u03be": 29729, "##\u304b": 30177, "easily": 4089, "derived": 5173, "##\u0131": 11722, "authentication": 27280, "ashland": 24346, "teaches": 12011, "##rton": 11715, "rosy": 26851, "##liga": 14715, "##ur": 3126, "##jima": 19417, "waterfall": 14297, "##oper": 25918, "auckland": 8666, "raw": 6315, "moaned": 12557, "penal": 18476, "[unused564]": 569, "marquis": 13410, "vichy": 29177, "##time": 7292, "bernhard": 21432, "headquarters": 4075, "[unused398]": 403, "genetics": 14471, "##\u026b": 29686, "##nity": 22758, "navigable": 28538, "##emon": 26941, "avoided": 9511, "tommy": 6838, "beaming": 27910, "ring": 3614, "knit": 22404, "tower": 3578, "##rier": 16252, "quan": 24110, "##\u7cf9": 30460, "hinted": 21795, "555": 29541, "##\u0937": 29873, "apply": 6611, "wrestlemania": 28063, "lamb": 12559, "##ythe": 26688, "odessa": 19693, "iqbal": 28111, "sporadic": 24590, "##oration": 21223, "affair": 6771, "peacefully": 21614, "105": 8746, "inner": 5110, "##\u00f7": 29669, "##nate": 12556, "\u2264": 1608, "bargaining": 21990, "paragraph": 20423, "mural": 15533, "performed": 2864, "##fat": 27753, "sachs": 22818, "coverage": 6325, "\uff0c": 1989, "1894": 6539, "bachelor": 5065, "help": 2393, "graduated": 3852, "alonso": 17649, "humidity": 18213, "##we": 8545, "separates": 18600, "cathedral": 5040, "93": 6109, "reflects": 11138, "##jm": 24703, "##iling": 16281, "apostolic": 11815, "analyzing": 20253, "outlets": 11730, "jaguar": 16490, "rosario": 17496, "patriarch": 12626, "mongolia": 13906, "##\u00a9": 29652, "[unused244]": 249, "additional": 3176, "##ractive": 26884, "pushing": 6183, "rain": 4542, "perceived": 8690, "averaged": 11398, "universite": 22176, "##bread": 27035, "struggled": 6915, "[unused923]": 928, "vigorously": 22400, "##egorical": 27203, "helens": 24074, "##uously": 28078, "databases": 17881, "allison": 10786, "articulated": 20742, "minded": 13128, "abandon": 10824, "##\u4fdd": 30292, "sasha": 14673, "compass": 16681, "##verse": 16070, "##pool": 16869, "sold": 2853, "sheen": 20682, "automated": 12978, "industrialist": 21691, "contractual": 27948, "lyrics": 4581, "espn": 10978, "##34": 22022, "polly": 17543, "\u671d": 1874, "climbed": 6589, "newfoundland": 11944, "credited": 5827, "hedges": 25840, "##\u30a3": 30220, "##tablished": 28146, "kala": 26209, "squeezing": 15328, "carlo": 9758, "outlying": 25376, "##vian": 18073, "macau": 16878, "misses": 22182, "otago": 21831, "boots": 6879, "styled": 13650, "cancelled": 8014, "apostles": 19178, "reissued": 14805, "\u22c5": 1614, "pilgrims": 17992, "ah": 6289, "inflammatory": 20187, "occasionally": 5681, "\uff0f": 1992, "comic": 5021, "70s": 17549, "ventured": 20510, "cooler": 14976, "incompatible": 25876, "sterling": 10933, "networking": 14048, "federico": 20493, "tide": 10401, "##bor": 12821, "[unused396]": 401, "pile": 8632, "##tting": 13027, "bmw": 13154, "lennon": 14294, "##cliffe": 18115, "linnaeus": 21610, "anaheim": 20835, "archie": 13255, "protagonist": 10191, "poznan": 18320, "admired": 12749, "colonists": 15526, "sweetie": 22872, "patent": 7353, "1754": 22593, "##fed": 25031, "communion": 15661, "tatar": 29241, "verified": 20119, "##ut": 4904, "whimpered": 26184, "megan": 12756, "baseline": 26163, "\u85e4": 1944, "ozone": 26443, "terms": 3408, "cumulative": 23260, "amazed": 15261, "vijay": 17027, "\u308b": 1687, "hari": 21291, "911": 19989, "avengers": 14936, "##hold": 12640, "dee": 9266, "veracruz": 23741, "thirteen": 7093, "##ig": 8004, "seo": 27457, "dissent": 24116, "floods": 14295, "hurried": 9520, "##pit": 23270, "ceremonial": 12961, "scuba": 28651, "champs": 29008, "designate": 24414, "submarines": 12622, "colombian": 13598, "ministerial": 18645, "derek": 7256, "##mable": 24088, "sim": 21934, "\u2022": 1528, "##yx": 17275, "adds": 9909, "hopkins": 10239, "indianapolis": 9506, "internal": 4722, "peeking": 28222, "##86": 20842, "1663": 29016, "rhineland": 21640, "contributions": 5857, "townland": 23635, "monkey": 10608, "ned": 12311, "[unused336]": 341, "reigns": 23481, "##\u0434": 29742, "##orin": 28741, "gregg": 18281, "aj": 19128, "##ma": 2863, "write": 4339, "calling": 4214, "nuclei": 23767, "##kes": 9681, "folder": 19622, "##case": 18382, "yarmouth": 28792, "spade": 23288, "volvo": 21074, "consequences": 8465, "jen": 15419, "thierry": 26413, "suspense": 23873, "undefeated": 15188, "produce": 3965, "223": 20802, "\u8a01": 1949, "drop": 4530, "oricon": 22237, "genetic": 7403, "\u7f8e": 1935, "[unused491]": 496, "farms": 8623, "stemming": 29217, "intake": 13822, "ann": 5754, "\u2227": 1602, "hormones": 20752, "[unused72]": 73, "muster": 20327, "foam": 17952, "yearly": 12142, "nodded": 3368, "generation": 4245, "dissatisfaction": 28237, "sainte": 16947, "##iso": 19565, "sw": 25430, "dirty": 6530, "disabled": 9776, "gambling": 12219, "chatting": 22331, "usc": 15529, "judy": 12120, "participated": 4194, "derive": 18547, "##\u677e": 30406, "\u5065": 1768, "tennis": 5093, "broadcasts": 8960, "wheelbase": 29141, "expanding": 9186, "##erman": 18689, "habitats": 10746, "pairs": 7689, "##bid": 17062, "illustrates": 24899, "##\u0bb2": 29928, "217": 20335, "ministries": 16410, "nearing": 23454, "celebrates": 21566, "foreword": 23059, "periphery": 23275, "lastly": 22267, "inward": 20546, "##vet": 19510, "[unused960]": 965, "slogan": 14558, "healthcare": 9871, "durga": 28746, "adulthood": 20480, "superfamily": 24169, "\u0279": 1125, "reflex": 22259, "##nsky": 25655, "carries": 7883, "expertise": 11532, "hammersmith": 28420, "later": 2101, "##mans": 15154, "1842": 10008, "willingly": 18110, "1622": 28133, "##runa": 26605, "morley": 20653, "1710": 23841, "shield": 6099, "railing": 15747, "demolished": 7002, "transforming": 17903, "cultivation": 13142, "\u0142": 1105, "[unused356]": 361, "engine": 3194, "perfectly": 6669, "doctors": 7435, "contender": 20127, "triumphant": 25251, "lithium": 22157, "marshal": 8610, "[unused951]": 956, "##founded": 21001, "hurts": 13403, "fragile": 13072, "discs": 15303, "##rwin": 27349, "macbeth": 25182, "digest": 17886, "implant": 27159, "##rigues": 22934, "fidelity": 22625, "actually": 2941, "dunedin": 22020, "protecting": 8650, "anybody": 10334, "##+": 29622, "russo": 17023, "cages": 27157, "isaiah": 18850, "es": 9686, "##mise": 28732, "1748": 24445, "##hiff": 25798, "barbarians": 28056, "persisted": 19035, "##lift": 18412, "cherokee": 13796, "##\u5dff": 30363, "treaty": 5036, "[unused931]": 936, "##chua": 26200, "\u00a4": 1070, "compiled": 9227, "##ogical": 20734, "diverse": 7578, "familiar": 5220, "##re": 2890, "drained": 11055, "ticking": 28561, "frankie": 12784, "impression": 8605, "hopefully": 11504, "unpaid": 23850, "##berman": 23991, "[unused196]": 201, "eventual": 9523, "560": 21267, "22": 2570, "##lea": 19738, "exempt": 11819, "painting": 4169, "keen": 10326, "bombay": 11831, "##itive": 13043, "danes": 27476, "checked": 7039, "fair": 4189, "##lal": 13837, "aft": 16638, "earned": 3687, "shortage": 15843, "sway": 17812, "aztec": 25245, "subspecies": 11056, "islands": 3470, "nutrient": 26780, "goodwin": 19928, "higgins": 13466, "vowels": 15260, "##ously": 13453, "primitive": 10968, "dipping": 23427, "missile": 7421, "wellness": 25860, "##sett": 21678, "##yne": 9654, "contractor": 13666, "debuts": 26740, "mabel": 19486, "[unused309]": 314, "ported": 27650, "##cal": 9289, "emmy": 10096, "##ophone": 25232, "v8": 15754, "administering": 28965, "##hurst": 10510, "inactivated": 15663, "##eger": 26320, "##weed": 18041, "doi": 9193, "jackson": 4027, "##vate": 16952, "stares": 14020, "goodnight": 22708, "ib": 21307, "seville": 18983, "surplus": 15726, "viva": 20022, "mcbride": 18958, "middlesbrough": 21655, "42": 4413, "offenders": 19591, "behold": 27541, "revolving": 24135, "tapping": 15135, "fracture": 19583, "##\u5c0f": 30355, "##\u30fc": 30265, "##gling": 18483, "|": 1064, "taluk": 23140, "vivo": 24269, "##orth": 28610, "[unused440]": 445, "##core": 17345, "begin": 4088, "1717": 27525, "thorough": 16030, "genuinely": 15958, "501": 16202, "erebidae": 25875, "featherweight": 27145, "underside": 17313, "1974": 3326, "valley": 3028, "repertory": 21099, "##chen": 8661, "##urt": 19585, "cleanup": 27686, "pleas": 22512, "[unused864]": 869, "einstein": 15313, "defined": 4225, "##drum": 21884, "161": 17365, "rushing": 8375, "\u9f8d": 1982, "gage": 10012, "##\u0631": 17149, "upbringing": 24615, "sammy": 14450, "even": 2130, "421": 29403, "ryder": 11731, "titus": 18828, "totals": 21948, "##hism": 23108, "t": 1056, "pre": 3653, "presiding": 18131, "reaper": 19559, "rao": 10546, "freeway": 10846, "comprises": 8681, "pastoral": 13645, "raged": 28374, "beaten": 7854, "commemorating": 20646, "raphael": 12551, "noctuidae": 24893, "tub": 14366, "astonishing": 26137, "\u3075": 1674, "muffled": 15783, "##\uff1f": 30520, "britain": 3725, "##aud": 19513, "[unused193]": 198, "raider": 27826, "educating": 25088, "##lta": 24458, "##mics": 22924, "maturity": 16736, "##oise": 23565, "##\u201d": 30059, "earth": 3011, "##chio": 23584, "suspect": 8343, "protections": 28548, "risk": 3891, "memphis": 9774, "impaired": 18234, "influenza": 24442, "chorale": 26561, "emotional": 6832, "elliptic": 29413, "push": 5245, "kellogg": 26129, "attackers": 17857, "blessed": 10190, "##bin": 8428, "pu": 16405, "consists": 3774, "tomatoes": 12851, "anticipation": 11162, "zimbabwe": 11399, "##ban": 8193, "##eber": 22669, "291": 27173, "industrial": 3919, "almost": 2471, "lungs": 8948, "cooperate": 17654, "##holes": 19990, "##stand": 21515, "##nator": 27413, "nilsson": 29376, "##book": 8654, "lb": 6053, "##ality": 23732, "##ability": 8010, "[unused575]": 580, "section": 2930, "[unused274]": 279, "rebels": 8431, "quarterfinals": 9237, "tram": 12517, "\u7701": 1920, "spirited": 24462, "##chers": 21844, "chesapeake": 20867, "[unused205]": 210, "manifold": 19726, "\u064a": 1300, "reconstructed": 14858, "##js": 22578, "notably": 5546, "##lization": 22731, "goodman": 14514, "shaved": 20665, "##\uff09": 30514, "86": 6564, "pockets": 10306, "forested": 15205, "catalina": 22326, "\u3078": 1675, "fifties": 25942, "worship": 7425, "respondents": 25094, "##uman": 19042, "verona": 20197, "trimmed": 21920, "munoz": 23685, "##rand": 13033, "compilations": 22754, "moines": 23286, "##ych": 17994, "vamp": 20279, "involving": 5994, "[unused78]": 79, "automation": 19309, "##gin": 11528, "algae": 18670, "##ght": 13900, "kids": 4268, "##for": 29278, "maitland": 25511, "ky": 18712, "detecting": 25952, "galveston": 26630, "women": 2308, "igor": 14661, "arriving": 7194, "assignments": 14799, "explicitly": 12045, "consoles": 22659, "##tain": 18249, "hannover": 29209, "degradation": 16627, "##zzo": 12036, "##dm": 22117, "guillermo": 21070, "towed": 18948, "melody": 8531, "peaceful": 9379, "owen": 7291, "symposium": 17899, "safety": 3808, "abilities": 7590, "blankly": 26344, "##tal": 9080, "relativity": 20805, "##pile": 22090, "assembly": 3320, "[unused969]": 974, "diamonds": 11719, "##hab": 25459, "##ppe": 21512, "tides": 22487, "publishes": 12466, "morrison": 9959, "newest": 14751, "mt": 11047, "[unused507]": 512, "uses": 3594, "whitney": 9809, "gazing": 16448, "barr": 19820, "control": 2491, "underworld": 13607, "depression": 6245, "deserves": 17210, "enrolled": 8302, "[unused775]": 780, "chains": 8859, "##\u9593": 30495, "antony": 16262, "hawaiian": 12188, "derelict": 28839, "below": 2917, "light": 2422, "imagination": 9647, "eliminated": 5892, "[unused545]": 550, "##ndt": 26379, "flicker": 17909, "11": 2340, "enough": 2438, "hilary": 22744, "doorstep": 26581, "##dock": 14647, "meritorious": 22053, "##osis": 12650, "henson": 27227, "##metry": 24327, "aspiring": 22344, "extract": 14817, "deployment": 10813, "mine": 3067, "able": 2583, "hermann": 12224, "mauritius": 18004, "luis": 6446, "activists": 10134, "##eur": 11236, "##nin": 11483, "emeritus": 12372, "##ieri": 21939, "##\u0449": 29754, "matched": 10349, "pressed": 4508, "##osomal": 27642, "owls": 22388, "backside": 25065, "dinners": 29236, "dq": 25410, "plucked": 20780, "##enia": 19825, "wakefield": 16045, "garden": 3871, "groundbreaking": 23222, "##\u0924": 29859, "entitled": 4709, "debts": 13930, "[unused891]": 896, "##holder": 14528, "charming": 11951, "range": 2846, "usl": 22448, "angie": 14835, "\u5408": 1792, "gag": 18201, "wondering": 6603, "nielsen": 13188, "concluding": 16228, "frequently": 4703, "\u79c0": 1928, "after": 2044, "dos": 9998, "##mates": 15416, "mis": 28616, "inorganic": 28256, "sheath": 21867, "southward": 22161, "##itated": 15198, "jerusalem": 6744, "man": 2158, "arterial": 25543, "##mare": 24376, "basin": 6403, "restraint": 19355, "pensacola": 26073, "mueller": 26774, "##wai": 21547, "##ros": 7352, "hampered": 22532, "sequel": 8297, "internationals": 27340, "##ana": 5162, "feeds": 14172, "strung": 23509, "girl": 2611, "locks": 11223, "sides": 3903, "analytical": 17826, "insider": 25297, "taller": 12283, "finances": 16156, "[unused557]": 562, "audi": 20075, "fearless": 22518, "404": 24837, "duet": 11979, "manchester": 5087, "axle": 17290, "naia": 29511, "occupying": 13992, "##plin": 28296, "factors": 5876, "deeply": 6171, "*": 1008, "##istic": 6553, "headquartered": 9403, "chairman": 3472, "##im": 5714, "epilogue": 24297, "\u1d4d": 1500, "gallery": 3916, "settle": 7392, "interspersed": 25338, "spaceship": 25516, "##section": 29015, "\u0bb5": 1394, "april": 2258, "##cheng": 21043, "##urs": 9236, "##lan": 5802, "rails": 15168, "stride": 18045, "[unused120]": 125, "\u3008": 1637, "[unused642]": 647, "writings": 7896, "joanna": 15730, "fall": 2991, "##dun": 27584, "niche": 18111, "ch": 10381, "##acies": 20499, "collaborate": 20880, "fern": 20863, "headlines": 19377, "waterloo": 13784, "pep": 27233, "aboriginal": 9757, "throne": 6106, "arden": 26225, "reasonably": 16286, "construct": 9570, "##herton": 27949, "sawyer": 13975, "sabotage": 20223, "carla": 17081, "parachute": 13561, "waits": 18074, "tried": 2699, "##ogen": 23924, "appear": 3711, "mayhem": 26865, "bankers": 25375, "\u06cc": 1309, "submission": 12339, "demonstrators": 28337, "[unused418]": 423, "##\u0445": 29750, "sky": 3712, "striped": 17983, "buchanan": 14349, "mat": 13523, "patrons": 13497, "goodwill": 22875, "courthouse": 10816, "##national": 25434, "##tein": 9589, "##\u4e0b": 30269, "golden": 3585, "manfred": 19149, "##back": 5963, "inflated": 29561, "amiga": 24126, "##ssed": 29417, "materialized": 27075, "koln": 28306, "carrier": 6839, "##rp": 14536, "expressed": 5228, "chichester": 23406, "goes": 3632, "topology": 19587, "edwin": 10049, "waves": 5975, "ended": 3092, "road": 2346, "estuary": 18056, "replaced": 2999, "dragon": 5202, "##ici": 28775, "disputes": 11936, "myriad": 25028, "##end": 10497, "treaties": 16013, "##dable": 20782, "1809": 12861, "dots": 14981, "cai": 29080, "##\u5730": 30328, "tee": 17170, "federally": 20892, "ignorant": 21591, "basal": 15191, "greenfield": 26713, "hybrid": 8893, "dia": 22939, "martin": 3235, "petra": 20953, "parma": 19177, "wives": 10403, "detectives": 18145, "##etz": 26327, "##kara": 16566, "romantic": 6298, "stranded": 15577, "grimm": 24287, "dani": 19522, "##reen": 28029, "stud": 16054, "##ibility": 13464, "fire": 2543, "brushing": 12766, "scoffed": 26326, "##oton": 25862, "lund": 21860, "ton": 10228, "cares": 14977, "\u05e5": 1262, "neighbors": 10638, "##mation": 28649, "release": 2713, "mojo": 28017, "##q": 4160, "invites": 18675, "[unused387]": 392, "visit": 3942, "##outh": 17167, "##jun": 19792, "67": 6163, "daze": 28918, "dobson": 27679, "\u10d9": 1446, "nec": 26785, "hindi": 9269, "play": 2377, "jill": 10454, "##eau": 10207, "reliability": 15258, "draper": 23641, "amazingly": 29350, "bibliography": 24751, "[unused904]": 909, "bet": 6655, "1728": 26833, "suppressed": 13712, "inuit": 25179, "ruling": 6996, "archer": 11024, "afrikaans": 28673, "##rangle": 21476, "##keepers": 24764, "huntsville": 28492, "notes": 3964, "arena": 5196, "spot": 3962, "soils": 13622, "##ren": 7389, "nik": 23205, "magistrate": 14351, "possess": 10295, "translators": 28396, "campground": 29144, "##dt": 11927, "higher": 3020, "discretion": 19258, "clone": 17598, "macmillan": 15434, "02": 6185, "milo": 20359, "laureate": 17656, "pine": 7222, "choke": 16769, "morale": 19292, "lin": 11409, "knitting": 26098, "rca": 12639, "[unused766]": 771, "mecca": 21340, "##dro": 22196, "dignitaries": 27960, "##odies": 27391, "grades": 7022, "collateral": 24172, "martyr": 17216, "mathematician": 13235, "dock": 8946, "##gara": 24864, "##awa": 10830, "chaos": 8488, "##cr": 26775, "jefferson": 7625, "locally": 7246, "barcelona": 7623, "confusing": 16801, "reset": 25141, "demonic": 23170, "fields": 4249, "ordeal": 23304, "sobbed": 25960, "##rrow": 28597, "aquarium": 18257, "##lined": 18194, "##ffa": 20961, "tokyo": 5522, "mack": 11349, "##quil": 26147, "barbecue": 26375, "dazzling": 28190, "##vita": 28403, "adequately": 23613, "\u0449": 1204, "precedent": 20056, "strongest": 10473, "fraser": 9443, "sized": 7451, "selective": 13228, "\u0584": 1239, "territory": 3700, "21": 2538, "interactive": 9123, "bonuses": 29563, "247": 23380, "##emi": 23238, "iraq": 5712, "bo": 8945, "[unused113]": 118, "ancient": 3418, "patronage": 15694, "##\u0b95": 29918, "singer": 3220, "##bians": 26376, "sniffing": 27646, "battista": 28422, "pradesh": 7970, "extracts": 27059, "concentrating": 16966, "visitation": 28877, "panzer": 16946, "plans": 3488, "treatise": 15326, "nautical": 11339, "didn": 2134, "descendant": 12608, "enacted": 11955, "emir": 23434, "sandwiches": 22094, "kilkenny": 17131, "\u304f": 1653, "##oris": 21239, "optic": 22816, "been": 2042, "spanish": 3009, "[unused127]": 132, "##\u6b4c": 30412, "liu": 8607, "missed": 4771, "taped": 19374, "##far": 14971, "squad": 4686, "notation": 14869, "\u4e4b": 1749, "##hell": 18223, "cell": 3526, "girls": 3057, "petty": 11612, "somerset": 9198, "##idium": 28742, "excavation": 16456, "emil": 16243, "beheaded": 28923, "prussia": 10724, "##falls": 28067, "slips": 17433, "does": 2515, "51": 4868, "affection": 12242, "extravagant": 27856, "grain": 8982, "##chs": 18069, "oversized": 21698, "insignificant": 27018, "[unused833]": 838, "stressed": 13233, "surprise": 4474, "asher": 17243, "impressions": 19221, "seal": 7744, "wide": 2898, "##rky": 15952, "rico": 7043, "##zek": 24506, "struggles": 11785, "kahn": 19361, "bags": 8641, "logos": 25571, "tattoo": 11660, "[unused475]": 480, "lauderdale": 23520, "searches": 17193, "danny": 6266, "nikolai": 13870, "boogie": 21495, "##wan": 7447, "\u0f66": 1436, "leo": 6688, "##nen": 10224, "##\u0636": 29827, "avoid": 4468, "siegel": 27996, "\u30a3": 1694, "crate": 27297, "destroys": 20735, "##jure": 25243, "##\u6c5f": 30423, "gradually": 6360, "livingston": 14109, "turing": 28639, "pendleton": 24349, "eats": 20323, "##erted": 28728, "summoned": 11908, "##mbo": 13344, "\u0ba4": 1385, "http": 8299, "##\u2090": 30089, "optimistic": 21931, "numbers": 3616, "##sol": 19454, "##hong": 19991, "guest": 4113, "washing": 12699, "guido": 20239, "matches": 3503, "thwarted": 28409, "portions": 8810, "##41": 23632, "judging": 13325, "##basket": 25351, "decorations": 14529, "prophecy": 14951, "hanged": 17818, "landmarks": 16209, "\u99ac": 1980, "lobe": 21833, "quarterly": 12174, "m\u00b3": 14241, "country": 2406, "##lidae": 21595, "colloquially": 23992, "circumstance": 25652, "amazing": 6429, "##ve": 3726, "energies": 19320, "sportsman": 27168, "backbone": 21505, "punched": 11696, "(": 1006, "##art": 8445, "onion": 20949, "stench": 21555, "applying": 11243, "265": 20549, "##\u266d": 24102, "wage": 11897, "sherry": 22268, "consciously": 24447, "historical": 3439, "advertisement": 15147, "chasing": 11777, "satisfied": 8510, "##ucci": 16835, "laughing": 5870, "\u02be": 1147, "\u8ecd": 1955, "condensed": 25011, "##oni": 10698, "gazed": 11114, "\u00b9": 1088, "maximum": 4555, "statistics": 6747, "[unused946]": 951, "ports": 8831, "##rgeon": 28242, "cheek": 5048, "#": 1001, "##\u3092": 30216, "##cula": 19879, "license": 6105, "##\u2190": 30111, "grin": 5861, "him": 2032, "grind": 23088, "ct": 14931, "travellers": 19284, "reasoning": 13384, "reward": 10377, "fluids": 20989, "halftime": 22589, "alfonso": 13591, "archive": 8756, "proliferation": 20250, "severed": 16574, "tombstone": 26671, "bangladesh": 7269, "carrie": 13223, "superiority": 19113, "arose": 10375, "antibiotics": 24479, "adopt": 11092, "[unused660]": 665, "extra": 4469, "\u0e40": 1423, "\u2021": 1527, "3000": 11910, "##\u1169": 30011, "feast": 9831, "##pr": 18098, "kang": 16073, "1624": 28531, "observers": 14009, "alright": 10303, "2010": 2230, "redeveloped": 28053, "likes": 7777, "inherit": 22490, "suspects": 13172, "ira": 11209, "clearance": 14860, "serviced": 22858, "guernsey": 24640, "fell": 3062, "irwin": 17514, "grammy": 8922, "barely": 4510, "theatres": 13166, "hung": 5112, "##dded": 19520, "otto": 8064, "rays": 9938, "opposition": 4559, "denmark": 5842, "pines": 17527, "hong": 4291, "districts": 4733, "ink": 10710, "zhao": 15634, "3": 1017, "##ungen": 23239, "northbound": 20055, "distinctive": 8200, "enzo": 26218, "deter": 28283, "meat": 6240, "##gated": 11644, "weston": 12755, "inability": 13720, "##heads": 13038, "##baldi": 28807, "astronomy": 12799, "7th": 5504, "quasi": 17982, "##grate": 22780, "shields": 11824, "##^": 29637, "quieter": 27486, "violated": 14424, "flees": 24776, "fortunately": 14599, "fossil": 10725, "terrestrial": 12350, "gifts": 9604, "ss": 7020, "peek": 19043, "healing": 8907, "##dor": 7983, "flyer": 23821, "chevy": 29009, "barney": 15377, "\u0646": 1296, "lodged": 20451, "##iani": 25443, "##kar": 6673, "##kova": 18810, "healed": 15027, "accredited": 11459, "uta": 28981, "concepcion": 27331, "permitting": 24523, "pauline": 15595, "##eka": 19025, "qc": 25196, "wrapping": 12252, "sanchez": 10568, "xl": 28712, "classmate": 23175, "lucy": 7004, "##cina": 28748, "cooks": 26929, "wolves": 8588, "travis": 10001, "caste": 14542, "56": 5179, "brennan": 13962, "##ough": 10593, "reckless": 18555, "uci": 14504, "allergic": 27395, "olivia": 7710, "##mity": 16383, "gertrude": 18734, "[unused91]": 92, "stupid": 5236, "[unused349]": 354, "clouds": 8044, "hertfordshire": 18889, "invest": 15697, "ff": 21461, "beg": 11693, "lump": 15116, "advancement": 12607, "caution": 14046, "goran": 28356, "divine": 7746, "jaws": 16113, "pinto": 25066, "insistence": 20616, "##market": 20285, "refuses": 10220, "sighs": 19906, "[unused395]": 400, "horrible": 9202, "harta": 26283, "shoulders": 4065, "ravi": 16806, "practised": 20439, "yes": 2748, "generate": 9699, "upwards": 14873, "ipswich": 15435, "[unused945]": 950, "tangible": 24600, "love": 2293, "marne": 25823, "heats": 18559, "warrior": 6750, "ni": 9152, "endurance": 14280, "plaid": 26488, "standings": 11869, "##\u5bbf": 30352, "[unused34]": 35, "##ola": 6030, "contrary": 10043, "dat": 23755, "##ball": 7384, "helena": 10269, "fen": 21713, "famously": 18172, "swirled": 19171, "skinner": 17451, "scary": 12459, "structured": 14336, "bedroom": 5010, "bordeaux": 16384, "tough": 7823, "sensible": 21082, "jew": 16522, "imprisonment": 10219, "##lass": 27102, "##fus": 25608, "braid": 24148, "##urance": 25863, "kilometer": 20595, "scene": 3496, "todd": 6927, "neuroscience": 23700, "spell": 6297, "design": 2640, "auditioned": 23008, "contrast": 5688, "exist": 4839, "##zers": 16750, "glared": 9400, "##utnant": 24620, "lcd": 27662, "legacy": 8027, "[unused794]": 799, "pills": 15345, "##vir": 21663, "glanced": 3887, "lacking": 11158, "jacob": 6213, "[unused146]": 151, "cod": 19429, "lai": 21110, "[unused20]": 21, "ethanol": 22886, "##aina": 27971, "loco": 28046, "seventeen": 9171, "kerala": 8935, "globe": 7595, "dewey": 20309, "hanoi": 24809, "possession": 6664, "deaths": 6677, "seymour": 13254, "pursue": 7323, "##jic": 25008, "invitation": 8468, "##pps": 28281, "##stein": 8602, "owing": 11427, "soaking": 22721, "medals": 6665, "rib": 19395, "welch": 17939, "gould": 14913, "uniting": 26112, "leverage": 21155, "radical": 7490, "switzerland": 5288, "##borg": 11755, "reelection": 17648, "albany": 10283, "##ort": 11589, "renovations": 15576, "##mined": 25089, "provost": 18523, "##\u2609": 30149, "\u02e4": 1154, "thumping": 25996, "##oning": 13369, "ol": 19330, "isa": 18061, "away": 2185, "originates": 16896, "[unused318]": 323, "swan": 10677, "mosques": 21922, "##ening": 7406, "differentiate": 21032, "abc": 5925, "[unused684]": 689, "deluxe": 15203, "began": 2211, "being": 2108, "dissipated": 22572, "hunts": 28526, "##ril": 15928, "transformations": 21865, "slow": 4030, "##dly": 18718, "pp": 4903, "ribs": 10335, "[unused145]": 150, "horses": 5194, "1875": 7466, "##ner": 3678, "##hini": 20535, "[unused880]": 885, "##ray": 9447, "##grants": 27444, "##rnier": 28484, "cottage": 9151, "plea": 14865, "secretive": 28607, "refurbished": 18662, "to": 2000, "suppression": 16341, "relegation": 9591, "annoyed": 11654, "##cek": 25368, "marital": 23143, "vitro": 25714, "veterinary": 15651, "heirs": 15891, "[unused155]": 160, "pri": 26927, "capitalism": 16498, "##cic": 19053, "##up": 6279, "440": 17422, "utrecht": 18361, "mclean": 17602, "##ske": 17140, "##pper": 18620, "device": 5080, "cummings": 20750, "anarchist": 18448, "metabolic": 21453, "ascent": 16354, "lockheed": 17646, "shepard": 22189, "##\u898b": 30474, "##cker": 9102, "vomit": 23251, "##hal": 8865, "structurally": 29060, "##pen": 11837, "\u05e9": 1266, "fridays": 26587, "appeared": 2596, "gordon": 5146, "##ifiers": 28295, "kicking": 10209, "von": 3854, "dvd": 4966, "[unused711]": 716, "interceptor": 24727, "wiley": 18825, "bumped": 19030, "natural": 3019, "hanson": 17179, "maia": 23478, "emptied": 21764, "trends": 12878, "whistled": 26265, "napoleon": 8891, "##\u0e01": 29945, "opposite": 4500, "arms": 2608, "standalone": 26609, "tempting": 23421, "typing": 22868, "##cana": 28621, "regaining": 28657, "##urbed": 29595, "\u057a": 1233, "##lver": 26229, "lively": 17133, "freeze": 13184, "\u09a3": 1361, "environmentally": 25262, "##\u7592": 30439, "8": 1022, "neighboring": 8581, "interiors": 20769, "fetal": 25972, "filters": 17736, "knots": 9439, "sas": 21871, "condom": 20910, "busch": 15840, "1983": 3172, "risks": 10831, "##castle": 23662, "cy": 22330, "submitted": 7864, "sega": 16562, "boon": 23264, "\u0939": 1339, "enabled": 9124, "users": 5198, "##werk": 29548, "1908": 5316, "112": 11176, "[unused562]": 567, "[unused639]": 644, "debate": 5981, "\u2193": 1586, "##unas": 23904, "##sd": 16150, "renewed": 9100, "780": 28601, "slippery": 22274, "landowner": 20270, "##\u4e3b": 30273, "properly": 7919, "physiological": 19389, "##bant": 29604, "unconscious": 9787, "[unused513]": 518, "experienced": 5281, "##ue": 5657, "robber": 27307, "larger": 3469, "guardians": 14240, "heroism": 27117, "ape": 23957, "##eke": 23941, "lennox": 21060, "ant": 14405, "vivid": 14954, "dinosaur": 15799, "recommend": 16755, "wisconsin": 5273, "queens": 8603, "##otti": 21325, "##\u00b2": 10701, "discontent": 27648, "education": 2495, "[unused289]": 294, "anastasia": 19447, "poorly": 9996, "psycho": 18224, "\u0630": 1279, "##kney": 26993, "ocean": 4153, "george": 2577, "##wyn": 11761, "statue": 6231, "##\u2192": 30113, "\u1d2e": 1491, "performing": 4488, "slopes": 10314, "instantly": 6880, "ducked": 13781, "thirties": 26313, "blockbuster": 27858, "assurance": 16375, "[unused600]": 605, "mormon": 15111, "sabah": 22515, "profile": 6337, "157": 17403, "magnificent": 12047, "equally": 8053, "upside": 14961, "slaughter": 14574, "servicing": 26804, "brilliant": 8235, "##\u057d": 29781, "alumni": 9441, "frightening": 17115, "graham": 5846, "enable": 9585, "archdiocese": 12658, "luckily": 15798, "andreas": 12460, "naomi": 12806, "liszt": 26273, "similarity": 14402, "atari": 18978, "silvia": 27827, "##lou": 23743, "nodes": 14164, "##ricting": 28827, "figuring": 23218, "receives": 8267, "patio": 19404, "swap": 19948, "##naud": 26160, "570": 24902, "reynolds": 9579, "dream": 3959, "companion": 7452, "hiv": 9820, "alcoholism": 25519, "compartments": 27998, "futures": 17795, "causes": 5320, "mobile": 4684, "watering": 25813, "skeletal": 20415, "##cking": 23177, "loch": 14941, "##iff": 13355, "rammed": 27653, "##\u30ea": 30258, "saves": 13169, "2021": 25682, "stark": 9762, "incomes": 29373, "##top": 14399, "collaborator": 18843, "fluorescent": 22184, "hanging": 5689, "parent": 6687, "divisional": 14167, "##\u1161": 30006, "pull": 4139, "companies": 3316, "ascribed": 28025, "excitedly": 23885, "##\u5fb7": 30374, "##iba": 18410, "##owski": 15249, "contributing": 8020, "mug": 14757, "heavy": 3082, "operative": 12160, "feathers": 12261, "##\u064a": 14498, "##yck": 28377, "pilot": 4405, "westchester": 25489, "attempted": 4692, "outgoing": 22011, "provisions": 8910, "station": 2276, "environment": 4044, "parramatta": 22820, "sort": 4066, "##\u8c9d": 30478, "##culus": 28703, "##dis": 10521, "guarantee": 11302, "selection": 4989, "kyrgyzstan": 23209, "ezra": 16245, "trenches": 19874, "##bags": 26813, "hospice": 29277, "harassed": 28186, "riches": 26768, "actress": 3883, "##wari": 20031, "basque": 13915, "sol": 14017, "sunderland": 15518, "muscle": 6740, "papa": 13008, "scott": 3660, "##lick": 25230, "\u3053": 1655, "pinched": 18521, "[unused735]": 740, "duo": 6829, "proof": 6947, "versatile": 22979, "oldham": 18285, "walkway": 19467, "##\u0254": 29679, "transatlantic": 26617, "decades": 5109, "recalls": 17722, "\u52a0": 1779, "depicts": 11230, "refrain": 20703, "minogue": 27736, "relaxed": 8363, "[unused599]": 604, "catalan": 13973, "##\u0250": 29676, "foundry": 19853, "[unused477]": 482, "vanishing": 24866, "##bek": 24597, "##ored": 19574, "altering": 22552, "frequented": 24832, "##burgh": 15496, "accomplishments": 17571, "raion": 24235, "lost": 2439, "[unused233]": 238, "espionage": 21003, "[unused451]": 456, "inspired": 4427, "entertain": 20432, "peak": 4672, "prostitution": 15016, "tobin": 28096, "creator": 8543, "dedication": 12276, "[unused55]": 56, "rocked": 14215, "organizes": 22013, "##\u0bb5": 29930, "neglect": 19046, "[unused37]": 38, "spitting": 24307, "ensemble": 7241, "rapid": 5915, "##thest": 20515, "horizon": 9154, "commitment": 8426, "soundtrack": 6050, "timely": 23259, "1787": 16057, "stagecoach": 26025, "dear": 6203, "subsistence": 27667, "daggers": 24210, "departed": 7745, "incentives": 21134, "spanning": 13912, "##anal": 27953, "##neas": 26737, "notre": 10289, "intellectual": 7789, "burn": 6402, "electrification": 23679, "compliance": 12646, "bride": 8959, "rejected": 5837, "bergen": 12674, "parisian": 24262, "rihanna": 25439, "characteristics": 6459, "derry": 17455, "injunction": 22928, "conversion": 7584, "starters": 29400, "overtime": 12253, "enriched": 25202, "##\u05d3": 29791, "linear": 7399, "establishment": 5069, "medication": 14667, "##uni": 19496, "granted": 4379, "##\u02e4": 29719, "steve": 3889, "coached": 8868, "##\u0111": 29671, "carbonate": 26427, "clinical": 6612, "flanked": 15874, "inflicted": 17303, "hemingway": 27299, "palms": 9486, "rescuing": 23659, "workshop": 8395, "intervene": 18793, "supposedly": 10743, ":": 1024, "cellular": 12562, "haryana": 23261, "fein": 27132, "sturdy": 23073, "belongs": 7460, "00pm": 27995, "koch": 15259, "##\u82b1": 30466, "fantasy": 5913, "##8": 2620, "##abas": 27537, "croatian": 7963, "ambulance": 10771, "craven": 21232, "tucked": 9332, "wilfred": 26026, "[unused788]": 793, "##ware": 8059, "##mos": 15530, "\u0632": 1281, "carmel": 19443, "##ods": 20620, "weir": 16658, "metadata": 27425, "newton": 8446, "[unused509]": 514, "claw": 15020, "correction": 18140, "gamma": 13091, "unleashed": 22416, "giants": 7230, "decoration": 11446, "roanoke": 25899, "somber": 28587, "\u5206": 1775, "bargain": 17113, "lair": 21039, "curled": 8188, "jenna": 13504, "##nel": 11877, "explored": 10641, "isabel": 11648, "[unused354]": 359, "oh": 2821, "prairie": 10996, "##ided": 14097, "aquatic": 13582, "##dp": 18927, "1731": 28446, "infancy": 22813, "excerpts": 24962, "yvonne": 21684, "battles": 7465, "mick": 10872, "1793": 12387, "needs": 3791, "alternately": 23554, "prof": 11268, "excessive": 11664, "foods": 9440, "##\u3055": 30182, "##lity": 18605, "##mission": 25481, "reclamation": 27389, "waste": 5949, "booked": 17414, "narrowly": 11866, "camps": 7958, "ninety": 13568, "ir": 20868, "input": 7953, "squared": 19942, "beyonce": 20773, "\u1d4f": 1501, "tendency": 11765, "quarries": 27069, "flawless": 27503, "##aar": 26526, "scissors": 25806, "dangerous": 4795, "income": 3318, "unarmed": 23206, "cv": 26226, "##xes": 20156, "alive": 4142, "blaming": 24114, "inca": 27523, "financing": 12135, "muriel": 27616, "crane": 11308, "bree": 21986, "##eland": 25689, "warlock": 28861, "punished": 14248, "fumble": 19576, "sipped": 17735, "via": 3081, "ramsay": 19460, "##fare": 17883, "wheel": 5217, "##nal": 12032, "renault": 14605, "\u91ce": 1963, "supervisory": 26653, "pillow": 10005, "abbreviation": 22498, "uppsala": 25720, "fide": 26000, "plane": 4946, "##lom": 21297, "grove": 7676, "##bio": 26282, "masses": 11678, "driven": 5533, "vastly": 24821, "bars": 6963, "khan": 4967, "take": 2202, "176": 18561, "corrosion": 24625, "speeds": 10898, "##1": 2487, "##wife": 19993, "rattled": 19252, "roosevelt": 8573, "attitudes": 13818, "marley": 20326, "charity": 5952, "electorate": 13694, "portsmouth": 10913, "rainforest": 18951, "alexandre": 16971, "polling": 17888, "[unused922]": 927, "##gor": 20255, "\u30d8": 1721, "varied": 9426, "\u044b": 1206, "kiel": 20963, "endorsed": 11763, "##ging": 4726, "[unused338]": 343, "##10": 10790, "##b": 2497, "gorgeous": 9882, "freshmen": 26612, "guitarist": 5990, "processing": 6364, "qaeda": 18659, "participating": 8019, "##\u062d": 29820, "partly": 6576, "stepmother": 26959, "offset": 16396, "ensuing": 13831, "vittorio": 25914, "\u00b1": 1081, "\u56d7": 1797, "conducting": 9283, "promises": 10659, "##\u2218": 30126, "ambiguity": 27637, "##ues": 15808, "feeding": 8521, "flux": 19251, "##lore": 20186, "telescope": 12772, "480": 17295, "mayoral": 23578, "##\u209c": 30099, "##nsen": 29428, "shaken": 16697, "messina": 27270, "##\u300c": 30167, "devotees": 22707, "issue": 3277, "\u116f": 1479, "grady": 19011, "##nz": 14191, "pmid": 20117, "metres": 3620, "longtime": 11155, "costello": 21015, "precursor": 14988, "learning": 4083, "dupont": 22848, "merge": 13590, "##\u0584": 29786, "##par": 19362, "shift": 5670, "wang": 7418, "##tang": 26067, "knowledge": 3716, "shillings": 29332, "around": 2105, "interface": 8278, "bubba": 19606, "predecessor": 8646, "disciplines": 12736, "learn": 4553, "communicated": 24162, "##wei": 19845, "weekdays": 19759, "##chin": 17231, "##osta": 28696, "penguins": 18134, "##wave": 16535, "##coming": 18935, "film": 2143, "prescription": 20422, "acidic": 24171, "dartmouth": 16960, "vectors": 19019, "##\u671d": 30400, "hon": 10189, "##proof": 18907, "publications": 5523, "\u0baf": 1390, "##osing": 18606, "[unused28]": 29, "##code": 16044, "##nig": 25518, "##mas": 9335, "ramon": 12716, "ll": 2222, "workforce": 14877, "awaiting": 15497, "##loe": 26846, "growling": 22413, "1945": 3386, "jace": 10352, "##tadt": 18808, "eternity": 12715, "##bies": 20536, "spray": 12509, "cessna": 27664, "vibrating": 24987, "innocence": 12660, "reservation": 11079, "##face": 12172, "\u0431": 1181, "optional": 11887, "jacobs": 12988, "monde": 23117, "reissue": 17173, "zoological": 26168, "increasingly": 6233, "nazi": 6394, "##brook": 9697, "rotary": 16933, "streaming": 11058, "##\u0cbe": 29938, "reform": 5290, "sincerity": 23997, "aromatic": 25496, "##gnan": 28207, "prakash": 22233, "neville": 14871, "torino": 24737, "simmons": 13672, "\u02e1": 1151, "gabled": 26182, "physicians": 11572, "##izer": 17629, "tests": 5852, "receptors": 13833, "subgroup": 20576, "\u03c2": 1172, "pianos": 27864, "[unused662]": 667, "##pel": 11880, "ry": 29431, "branch": 3589, "stem": 7872, "combat": 4337, "##\u0d9a": 29939, "\u308c": 1688, "powerless": 25192, "##ques": 10997, "makes": 3084, "phantom": 11588, "1850": 7973, "cyclic": 23750, "install": 16500, "nail": 13774, "##ditional": 27064, "annual": 3296, "smallest": 10479, "##working": 21398, "naturalized": 27558, "pick": 4060, "trails": 9612, "folklore": 13104, "##\u0997": 29891, "issues": 3314, "##hand": 11774, "wise": 7968, "denver": 7573, "slid": 4934, "presentation": 8312, "member": 2266, "backstroke": 28373, "seminars": 17239, "##agh": 17988, "embroidery": 29507, "yellowstone": 29231, "##een": 12129, "observing": 14158, "tournaments": 8504, "phrases": 15672, "warned": 7420, "breakthrough": 12687, "strange": 4326, "eccentric": 18080, "assume": 7868, "##gas": 12617, "##ulating": 10924, "earn": 7796, "[unused963]": 968, "tenure": 7470, "giggles": 26466, "walnut": 18489, "montenegro": 13018, "request": 5227, "hogan": 14851, "chop": 24494, "spent": 2985, "##leton": 19263, "stripped": 10040, "char": 25869, "alias": 14593, "vitamin": 17663, "##nant": 16885, "##claiming": 27640, "tops": 13284, "##kaya": 20718, "ck": 23616, "##\u7acb": 30457, "slaughtered": 23044, "[unused980]": 985, "[unused27]": 28, "\u5ca1": 1832, "##hg": 25619, "lc": 29215, "cynical": 26881, "[unused551]": 556, "regulatory": 10738, "pictured": 15885, "humor": 8562, "\u20a9": 1573, "onto": 3031, "warily": 23625, "carnage": 27450, "[unused762]": 767, "##cala": 25015, "sun": 3103, "##\u660e": 30391, "frequencies": 13139, "annals": 16945, "ts": 24529, "proctor": 28770, "adhere": 25276, "courses": 5352, "114": 12457, "despite": 2750, "alarmed": 19260, "hearth": 22885, "\u2f65": 1634, "poked": 16826, "##s\u0142aw": 23305, "major": 2350, "\u2019": 1521, "stakes": 7533, "rourke": 24400, "psychiatrist": 18146, "companions": 11946, "vein": 12818, "strong": 2844, "gibbs": 15659, "mitsubishi": 19695, "endorsement": 20380, "##\u044e": 29757, "remember": 3342, "##agawa": 20812, "groaned": 9655, "instituted": 14948, "result": 2765, "crypt": 19888, "hume": 20368, "qatar": 12577, "##pw": 28400, "moore": 5405, "1860": 7313, "socket": 22278, "colours": 8604, "330": 14210, "12th": 5940, "hr": 17850, "corporal": 14265, "pub": 9047, "theoretical": 9373, "##holz": 28094, "sf": 16420, "##amina": 27651, "touched": 5028, "darkly": 27148, "folk": 5154, "[unused780]": 785, "astronauts": 25881, "handicap": 15822, "remaining": 3588, "captures": 19566, "##\u0430\u043d": 28995, "chaplin": 23331, "##vu": 19722, "intercollegiate": 21587, "regulates": 26773, "securities": 12012, "characteristic": 8281, "medina": 15761, "restraining": 28285, "amsterdam": 7598, "framing": 20241, "hastily": 15789, "##rcle": 21769, "plaintiff": 20579, "conjunction": 9595, "ibrahim": 13477, "bb": 22861, "governors": 11141, "##good": 24146, "##ffey": 24513, "curve": 7774, "belt": 5583, "##hum": 28600, "\u00ae": 1079, "bhutan": 18768, "oblique": 20658, "les": 4649, "amusement": 9778, "cindy": 15837, "centered": 8857, "waltz": 17569, "caller": 20587, "##itas": 24317, "drowning": 14759, "930": 29359, "\u092e": 1331, "instrument": 6602, "larsen": 20094, "##uan": 13860, "afb": 16909, "wallis": 24029, "ratings": 8599, "poor": 3532, "##\u03bc": 29728, "##rle": 20927, "arrogance": 24416, "webber": 19861, "ada": 15262, "##aus": 20559, "##ecin": 28191, "madman": 28441, "##fly": 14151, "far": 2521, "redwood": 27552, "committing": 16873, "nah": 20976, "advised": 9449, "moshe": 27123, "sons": 4124, "[unused942]": 947, "mead": 19855, "##dened": 24589, "##\u524d": 30302, "bus": 3902, "elimination": 9614, "funded": 6787, "##hl": 7317, "weaken": 23021, "texture": 14902, "evident": 10358, "venom": 15779, "x": 1060, "block": 3796, "originals": 23728, "easton": 21636, "##bourg": 20431, "blaine": 20002, "resembling": 15525, "bye": 9061, "expanse": 22944, "[unused326]": 331, "292": 25797, "mentoring": 29192, "[unused18]": 19, "illinois": 4307, "##dorff": 26559, "rocket": 7596, "[unused350]": 355, "[unused614]": 619, "pointe": 26119, "shots": 7171, "borg": 28709, "internment": 29041, "himself": 2370, "kinship": 27866, "municipalities": 7602, "psyche": 25774, "struck": 4930, "kin": 12631, "mandolin": 17687, "blocked": 8534, "westwood": 21730, "uranium": 14247, "coulter": 28293, "westbound": 24717, "headwaters": 25345, "planetary": 17700, "joanne": 23459, "\u201c": 1523, "inspector": 7742, "312": 21036, "##you": 29337, "orchid": 15573, "survived": 5175, "stretches": 14082, "ulster": 11059, "albeit": 12167, "rudd": 25298, "##\u6751": 30404, "week": 2733, "wb": 25610, "##illon": 20343, "cesar": 14923, "precious": 9062, "costing": 22173, "bandit": 25334, "##\u7a7a": 30456, "remake": 12661, "\u5341": 1783, "kellan": 19697, "manhattan": 7128, "trance": 16588, "[unused810]": 815, "respecting": 27818, "##boro": 12691, "##\u6238": 30383, "share": 3745, "southwest": 4943, "1896": 6306, "parting": 20254, "bertie": 20743, "judicial": 8268, "cautiously": 15151, "deception": 17575, "[unused442]": 447, "bergman": 24544, "##zai": 25290, "redistribution": 25707, "except": 3272, "nico": 19332, "ka": 10556, "\u0639": 1288, "##idi": 28173, "dispatched": 14501, "copying": 24731, "gus": 12670, "beirut": 15335, "leinster": 15684, "nevada": 7756, "chieftain": 26625, "\u4f8d": 1765, "##uppe": 29547, "##rca": 18992, "processed": 13995, "##hel": 16001, "delight": 12208, "baku": 16807, "##mism": 26725, "loaf": 27048, "palermo": 18705, "##oides": 25064, "picturesque": 23273, "[unused699]": 704, "accommodation": 11366, "unrelated": 15142, "economic": 3171, "##ential": 24271, "##urne": 21737, "##aldo": 27318, "twenty": 3174, "table": 2795, "elsa": 23452, "behaved": 26979, "##\u05e9": 29812, "##gingly": 28392, "repetitive": 23563, "\uff08": 1987, "goddess": 7804, "##dha": 17516, "##uma": 12248, "##izzly": 29266, "uninhabited": 24749, "##uram": 27618, "owner": 3954, "assam": 15181, "earls": 27371, "reflections": 16055, "babylon": 17690, "##load": 11066, "somme": 25158, "##\u300f": 30170, "1926": 4881, "##rs": 2869, "candidacy": 17057, "mineral": 9754, "glamour": 22439, "##\u6ca2": 30424, "abdomen": 13878, "prominent": 4069, "falsely": 23123, "##\u03c5": 29735, "hagen": 24047, "furnishings": 23127, "karel": 28021, "[unused643]": 648, "##\u0283": 29696, "latham": 28737, "principles": 6481, "##lf": 10270, "sbs": 21342, "ego": 13059, "tulsa": 16631, "##0": 2692, "##bay": 15907, "##bria": 21556, "malay": 12605, "hold": 2907, "peripheral": 15965, "believes": 7164, "postal": 10690, "generators": 16937, "pena": 19409, "warriors": 6424, "excited": 7568, "##non": 8540, "involve": 9125, "bloomfield": 25584, "[unused11]": 12, "##ring": 4892, "##\u3068": 30192, "##bla": 28522, "cameroon": 13841, "##\u3078": 30201, "extend": 7949, "transcript": 24051, "methyl": 25003, "wentworth": 20572, "119": 13285, "caesar": 11604, "fed": 7349, "slack": 19840, "abduction": 23415, "##crest": 25313, "tingling": 23690, "##nsed": 27730, "piled": 17835, "camera": 4950, "[unused406]": 411, "\u0441": 1196, "belgian": 6995, "construction": 2810, "neighbours": 14754, "2002": 2526, "##mat": 18900, "enrichment": 27226, "louie": 17438, "rogue": 12406, "ankle": 10792, "superior": 6020, "##sser": 18116, "##\u0bc1": 29933, "##drome": 29171, "cochrane": 22329, "marty": 12578, "##\u3093": 30217, "wellington": 8409, "traversed": 27797, "spice": 17688, "joo": 28576, "##ryl": 23320, "piazza": 22463, "holster": 29447, "mechanical": 6228, "sublime": 28341, "degrees": 5445, "gamble": 18503, "difficulty": 7669, "quadrant": 29371, "sleeves": 15114, "gigantic": 20193, "current": 2783, "jasmine": 14032, "lex": 17244, "galley": 27124, "ensures": 21312, "translating": 22969, "jim": 3958, "yank": 23178, "tangled": 14170, "52": 4720, "harbour": 7440, "##\u5289": 30303, "bournemouth": 22882, "orchard": 15623, "cigar": 19135, "##icient": 20132, "frustrated": 10206, "##lide": 24198, "1852": 8784, "##sted": 14701, "compassion": 15398, "looked": 2246, "option": 5724, "hallways": 28274, "\u0435": 1185, "##mp": 8737, "[unused207]": 212, "margarita": 24570, "318": 27003, "upward": 10745, "dunkirk": 29467, "centrally": 25497, "##ino": 5740, "cutter": 16343, "porch": 7424, "##bone": 14417, "compromised": 20419, "describe": 6235, "born": 2141, "aristocracy": 22706, "specification": 12827, "santana": 21158, "\u10dd": 1450, "rested": 8614, "scouting": 14299, "[unused854]": 859, "favorite": 5440, "footing": 22849, "mendes": 27916, "rejects": 19164, "flights": 7599, "manufactures": 22027, "concerning": 7175, "ions": 15956, "hades": 23003, "moist": 11052, "cooke": 16546, "insistent": 29204, "rotterdam": 15632, "art": 2396, "furiously": 20322, "cyber": 16941, "\u03b8": 1162, "##furt": 24428, "##nus": 10182, "336": 27954, "kemp": 20441, "packages": 14555, "discus": 26047, "broadly": 13644, "[unused582]": 587, "sketch": 11080, "[unused936]": 941, "intimate": 10305, "##tom": 20389, "lo": 8840, "##omp": 25377, "pounds": 7038, "christoph": 21428, "schemes": 11683, "smoothly": 15299, "1570": 28881, "descriptive": 22726, "generates": 19421, "winnie": 27125, "crying": 6933, "##\u03b1": 14608, "waived": 16301, "merton": 28169, "extracted": 15901, "1835": 10150, "conditional": 18462, "dollar": 7922, "##lane": 20644, "##\u99ac": 30506, "mor": 22822, "conquest": 9187, "han": 7658, "[unused813]": 818, "tank": 4951, "##\u306d": 30196, "preservation": 8347, "scandals": 29609, "sweden": 4701, "anthropology": 12795, "tang": 9745, "redhead": 26705, "##eres": 18702, "##\u3080": 30205, "basalt": 26343, "strategies": 9942, "volga": 26459, "notification": 26828, "\u6f22": 1904, "\u660e": 1865, "purdue": 19749, "##\u0938": 29874, "xander": 29019, "capable": 5214, "tasha": 25448, "\u06af": 1305, "ark": 15745, "siren": 19558, "##ii": 6137, "enforced": 16348, "debra": 28762, "##grapher": 18657, "##islav": 19834, "knowing": 4209, "thomas": 2726, "haitian": 21404, "leslie": 8886, "blocking": 10851, "shaft": 9093, "buren": 29470, "shrink": 22802, "##gata": 26589, "allen": 5297, "##marine": 21966, "generally": 3227, "atlanta": 5865, "bash": 24234, "susie": 23917, "coming": 2746, "bristol": 7067, "chopin": 25479, "mccain": 19186, "olga": 15585, "provinces": 6941, "[unused855]": 860, "hurting": 11878, "existence": 4598, "nassau": 14646, "bender": 25386, "tradition": 4535, "adapting": 25357, "ki": 11382, "honour": 6225, "promoted": 3755, "\u9762": 1976, "##\u9577": 30493, "\u0570": 1228, "##sie": 11741, "tanaka": 21829, "definite": 15298, "sheridan": 13243, "regency": 15647, "plastics": 26166, "dementia": 28767, "tasmania": 12343, "sultanate": 21308, "[unused264]": 269, "prototypes": 19599, "##roids": 29514, "imagined": 8078, "provoke": 27895, "[unused901]": 906, "[unused601]": 606, "hive": 26736, "anton": 9865, "speedy": 26203, "aubrey": 18961, "\u0dcf": 1408, "reservoirs": 22535, "fisherman": 19949, "eerie": 18823, "##ifice": 23664, "##bery": 22509, "primetime": 18474, "crank": 27987, "lyle": 21971, "##bold": 27495, "[unused492]": 497, "##\u02be": 29713, "reverend": 10547, "##edge": 24225, "parking": 5581, "zombies": 14106, "##enas": 26474, "kei": 26679, "paperback": 13611, "vain": 15784, "##\u305d": 30186, "nsw": 11524, "extensions": 14305, "##uch": 10875, "##vos": 19862, "my": 2026, "344": 29386, "disappointing": 15640, "##sible": 19307, "mit": 10210, "na": 6583, "biography": 8308, "hurriedly": 23878, "oversaw": 14105, "link": 4957, "##\u0440": 16856, "ran": 2743, "##mble": 19661, "windshield": 19521, "membership": 5779, "1898": 6068, "\u0ba9": 1387, "##kala": 26907, "order": 2344, "departure": 6712, "ligand": 27854, "ste": 26261, "doc": 9986, "infirmary": 23453, "##matic": 12644, "by": 2011, "##base": 15058, "blossoms": 28766, "presbyterian": 10133, "hostess": 22566, "log": 8833, "##ctive": 15277, "aspirations": 22877, "clifton": 16271, "syllable": 16353, "straightening": 27508, "vietnamese": 9101, "seizures": 25750, "suzuki": 14278, "##rting": 24097, "bosnia": 9562, "thicker": 19638, "commemorate": 13415, "thug": 26599, "credit": 4923, "crisp": 15594, "nasa": 9274, "tenants": 14665, "##lding": 24573, "infant": 10527, "tasted": 12595, "##\u09b8": 29912, "nylon": 27201, "sulawesi": 29078, "##mona": 21781, "ot": 27178, "friend": 2767, "rom": 17083, "flea": 26735, "ochreous": 23474, "\u028e": 1135, "cutler": 24975, "##kley": 22315, "donors": 17843, "nosed": 29338, "sensitive": 7591, "sparkled": 28092, "goddamn": 16477, "welterweight": 20882, "ge": 16216, "terrifying": 17082, "reviewer": 12027, "versa": 18601, "functionality": 15380, "##\u0f0d": 29961, "##wheel": 22920, "gothic": 7788, "integrating": 22380, "[unused393]": 398, "regent": 11315, "510": 23475, "august": 2257, "relational": 28771, "##channel": 26058, "vague": 13727, "defeating": 6324, "30": 2382, "output": 6434, "ty": 5939, "vi": 6819, "stubble": 26816, "poppy": 19745, "managerial": 24465, "kathmandu": 28045, "severely": 8949, "##enne": 24336, "##cend": 23865, "wires": 14666, "miners": 11257, "synthesizers": 22211, "stilled": 22791, "vibration": 17880, "frames": 11048, "combined": 4117, "##fect": 25969, "tenor": 9534, "\u06c1": 1308, "create": 3443, "pissed": 9421, "castle": 3317, "##ys": 7274, "griffiths": 21960, "mcintosh": 29052, "sting": 12072, "referencing": 28789, "affiliates": 18460, "bracing": 25919, "204": 19627, "oaks": 13396, "\u7248": 1907, "audience": 4378, "disregard": 27770, "reactivated": 28577, "restart": 23818, "storytelling": 20957, "##rage": 24449, "marianne": 19887, "\u590f": 1808, "gilbert": 7664, "millennium": 10144, "eun": 26070, "medicine": 4200, "mild": 10256, "drifting": 15013, "rejoined": 14311, "expand": 7818, "throbbing": 17061, "##jak": 18317, "##\u2153": 30109, "moritz": 28461, "##it": 4183, "overlook": 27590, "2004": 2432, "##\u0578": 29779, "##\u0452": 29758, "dragging": 11920, "harsh": 8401, "##quisite": 24871, "##rily": 11272, "adding": 5815, "pierced": 16276, "##cute": 26869, "##oured": 16777, "rhys": 13919, "definition": 6210, "clenched": 8555, "##itt": 12474, "rifle": 5883, "muslim": 5152, "frankfurt": 9780, "##ucible": 21104, "instructions": 8128, "beautiful": 3376, "downstairs": 10025, "some": 2070, "##fighter": 20027, "potsdam": 26554, "jeremy": 7441, "scented": 25738, "horsepower": 15149, "##ls": 4877, "1722": 26689, "shapes": 10466, "##pu": 14289, "hi": 7632, "senator": 5205, "sewer": 22365, "\u30de": 1723, "accidentally": 9554, "artworks": 22000, "dax": 27116, "creeks": 24974, "boss": 5795, "sheep": 8351, "##hwa": 18663, "breaker": 24733, "tung": 27079, "##pire": 20781, "rang": 8369, "##\u11b8": 30024, "##uaries": 22579, "##ova": 7103, "##ishly": 19983, "inhibitors": 25456, "[unused835]": 840, "valve": 10764, "vertex": 19449, "hartford": 13381, "randy": 9744, "[unused978]": 983, "somerville": 27209, "##men": 3549, "interaction": 8290, "##tech": 15007, "chips": 11772, "modulation": 25502, "##stic": 10074, "scanned": 11728, "mute": 20101, "workshops": 9656, "##uting": 20807, "[unused73]": 74, "magnus": 10045, "now": 2085, "breaks": 7807, "mangrove": 29340, "testify": 19919, "\u3009": 1638, "southeast": 4643, "business": 2449, "draped": 15098, "outlined": 14801, "##\u6226": 30382, "navy": 3212, "masovian": 23703, "97": 5989, "##usly": 27191, "yet": 2664, "icons": 18407, "loaded": 8209, "phillips": 8109, "terminates": 28790, "peculiar": 14099, "investors": 9387, "thrilling": 26162, "trunks": 20509, "secondly": 16378, "hunt": 5690, "pe": 21877, "##\u0993": 29888, "sorrow": 14038, "concussion": 23159, "heidi": 21372, "bays": 13933, "\u1112": 1469, "gaius": 19564, "manuscript": 8356, "brno": 28634, "something": 2242, "retracted": 28214, "[unused971]": 976, "##tu": 8525, "pga": 14198, "nearly": 3053, "vincent": 6320, "outspoken": 22430, "afford": 8984, "blinked": 7948, "medical": 2966, "proprietor": 21584, "brittle": 24650, "defendants": 16362, "expansion": 4935, "1774": 17593, "bounced": 13605, "##nae": 17452, "wo": 24185, "\u094b": 1343, "protect": 4047, "warship": 21905, "##hausen": 13062, "lime": 14123, "confirmation": 13964, "noises": 14950, "chick": 14556, "##lina": 13786, "cardiff": 10149, "##stered": 24167, "going": 2183, "##\u05e1": 29804, "##tes": 4570, "editions": 6572, "##tor": 4263, "tilted": 9939, "##force": 14821, "kappa": 16000, "##\u056c": 29773, "malabar": 28785, "boiled": 17020, "files": 6764, "loops": 15932, "agra": 29542, "scientology": 23845, "##ke": 3489, "[unused757]": 762, "endure": 18094, "elusive": 26475, "client": 7396, "mercenaries": 19331, "##rta": 13320, "fledgling": 25954, "relates": 14623, "bolts": 19947, "##ung": 5575, "gulp": 26546, "yiddish": 20112, "toys": 10899, "midtown": 27219, "##uous": 8918, "guadalajara": 22887, "defender": 8291, "july": 2251, "battered": 17548, "commemorative": 17524, "more": 2062, "treasures": 17605, "diana": 8805, "zenith": 28672, "sentence": 6251, "##tier": 17579, "knee": 6181, "##\u0281": 29694, "loud": 5189, "casper": 24602, "sessions": 6521, "##bil": 14454, "tree": 3392, "yours": 6737, "evening": 3944, "##\u30aa": 30225, "clarence": 11805, "excuses": 21917, "suggestions": 15690, "demonstrations": 13616, "discussing": 10537, "plate": 5127, "\u5fc4": 1850, "performer": 9256, "keynes": 22152, "minority": 7162, "[unused133]": 138, "##\u0629": 19433, "elderly": 9750, "##acle": 18630, "hydrogen": 9732, "##\u03c8": 29738, "envelope": 11255, "demanded": 6303, "drums": 3846, "##\u65b0": 30388, "desires": 14714, "monastic": 17361, "##star": 14117, "louvre": 25110, "1839": 10011, "[unused149]": 154, "bahamas": 17094, "superiors": 22983, "locate": 12453, "##led": 3709, "denomination": 18683, "primaries": 27419, "twitch": 19435, "##uin": 20023, "site": 2609, "giorgio": 17697, "rape": 9040, "damn": 4365, "methane": 24481, "creativity": 14842, "##band": 12733, "2a": 23409, "ravine": 23188, "twelve": 4376, "##rcus": 29006, "##oons": 27174, "41": 4601, "##agne": 25440, "##ended": 21945, "restarted": 25606, "rolf": 23381, "##raus": 25965, "##nh": 25311, "scars": 13521, "excursion": 26144, "jaipur": 28355, "cinematic": 21014, "vulnerability": 18130, "cuffs": 24347, "unlocked": 14058, "mcnamara": 28340, "amenities": 19870, "patting": 26085, "tong": 15740, "mollusk": 13269, "[unused17]": 18, "temporary": 5741, "pontifical": 22362, "clue": 9789, "biomedical": 20906, "axial": 26819, "cheltenham": 18763, "stu": 24646, "\u0641": 1291, "seating": 10747, "rumbled": 22257, "[unused681]": 686, "yep": 15624, "tying": 15233, "amplifier": 22686, "[unused827]": 832, "precedence": 23359, "\u0e25": 1418, "unlimited": 14668, "lean": 8155, "##mmer": 15810, "##ably": 8231, "[unused171]": 176, "improvised": 19641, "radios": 22229, "##ddle": 20338, "##icate": 24695, "gibson": 9406, "glide": 21096, "railroads": 16197, "salary": 10300, "\u653f": 1860, "cruise": 8592, "larkin": 25570, "cinematography": 16434, "\u0e2d": 1421, "[unused53]": 54, "freaking": 13847, "compromise": 12014, "##zu": 9759, "paralympic": 17029, "##hem": 29122, "greenwich": 13861, "cooperation": 6792, "symptoms": 8030, "##run": 15532, "ways": 3971, "##\u05da": 29797, "##hole": 11484, "chun": 20979, "und": 6151, "mathews": 23287, "townships": 13991, "gaelic": 11196, "rivers": 5485, "continental": 6803, "medieval": 5781, "distinguished": 5182, "\u00a33": 28182, "retired": 3394, "vulture": 27588, "holidays": 11938, "michael": 2745, "grooves": 25880, "manager": 3208, "erotic": 14253, "\u0e01": 1409, "larvae": 9673, "malice": 28238, "villains": 16219, "honoured": 15546, "ajax": 18176, "cavern": 16679, "[unused862]": 867, "vertigo": 28246, "cambrian": 29228, "nazis": 13157, "discrimination": 9147, "theatrical": 8900, "1858": 8517, "##wire": 20357, "[unused819]": 824, "tammy": 19971, "murdered": 7129, "throwing": 6886, "##\u0965": 29881, "##\u2018": 30055, "coefficient": 19064, "lead": 2599, "snakes": 12971, "thighs": 9222, "\u6c37": 1895, "sensed": 10596, "\u00fe": 1101, "mindanao": 23669, "westfield": 26584, "rapids": 12775, "fenton": 27096, "least": 2560, "timber": 7227, "whereabouts": 18913, "2nd": 3416, "##ath": 8988, "english": 2394, "flick": 17312, "##rlin": 19403, "swindon": 22350, "qualifying": 6042, "beaver": 13570, "monsoon": 19183, "judaism": 13725, "\u65b0": 1862, "orphanage": 18504, "afghanistan": 7041, "##heater": 27847, "##oses": 27465, "\u0438": 1188, "button": 6462, "##dhar": 25632, "nippon": 19364, "\"": 1000, "justin": 6796, "insects": 9728, "powerful": 3928, "apocalyptic": 27660, "important": 2590, "##\u0251": 29677, "roam": 25728, "##ply": 22086, "solar": 5943, "##ists": 5130, "popular": 2759, "relied": 13538, "##aki": 8978, "##fle": 21031, "paintings": 5265, "olympus": 26742, "\u306a": 1667, "incurred": 22667, "frowned": 7335, "wellesley": 25658, "widely": 4235, "##eta": 12928, "patiently": 19080, "adorned": 19189, "concerto": 10405, "lighter": 9442, "shout": 11245, "sailors": 11279, "lovers": 10205, "knocks": 21145, "\u03b6": 1160, "ligue": 18374, "telugu": 12180, "taunting": 29442, "go": 2175, "[unused908]": 913, "tamil": 6008, "##ic": 2594, "deserts": 28858, "dutch": 3803, "\u2665": 1625, "grandfather": 5615, "graves": 9729, "mines": 7134, "barony": 19365, "foreman": 18031, "assuming": 10262, "damage": 4053, "joaquin": 16877, "##rne": 12119, "terminus": 7342, "\u11af": 1486, "como": 18609, "operation": 3169, "xi": 8418, "overlap": 17702, "\u25aa": 1618, "swim": 9880, "paths": 10425, "oro": 20298, "alfa": 22989, "compiling": 21953, "550": 13274, "##sier": 20236, "worst": 5409, "##now": 19779, "chosen": 4217, "##making": 12614, "[unused738]": 743, "##hus": 9825, "##cturing": 19159, "buena": 27493, "##rte": 19731, "##cha": 7507, "mathew": 25436, "stockton": 19161, "irrigation": 12442, "##\u308a": 30212, "channel": 3149, "\u702c": 1905, "##drick": 24092, "select": 7276, "acknowledge": 13399, "marjorie": 21562, "sole": 7082, "keeps": 7906, "song": 2299, "##\u03c3": 29733, "strip": 6167, "##rus": 7946, "sour": 14768, "##deh": 25383, "towels": 24213, "swam": 16849, "bernard": 6795, "guilty": 5905, "application": 4646, "grimly": 22561, "\u53f2": 1790, "##wee": 28394, "##iel": 9257, "smirked": 18775, "residences": 14094, "adept": 26398, "suv": 15620, "##venting": 26703, "hornets": 24855, "distorted": 19112, "transcription": 14193, "##rdo": 20683, "wider": 7289, "stalls": 19753, "sliced": 15920, "filmmakers": 16587, "[unused499]": 504, "investigative": 15025, "pharaoh": 22089, "utilized": 12550, "tones": 12623, "##asa": 16782, "hear": 2963, "##jal": 25787, "beers": 18007, "##ump": 24237, "nascar": 11838, "##rce": 19170, "claremont": 23716, "##ailing": 29544, "mb": 16914, "##icus": 14239, "holds": 4324, "gossip": 13761, "euroleague": 26093, "stripes": 13560, "call": 2655, "anytime": 15933, "wwii": 25755, "hearts": 8072, "happening": 6230, "##lter": 21928, "\u0917": 1317, "\u30ed": 1735, "##eus": 10600, "response": 3433, "succession": 8338, "doll": 10658, "commuted": 26704, "accompany": 12673, "crude": 13587, "nominee": 9773, "beige": 28799, "verity": 22178, "##nies": 15580, "amos": 13744, "##scu": 28817, "uae": 17641, "maldives": 25059, "churches": 5231, "[unused487]": 492, "www": 7479, "patterned": 25336, "##kko": 22426, "1984": 3118, "proudly": 18067, "meters": 5563, "[unused140]": 145, "disciplined": 28675, "scholastic": 24105, "ks": 29535, "capturing": 11847, "spirituality": 21244, "mage": 17454, "threatening": 8701, "monastery": 6408, "elias": 14579, "[unused94]": 95, "volley": 28073, "addresses": 11596, "stephan": 15963, "columns": 7753, "[unused912]": 917, "likeness": 28275, "poke": 26202, "dismiss": 19776, "konrad": 22958, "picasso": 22457, "ignores": 26663, "stands": 4832, "either": 2593, "undertaken": 10607, "barbarian": 25075, "##chy": 11714, "niger": 16842, "[unused185]": 190, "illustrate": 19141, "geared": 23636, "subdued": 20442, "scorer": 10835, "##athan": 29246, "lowry": 27281, "maine": 7081, "surveyor": 17169, "##like": 10359, "##\u043e\u0432\u0438\u0447": 16198, "accessories": 16611, "##\u0641": 29833, "disruption": 20461, "##ast": 14083, "cite": 21893, "jarvis": 21072, "periodicals": 21855, "##ick": 6799, "journalists": 8845, "##logical": 9966, "rq": 28134, "lamps": 14186, "elements": 3787, "abby": 9460, "odisha": 21874, "amend": 27950, "92": 6227, "##arts": 20591, "ar": 12098, "homogeneous": 24854, "killers": 15978, "premature": 21371, "##dy": 5149, "##wine": 21924, "flutter": 23638, "##enbach": 21409, "##rda": 13639, "sigma": 13201, "##la": 2721, "curtains": 14694, "oder": 27215, "suicide": 5920, "tod": 28681, "venetian": 15510, "attachment": 14449, "equity": 10067, "cannabis": 17985, "rap": 9680, "innocent": 7036, "evicted": 25777, "acts": 4490, "##ula": 7068, "cyclist": 14199, "represent": 5050, "robotics": 21331, "##farlane": 23511, "farther": 8736, "1826": 11931, "sofia": 8755, "attraction": 8432, "armchair": 29372, "limited": 3132, "[unused851]": 856, "le": 3393, "##ience": 13684, "##comb": 18274, "algebra": 11208, "repeated": 5567, "##sky": 5874, "elliptical": 27213, "geographically": 20969, "sculptor": 10160, "ist": 21541, "##md": 26876, "winchester": 12841, "talon": 19048, "filtered": 21839, "influencing": 25870, "##ir": 4313, "woodrow": 23954, "treat": 7438, "prisoner": 7267, "biologist": 21477, "study": 2817, "speech": 4613, "partnerships": 13797, "melee": 27868, "lately": 9906, "siding": 17326, "##works": 9316, "fat": 6638, "babylonian": 26990, "gaines": 28645, "scheduling": 19940, "##\u0dbd": 29942, "congressional": 7740, "178": 19289, "diseases": 7870, "[unused214]": 219, "holdings": 9583, "censorship": 15657, "valle": 20171, "region": 2555, "campuses": 13696, "##\u0925": 29860, "spaghetti": 26666, "##\u540c": 30320, "parochial": 28773, "##away": 9497, "standardized": 16367, "##coe": 16288, "##eson": 21421, "taking": 2635, "[unused105]": 110, "seem": 4025, "deprived": 17676, "leagues": 8121, "##\u20ac": 30102, "samoa": 15075, "constitutional": 6543, "##zard": 26154, "reality": 4507, "secretariat": 15128, "fungi": 15289, "vanity": 18736, "spines": 20352, "loyalists": 26590, "##endez": 28787, "prove": 6011, "\u672c": 1876, "casinos": 27300, "privately": 9139, "pretoria": 25366, "ensuring": 12725, "vowed": 18152, "toe": 11756, "unspoken": 25982, "stress": 6911, "[unused921]": 926, "detached": 12230, "editorial": 8368, "accessed": 11570, "reporter": 6398, "[unused482]": 487, "scrub": 18157, "pounder": 20091, "##ju": 9103, "##dance": 25514, "trader": 17667, "lightning": 7407, "aroma": 23958, "shaun": 16845, "leland": 27134, "porter": 8716, "##rong": 17583, "[unused259]": 264, "\u05da": 1251, "00": 4002, "##ntial": 19909, "boil": 26077, "imperial": 4461, "reefs": 21484, "dorothy": 9984, "[unused930]": 935, "underway": 14128, "souza": 26598, "amongst": 5921, "anniversary": 5315, "peacekeeping": 28364, "easiest": 25551, "viper": 17947, "heavenly": 16581, "mohammed": 12619, "banging": 22255, "ser": 14262, "80": 3770, "reporting": 7316, "prospect": 9824, "ponder": 29211, "floors": 8158, "prefer": 9544, "enter": 4607, "decomposition": 22511, "britten": 29429, "pike": 12694, "##gler": 17420, "leaflets": 27306, "niccolo": 27033, "daring": 15236, "liza": 20503, "##mot": 18938, "maureen": 19167, "conner": 17639, "63": 6191, "ghent": 24202, "tomb": 8136, "stars": 3340, "##mental": 26901, "confidential": 18777, "sq": 5490, "##estra": 26199, "loretta": 28493, "invention": 11028, "reformer": 24767, "functioning": 12285, "ba": 8670, "plumbing": 27902, "loosely": 11853, "theological": 9208, "241": 22343, "pathways": 16910, "##rine": 11467, "midlands": 13256, "transforms": 21743, "threaded": 26583, "##ople": 27469, "climax": 14463, "ensembles": 21528, "labeled": 12599, "gdp": 14230, "277": 25578, "dominating": 21949, "jets": 9924, "roach": 20997, "nearer": 20388, "books": 2808, "supplements": 25654, "rotting": 22005, "marshes": 19257, "##ca": 3540, "elongated": 17876, "[unused301]": 306, "sounding": 9391, "##\u8a01": 30475, "webster": 11635, "crowe": 25657, "chariot": 23507, "stimulation": 20858, "pork": 15960, "##ive": 3512, "runways": 24578, "alongside": 4077, "handbook": 14812, "jackets": 17764, "monsieur": 21380, "lincoln": 5367, "sufficient": 7182, "balloon": 13212, "215": 17405, "##ein": 12377, "twist": 9792, "salford": 23001, "[unused563]": 568, "##abi": 28518, "amin": 24432, "painfully": 16267, "kimberly": 23729, "euros": 19329, "hardest": 18263, "##mist": 23738, "##\u771f": 30447, "bangkok": 12627, "bison": 22285, "participants": 6818, "1621": 27037, "##tch": 10649, "##hill": 7100, "noble": 7015, "##lda": 15150, "reader": 8068, "eggs": 6763, "limitations": 12546, "##vara": 24516, "pavement": 14271, "[unused733]": 738, "absent": 9962, "democratic": 3537, "navigate": 22149, "billion": 4551, "corona": 21887, "shirts": 11344, "rival": 6538, "distortion": 20870, "##ug": 15916, "possible": 2825, "##\u30e7": 30256, "violin": 6710, "##\u06ba": 29843, "spartan": 20670, "attractions": 13051, "televised": 13762, "fiba": 13651, "stephens": 15037, "aviator": 24035, "ashes": 11289, "##\u5b9a": 30348, "outdoors": 19350, "generous": 12382, "[unused863]": 868, "facts": 8866, "destined": 16036, "prestige": 14653, "instituto": 22596, "##\u0e23": 29953, "hating": 22650, "nonetheless": 9690, "##oked": 23461, "stallion": 19122, "##ively": 14547, "fraud": 9861, "##ssar": 25556, "compositions": 9265, "penis": 19085, "expression": 3670, "jurisprudence": 24697, "oven": 17428, "loneliness": 20334, "##rion": 14772, "newtown": 26382, "spilled": 13439, "capt": 14408, "beside": 3875, "mackenzie": 11407, "##\u026a": 29685, "surrounds": 20626, "internationale": 21339, "280": 13427, "rave": 23289, "[unused136]": 141, "allegedly": 9382, "gunmen": 28932, "chapel": 4970, "rand": 14566, "apps": 18726, "##breakers": 27623, "relay": 8846, "crust": 19116, "against": 2114, "referred": 3615, "##rnik": 26437, "spread": 3659, "##\u1d47": 30033, "jail": 7173, "horst": 28565, "teaming": 27025, "loving": 8295, "1827": 12309, "relinquished": 26566, "obligation": 14987, "institution": 5145, "concern": 5142, "##\u7687": 30443, "\u30ad": 1701, "polka": 29499, "esa": 28776, "blackout": 26717, "councillors": 13189, "searched": 9022, "lunged": 17755, "of": 1997, "tv": 2694, "occurrences": 27247, "horatio": 27752, "cloth": 8416, "##lim": 17960, "evan": 9340, "bk": 23923, "[unused166]": 171, "misty": 15167, "mystical": 17529, "solved": 13332, "##rom": 21716, "highlighting": 20655, "directory": 14176, "weightlifting": 29305, "subtropical": 11935, "high": 2152, "[unused460]": 465, "[unused510]": 515, "##\u2095": 30093, "branches": 5628, "lineup": 10515, "homeless": 11573, "##\u03bd": 16177, "parental": 18643, "endeavour": 26911, "saturday": 5095, "##ration": 8156, "devastating": 14886, "insane": 9577, "[unused223]": 228, "rotational": 25254, "asha": 24595, "##\u4ecb": 30285, "organist": 16397, "aa": 9779, "listing": 10328, "abolished": 8961, "iucn": 20333, "##rchy": 29389, "drip": 27304, "##vich": 12933, "1755": 21417, "wildlife": 6870, "crusader": 25237, "photo": 6302, "arithmetic": 20204, "##\u00a3": 29646, "##lating": 22248, "vines": 16702, "firearm": 23646, "\u2044": 1535, "currie": 20667, "ruining": 27853, "dress": 4377, "knob": 16859, "##do": 3527, "crawling": 15927, "##anum": 27975, "cheeks": 6029, "[unused484]": 489, "jonas": 10680, "##ttering": 19567, "nedra": 28240, "##ians": 7066, "chemicals": 12141, "weekly": 4882, "installment": 18932, "assumes": 15980, "##ern": 11795, "landing": 4899, "legally": 10142, "happens": 6433, "may": 2089, "highest": 3284, "##ischen": 24488, "[unused720]": 725, "restaurants": 7884, "opposed": 4941, "paranoia": 27890, "[unused283]": 288, "##\u09c7": 29917, "\u067e": 1302, "##ante": 12956, "nova": 6846, "emigrated": 11367, "hierarchical": 25835, "creole": 21414, "leighton": 26873, "##iting": 15402, "martins": 19953, "##dorf": 11592, "299": 25926, "unnamed": 13294, "hire": 10887, "amalgamated": 17143, "mechanically": 27846, "slip": 7540, "victor": 5125, "harshly": 21052, "rations": 29559, "tax": 4171, "placing": 6885, "engaging": 11973, "homemade": 25628, "andre": 7213, "nudged": 18666, "sexually": 12581, "##imated": 20592, "swirl": 28693, "barked": 17554, "inscription": 9315, "mori": 22993, "240": 11212, "preview": 19236, "knock": 7324, "tully": 25724, "describes": 5577, "##uven": 27346, "\u533a": 1782, "jon": 6285, "conscription": 26329, "crates": 27619, "attract": 9958, "cumbria": 25559, "shear": 18330, "strap": 16195, "wages": 12678, "mercedes": 10793, "flex": 23951, "stable": 6540, "\u4e0b": 1743, "##tty": 15353, "aging": 12520, "ed": 3968, "dutton": 28784, "narrower": 22546, "##son": 3385, "strangers": 12358, "wrenched": 26971, "##ckle": 19250, "pontiac": 24538, "##ward": 7652, "mcgee": 22034, "applicants": 17362, "ties": 7208, "topping": 22286, "##\u3084": 30208, "helmet": 10412, "ominous": 23504, "humorous": 14742, "[unused345]": 350, "branded": 11180, "##phic": 17926, "dail": 26181, "aftermath": 10530, "##lais": 28704, "subject": 3395, "[unused697]": 702, "##iste": 27870, "fried": 13017, "ongoing": 7552, "##laze": 24472, "novo": 24576, "winston": 10180, "only": 2069, "850": 15678, "manpower": 22039, "crops": 8765, "argyle": 26503, "moans": 24675, "rock": 2600, "bursting": 21305, "##adan": 26335, "qualities": 11647, "goal": 3125, "##child": 19339, "revisions": 24699, "\u7acb": 1931, "consult": 23363, "surrender": 7806, "city": 2103, "watford": 21740, "108": 10715, "seduction": 26962, "mouth": 2677, "suits": 11072, "express": 4671, "swimmers": 21669, "bureaucracy": 25934, "edward": 3487, "painful": 9145, "erin": 11781, "##yra": 19563, "##rman": 14515, "1940s": 7675, "##xed": 19068, "spite": 8741, "initiating": 26616, "##\u793a": 30449, "examples": 4973, "##jad": 27875, "shallow": 8467, "martyrs": 18945, "##tton": 15474, "##ulsive": 23004, "brawl": 23244, "vomiting": 24780, "uncover": 26944, "dwellings": 16707, "##lars": 28695, "bees": 13734, "##ragan": 28905, "defended": 8047, "grouping": 19765, "muzzle": 17750, "\u062f": 1278, "forearm": 16148, "##ciation": 23247, "##ural": 11137, "depicting": 10775, "clark": 5215, "rains": 15811, "soloists": 27516, "##apes": 29040, "religious": 3412, "atmospheric": 12483, "vegetation": 10072, "calvert": 24800, "medallist": 28595, "notoriety": 23215, "leopold": 12752, "##ivation": 25761, "gala": 16122, "mina": 19808, "formula": 5675, "contrasting": 22133, "##vo": 6767, "\u4f50": 1764, "\u0576": 1231, "framed": 10366, "cooperative": 10791, "ancestry": 11377, "discourse": 15152, "##missible": 26770, "74": 6356, "##ples": 21112, "$": 1002, "paralysis": 26287, "patents": 13979, "rugby": 4043, "sham": 25850, "##hesion": 21471, "##aday": 28039, "\u305d": 1660, "hussain": 20093, "hostility": 18258, "##pped": 11469, "##kawa": 13069, "##ajan": 28869, "bounds": 19202, "exclusive": 7262, "passions": 25289, "syed": 19740, "radioactive": 17669, "cylinder": 7956, "##ku": 5283, "##nam": 13129, "##tase": 18260, "indirectly": 17351, "##mba": 11201, "rovers": 9819, "egyptians": 23437, "page": 3931, "stabilization": 28715, "fortification": 23050, "won": 2180, "##car": 10010, "seizure": 18634, "dickinson": 17590, "apprehension": 25809, "traveller": 21916, "knew": 2354, "470": 21064, "ibn": 7839, "irrational": 23179, "guise": 21980, "##aton": 22436, "##rana": 16737, "dolphin": 17801, "##g": 2290, "acoustic": 6490, "lucille": 28016, "proficient": 27029, "##\u207a": 12744, "luggage": 17434, "holly": 9079, "auditor": 20964, "euclidean": 25826, "announcement": 8874, "pseudo": 18404, "##\u72ac": 30434, "laws": 4277, "props": 24387, "patriots": 11579, "damned": 9636, "outcomes": 13105, "answer": 3437, "preseason": 20038, "object": 4874, "prints": 11204, "bancroft": 29351, "acclaim": 10761, "rev": 7065, "redesignated": 11836, "fortifications": 14507, "another": 2178, "outlaws": 23107, "##vus": 27500, "##isha": 24032, "ok": 7929, "##hes": 15689, "##\u2205": 30121, "tears": 4000, "##rix": 17682, "##let": 7485, "hamburger": 24575, "sloan": 19024, "heir": 8215, "lizard": 15450, "traditions": 7443, "##gni": 29076, "pedal": 15749, "cared": 8725, "collided": 17745, "dod": 26489, "fences": 21549, "frown": 11330, "[unused928]": 933, "1610": 25800, "welcoming": 18066, "##\u3082": 30207, "weeds": 20777, "injected": 19737, "complain": 17612, "aids": 8387, "[unused559]": 564, "aroused": 18391, "acacia": 24766, "##ocation": 23909, "rattling": 26347, "decisive": 13079, "unconventional": 23693, "[unused206]": 211, "##\u516b": 30297, "arthur": 4300, "##pled": 21132, "wolverine": 22162, "##erre": 28849, "relaunched": 26391, "mac": 6097, "pornography": 19378, "##lu": 7630, "harris": 5671, "coating": 18898, "hawaii": 7359, "comment": 7615, "dialogue": 7982, "attacker": 17346, "##\u09a4": 29898, "oblivious": 18333, "sixth": 4369, "jozef": 23258, "yarn": 27158, "glistening": 25203, "##\u09a8": 29902, "over": 2058, "[unused824]": 829, "##tone": 5524, "briefing": 27918, "##\u5e7f": 30368, "1804": 13140, "caitlin": 27555, "cliffs": 13333, "bird": 4743, "mccartney": 15320, "publicity": 11845, "##qa": 19062, "seizing": 24681, "warmth": 8251, "cone": 13171, "dortmund": 23912, "##by": 3762, "caracas": 21675, "eagles": 8125, "mile": 3542, "helen": 6330, "##ammed": 27479, "enslaved": 22216, "\u0192": 1108, "subsidies": 21762, "##lene": 11474, "bounty": 17284, "curtis": 9195, "amara": 28599, "manifesto": 17124, "commencing": 25819, "holm": 28925, "mistakes": 12051, "incarnation": 15715, "substitute": 7681, "##buro": 23670, "205": 16327, "per": 2566, "librarian": 13850, "yellow": 3756, "timer": 25309, "##lain": 15987, "coalition": 6056, "midsummer": 28171, "[unused521]": 526, "interior": 4592, "##kit": 23615, "bret": 25626, "cds": 14340, "whig": 21632, "oct": 13323, "counts": 9294, "wills": 17234, "forehead": 6130, "palaces": 22763, "mig": 19117, "##edging": 28002, "##\u11a8": 30020, "##static": 16677, "seemed": 2790, "trip": 4440, "paddle": 20890, "danzig": 26669, "39th": 22702, "longer": 2936, "choral": 14564, "kind": 2785, "##\u798f": 30452, "reassured": 26350, "fades": 26784, "##opus": 24676, "##genase": 28835, "unto": 19662, "forgiveness": 17213, "kelley": 19543, "##hol": 14854, "hacker": 23307, "zeke": 18270, "##inal": 13290, "jeff": 5076, "zachary": 19474, "telescopes": 28026, "72": 5824, "appealed": 12068, "[unused771]": 776, "stitches": 25343, "##\u0627\u0646": 18511, "realism": 15650, "joy": 6569, "frances": 10360, "##kle": 19099, "shave": 27545, "##mx": 22984, "hampstead": 29557, "\u2265": 1609, "leith": 29011, "davis": 4482, "thud": 20605, "fly": 4875, "elton": 19127, "jamaica": 9156, "##ographic": 13705, "##llin": 21202, "puts": 8509, "outlawed": 29131, "smithsonian": 15720, "spit": 13183, "##ecure": 29150, "indications": 24936, "sac": 17266, "bromwich": 27888, "assumption": 11213, "[unused898]": 903, "cote": 17155, "change": 2689, "gunfire": 16978, "bundled": 24378, "infected": 10372, "scrambled": 13501, "mohamed": 14467, "taliban": 16597, "76": 6146, "tampa": 9925, "cube": 14291, "enhancement": 22415, "garland": 17017, "cavalry": 5945, "\u00ba": 1089, "##lock": 7878, "froze": 10619, "\u9999": 1979, "touches": 12817, "enlisted": 9417, "overhead": 8964, "##mb": 14905, "##haling": 23896, "##poo": 24667, "dread": 14436, "regards": 12362, "petit": 17268, "chevrolet": 14724, "##rah": 10404, "syrian": 9042, "[unused252]": 257, "blessing": 13301, "\u03c7": 1177, "[unused984]": 989, "\u0ca8": 1400, "tragic": 13800, "differs": 12980, "affected": 5360, "drove": 5225, "owns": 8617, "diablo": 28841, "##yev": 17240, "##van": 6212, "too": 2205, "drawn": 4567, "aramaic": 28934, "##$": 29615, "lecturer": 9162, "plantations": 14979, "##tius": 22638, "considerably": 9839, "1628": 28627, "##pired": 21649, "it": 2009, "episodes": 4178, "\u09a6": 1364, "##ow": 5004, "##\u5b80": 30344, "jock": 23407, "##\u110a": 29998, "shepherd": 11133, "aus": 17151, "virginity": 26970, "languages": 4155, "dropping": 7510, "##ades": 18673, "testosterone": 25937, "[unused124]": 129, "sooner": 10076, "184": 19681, "braves": 13980, "bliss": 13670, "arranger": 13981, "ledge": 18283, "fry": 14744, "goods": 5350, "##wyl": 27740, "##ification": 9031, "enzyme": 9007, "performances": 4616, "\u1019": 1437, "popping": 20095, "colombo": 16224, "fluttered": 18360, "canceled": 13261, "towns": 4865, "##xin": 20303, "concepts": 8474, "empowered": 26480, "thin": 4857, "wounds": 8710, "##rata": 14660, "father": 2269, "\u2194": 1587, "142": 16087, "wednesday": 9317, "tanzania": 11959, "##dev": 24844, "halifax": 10475, "norton": 10770, "##vik": 13309, "growled": 8881, "cement": 11297, "canadians": 16485, "drummer": 7101, "weaponry": 22711, "##nical": 20913, "##osition": 19234, "1704": 27769, "wheels": 7787, "ems": 29031, "reared": 23295, "rory": 14285, "october": 2255, "[unused365]": 370, "coaches": 7850, "gerhard": 21037, "loyola": 21580, "brussels": 9371, "aura": 15240, "libel": 26201, "##bic": 13592, "downed": 20164, "m1": 23290, "[unused199]": 204, "gradual": 16612, "platform": 4132, "insulin": 22597, "1885": 6571, "##ances": 26755, "royalties": 25335, "01": 5890, "\u53e4": 1789, "flashlight": 15257, "laguna": 18169, "grade": 3694, "unfolded": 23959, "quran": 21288, "subdivided": 15369, "bishops": 8414, "refused": 4188, "ching": 19992, "##fer": 7512, "frontiers": 28750, "##ard": 4232, "octopus": 24318, "themselves": 3209, "mason": 6701, "howled": 27489, "315": 22904, "warehouses": 23319, "##2": 2475, "libre": 21091, "choked": 12444, "[unused382]": 387, "\u2500": 1615, "drug": 4319, "unaffected": 24720, "customized": 28749, "blasted": 18461, "spelled": 11479, "dioxide": 14384, "genealogy": 26684, "expansive": 25145, "##gau": 20420, "notorious": 12536, "finalized": 23575, "eucalyptus": 27111, "occult": 27906, "[unused511]": 516, "particle": 10811, "bowling": 9116, "influx": 18050, "riga": 17557, "benito": 23595, "wren": 16255, "index": 5950, "consideration": 9584, "shelley": 15828, "modern": 2715, "lausanne": 22256, "thirst": 21810, "lovely": 8403, "pigment": 28815, "1000": 6694, "skinny": 15629, "##ovic": 9142, "137": 14989, "##no": 3630, "##uity": 18518, "activist": 7423, "##sham": 21010, "##l": 2140, "convince": 8054, "dong": 11947, "impatiently": 19951, "bends": 23394, "tourist": 7538, "misleading": 22369, "[unused593]": 598, "immediate": 6234, "changed": 2904, "dense": 9742, "tending": 25069, "##\u0289": 29697, "healer": 19783, "139": 16621, "avenues": 20859, "quakers": 28301, "gdansk": 21942, "mega": 13164, "##rson": 17753, "spaced": 19835, "fellow": 3507, "northwestern": 7855, "illustrated": 7203, "[unused838]": 843, "233": 22115, "tanker": 20135, "silvio": 28107, "##nos": 15460, "wink": 16837, "32": 3590, "salzburg": 18369, "association": 2523, "checkpoint": 26520, "buzz": 12610, "##lage": 20679, "felicia": 27579, "urging": 14328, "versions": 4617, "##ite": 4221, "anzac": 29224, "consolidate": 24939, "aggregator": 24089, "starred": 5652, "sung": 7042, "published": 2405, "sweeney": 21178, "annie": 8194, "schultz": 22378, "##ents": 11187, "refined": 15514, "southland": 29121, "##rked": 19849, "disposal": 13148, "switched": 7237, "offered": 3253, "minneapolis": 11334, "##\u208d": 30087, "representing": 5052, "strapped": 18019, "massacre": 9288, "instead": 2612, "provisional": 10864, "laszlo": 28226, "starvation": 22611, "laid": 4201, "kosovo": 11491, "converts": 19884, "##raj": 14220, "riverside": 12497, "flood": 7186, "##bula": 28507, "##arat": 25879, "arrange": 13621, "jihad": 24815, "\u300d": 1642, "analog": 11698, "nordic": 13649, "environments": 10058, "heavily": 4600, "dt": 26718, "##ex": 10288, "ec": 14925, "##nesia": 21509, "[unused664]": 669, "##ingen": 15542, "##zh": 27922, "elaborated": 25187, "godzilla": 26631, "dana": 11271, "##strel": 26877, "instrumentalist": 29253, "magazines": 7298, "##rg": 10623, "esther": 14631, "dwarfs": 28984, "##ust": 19966, "reyes": 12576, "bother": 8572, "ivan": 7332, "legal": 3423, "painters": 12499, "##ous": 3560, "evelyn": 12903, "prospects": 16746, "intended": 3832, "schumann": 29448, "georgie": 20280, "themes": 6991, "2011": 2249, "revolutions": 25239, "squinting": 29156, "##urg": 12514, "landscaping": 28404, "##ery": 7301, "sagged": 26719, "##adi": 17190, "\u0290": 1136, "muted": 22124, "lisa": 7059, "largest": 2922, "##\u099b": 29893, "incorporates": 12374, "##nitz": 22792, "oscar": 7436, "handy": 18801, "xml": 20950, "##\u0442": 22919, "math": 8785, "pending": 14223, "##aine": 18175, "caf": 24689, "transitioned": 23946, "horror": 5469, "motors": 9693, "governing": 8677, "fortunate": 19590, "contiguous": 25177, "##linson": 25051, "[unused781]": 786, "plastered": 21832, "concourse": 28571, "its": 2049, "musician": 5455, "##down": 7698, "oceanic": 18955, "routines": 23964, "##rk": 8024, "uk": 2866, "\u1165": 1472, "dundee": 14252, "centimetres": 13935, "##lets": 13461, "[unused178]": 183, "united": 2142, "##wes": 18192, "vertebrae": 25517, "##uce": 18796, "explains": 7607, "##va": 3567, "printed": 6267, "keating": 25865, "timmy": 27217, "uncertain": 9662, "salaries": 20566, "fleet": 4170, "thereafter": 6920, "amidst": 17171, "inflammation": 21733, "##das": 8883, "erskine": 27139, "tacoma": 22954, "19": 2539, "mice": 12328, "barefoot": 22985, "1656": 28434, "imminent": 17566, "casually": 13217, "sioux": 16615, "madison": 7063, "##nko": 16107, "barbed": 25007, "toronto": 4361, "disliked": 18966, "##otho": 29288, "phylogenetic": 23192, "cornish": 17797, "##sty": 21756, "##d": 2094, "##ec": 8586, "\u2013": 1516, "bowler": 14999, "feud": 13552, "[unused14]": 15, "fort": 3481, "ernesto": 22428, "##erik": 27350, "yankee": 17652, "miocene": 26926, "tactical": 8608, "\u02b7": 1143, "introductory": 23889, "##thi": 15222, "remains": 3464, "steamer": 18027, "rotated": 20931, "together": 2362, "transactions": 11817, "whitman": 21311, "complete": 3143, "shawn": 13218, "##ye": 6672, "apache": 15895, "sans": 20344, "[unused75]": 76, "interpreting": 25455, "become": 2468, "obstacle": 18355, "pomerania": 18631, "[unused852]": 857, "leah": 14188, "[unused224]": 229, "##pressing": 24128, "impress": 17894, "chest": 3108, "pressures": 15399, "##ua": 6692, "physicist": 13702, "commune": 5715, "follower": 22399, "##out": 5833, "exports": 14338, "##press": 20110, "##erly": 12561, "russia": 3607, "replicate": 28024, "##nst": 23808, "296": 27200, "functions": 4972, "1991": 2889, "political": 2576, "supervisor": 12366, "reunification": 28044, "molly": 9618, "##\u207b": 30079, "##edd": 22367, "aldo": 28163, "227": 21489, "06": 5757, "measuring": 9854, "sinking": 10186, "knelt": 12804, "jumps": 14523, "rebounds": 11049, "calculated": 10174, "transfers": 15210, "endangered": 10193, "prix": 5431, "gasped": 8535, "align": 25705, "##iac": 20469, "##eem": 21564, "appropriately": 23263, "cruz": 8096, "contrasted": 22085, "advertised": 17099, "finalist": 9914, "afternoon": 5027, "titans": 13785, "reptiles": 20978, "synthesis": 10752, "sandwich": 11642, "##\u2264": 30135, "taps": 25316, "ley": 25866, "##rail": 15118, "roads": 4925, "turtle": 13170, "overdose": 26641, "suburban": 9282, "formations": 13197, "demon": 5698, "##\u624c": 30385, "trailer": 9117, "rene": 10731, "notwithstanding": 26206, "preserved": 6560, "sanders": 12055, "guitarists": 28523, "hash": 23325, "hate": 5223, "##lash": 27067, "49": 4749, "rocker": 24779, "download": 8816, "bend": 8815, "bert": 14324, "talks": 7566, "peanut": 21443, "abe": 14863, "scoring": 4577, "##qing": 19784, "ineligible": 22023, "1692": 28622, "jennings": 14103, "##\u11af": 30022, "fender": 19028, "venezuelan": 15332, "plainly": 24250, "rail": 4334, "germanic": 15139, "##urian": 29091, "##ace": 10732, "##hre": 28362, "fruit": 5909, "performance": 2836, "marta": 18950, "utah": 6646, "cain": 11557, "sarawak": 21546, "studies": 2913, "himalayan": 28333, "observatory": 9970, "resumed": 7943, "dreadful": 21794, "##ab": 7875, "rumble": 15658, "##\u0142": 18818, "message": 4471, "##trip": 24901, "\u0280": 1127, "wheeler": 12819, "##americana": 27026, "bordering": 18299, "wizards": 16657, "##nais": 28020, "tables": 7251, "cobalt": 25627, "flooding": 9451, "marriages": 12743, "google": 8224, "quartz": 20971, "1": 1015, "\\": 1032, "dub": 12931, "tempted": 16312, "tombs": 16623, "bombing": 8647, "soccer": 4715, "nightmare": 10103, "smaller": 3760, "spawn": 25645, "maker": 9338, "\u0987": 1349, "decreased": 10548, "greeting": 14806, "##physics": 15638, "invasive": 17503, "##acy": 15719, "##orted": 15613, "##late": 13806, "mira": 18062, "##jack": 17364, "##p": 2361, "##ctors": 24817, "mobilization": 25580, "jogging": 28233, "interned": 26345, "joel": 8963, "casual": 10017, "plays": 3248, "##\u208e": 30088, "cyprus": 9719, "##ways": 14035, "sabha": 11200, "dioceses": 26586, "213": 19883, "fused": 19660, "craft": 7477, "goalkeeper": 9653, "screens": 12117, "latitude": 15250, "besides": 4661, "suitcase": 15940, "##de": 3207, "prem": 26563, "sound": 2614, "dec": 11703, "[unused773]": 778, "##mobile": 17751, "##mony": 22847, "leg": 4190, "bum": 26352, "iona": 22347, "maids": 29229, "programmers": 28547, "[unused358]": 363, "##32": 16703, "prick": 24858, "##ingham": 16445, "proximity": 10039, "hysterical": 25614, "petals": 15829, "jonah": 15617, "triangles": 27189, "##j": 3501, "ruth": 7920, "##isan": 29196, "##tension": 29048, "billions": 25501, "ecclesiastical": 12301, "landfall": 21042, "##tead": 14565, "proficiency": 26293, "rug": 20452, "guthrie": 19952, "##boys": 24916, "cringed": 23952, "[unused342]": 347, "drawer": 13065, "neck": 3300, "##ppet": 29519, "##stones": 29423, "visually": 17453, "singing": 4823, "smells": 14747, "analytics": 25095, "##\u0569": 29771, "innovations": 15463, "inevitable": 13418, "booming": 24716, "praises": 27128, "##ky": 4801, "##zily": 28431, "reluctant": 11542, "julien": 19290, "sicilian": 22584, "##him": 14341, "[unused620]": 625, "shelters": 17177, "aluminum": 13061, "pony": 15606, "##\u0433": 29741, "writhing": 26185, "pearl": 7247, "contested": 7259, "shin": 12277, "bookstore": 21785, "##cta": 25572, "lucinda": 28261, "decreasing": 16922, "clayton": 11811, "advocate": 8175, "dal": 17488, "win": 2663, "nathaniel": 13961, "950": 20317, "bestseller": 24304, "petersburg": 8062, "bayou": 24818, "afghan": 12632, "keep": 2562, "canal": 5033, "overwhelming": 10827, "vernon": 11447, "##tted": 16190, "##ange": 22043, "ahead": 3805, "ogden": 23203, "spoke": 3764, "mutiny": 19306, "##uming": 24270, "145": 13741, "##geny": 17487, "silhouette": 21776, "induction": 15946, "overgrown": 26433, "meal": 7954, "laura": 6874, "promising": 10015, "bayer": 26367, "##icide": 21752, "##zd": 26494, "dip": 16510, "rubs": 28860, "correspondence": 11061, "binoculars": 29549, "148": 16459, "acceleration": 16264, "pictorial": 28304, "door": 2341, "lublin": 18967, "beetles": 14538, "squirrels": 29384, "helm": 16254, "1763": 18432, "1712": 28460, "rs": 12667, "feb": 13114, "laughs": 11680, "scans": 27404, "giant": 5016, "amassed": 22151, "##dust": 24220, "##tula": 28970, "##aea": 21996, "how": 2129, "barber": 13362, "speakers": 7492, "\u0909": 1313, "duke": 3804, "offers": 4107, "##uso": 26658, "tire": 12824, "offerings": 14927, "syrup": 23353, "intentional": 21249, "penetrate": 19136, "\u0dba": 1404, "vie": 20098, "dealings": 24069, "occurs": 5158, "facing": 5307, "nightly": 22390, "artist": 3063, "brewing": 16005, "triassic": 29529, "turns": 4332, "introduces": 13999, "upland": 25770, "subconscious": 27952, "hopeful": 17772, "leopard": 16240, "baja": 19497, "##sur": 26210, "[unused896]": 901, "nightclub": 15479, "##tson": 25656, "##chrome": 20366, "equal": 5020, "##\u222a": 30132, "##\u2261": 30134, "teamed": 12597, "\u3057": 1657, "pudding": 29593, "##\u2077": 30076, "sonora": 26647, "##lice": 13231, "excavated": 15199, "##43": 23777, "undo": 25672, "saturdays": 18860, "ron": 6902, "87": 6584, "##kota": 27380, "fiction": 4349, "inscribed": 14551, "ourselves": 9731, "benefited": 19727, "iteration": 27758, "christchurch": 15880, "cannon": 8854, "distraught": 25348, "\u8fb6": 1956, "vigor": 24474, "seriously": 5667, "[unused666]": 671, "partnering": 27001, "gareth": 20243, "outrage": 19006, "##eed": 13089, "imperfect": 29238, "switch": 6942, "chilled": 23362, "always": 2467, "mcguire": 23872, "1970": 3359, "elgin": 23792, "polynomials": 28175, "nobody": 6343, "##\u208a": 30086, "##port": 6442, "closes": 14572, "##chemist": 24229, "kun": 28919, "chinatown": 22321, "klan": 26613, "wetland": 22217, "peach": 18237, "sign": 3696, "curtain": 11002, "##lis": 6856, "opposes": 29158, "veins": 9607, "1799": 13839, "orbiting": 26472, "masked": 16520, "priesthood": 17911, "cox": 9574, "[unused670]": 675, "contradiction": 26917, "[unused881]": 886, "serena": 14419, "[unused976]": 981, "##\u624b": 30384, "applicable": 12711, "bug": 11829, "economical": 21791, "maccabi": 24055, "barron": 23594, "##saka": 29289, "guildford": 26353, "stroll": 27244, "##heart": 22375, "families": 2945, "##yoshi": 19196, "spirits": 8633, "##\u201a": 30057, "##:": 29627, "##gen": 6914, "whaling": 23687, "[unused23]": 24, "microsoft": 7513, "##del": 9247, "overboard": 27089, "##rgos": 22280, "maximus": 21692, "wings": 4777, "nervously": 12531, "cooked": 12984, "esq": 25325, "inherited": 7900, "flinch": 23224, "##\u3086": 30209, "cao": 12966, "immersion": 27013, "bakery": 18112, "colton": 21000, "nix": 23330, "##aks": 29243, "migrated": 13447, "bulldogs": 15120, "minh": 19538, "##orro": 29459, "inverness": 22937, "st": 2358, "revival": 6308, "classified": 6219, "contributor": 12130, "##ices": 23522, "spurred": 22464, "##\u09b6": 29910, "efficacy": 21150, "trademark": 11749, "directly": 3495, "motion": 4367, "chevalier": 22019, "##earing": 27242, "agriculture": 5237, "wishing": 10261, "banking": 8169, "joachim": 17286, "hardship": 26479, "1643": 25534, "antrim": 24142, "faces": 5344, "rural": 3541, "jens": 25093, "##tial": 20925, "essen": 29032, "##thus": 19877, "cosmopolitan": 24686, "##opa": 29477, "186": 19609, "asiatic": 23983, "mathematical": 8045, "##ganj": 22738, "resin": 24604, "arrogant": 15818, "##mium": 27759, "accusation": 19238, "hideous": 22293, "including": 2164, "##\u10dd": 29986, "extras": 26279, "harmony": 9396, "find": 2424, "raceway": 23018, "##rva": 19146, "addiction": 13449, "mutter": 23457, "ix": 11814, "karachi": 15381, "eyes": 2159, "til": 18681, "gods": 5932, "brigade": 4250, "##waite": 29601, "undergoes": 29129, "personnel": 5073, "prizes": 11580, "chased": 13303, "choi": 18151, "fence": 8638, "kylie": 9008, "fig": 20965, "prisons": 15996, "command": 3094, "miles": 2661, "32nd": 20628, "jolly": 22193, "scarred": 21985, "follow": 3582, "##tley": 18492, "rites": 17105, "occurrence": 14404, "owed": 12232, "guy": 3124, "sandra": 12834, "rehabilitation": 11252, "col": 8902, "captive": 12481, "amour": 21518, "##zone": 15975, "##tooth": 19392, "artistic": 6018, "unbroken": 29505, "newspapers": 6399, "66": 5764, "di": 4487, "##rro": 18933, "1742": 25704, "rugged": 17638, "##arte": 24847, "outsiders": 22361, "\uff5e": 1995, "maclean": 22528, "##verted": 26686, "veterans": 8244, "balkans": 19733, "crippled": 24433, "##nr": 16118, "dakota": 7734, "hours": 2847, "areas": 2752, "deputies": 11964, "guru": 11972, "nc": 13316, "tinged": 22683, "nba": 6452, "kits": 18628, "spectroscopy": 25458, "distributor": 16632, "approach": 3921, "##uen": 24997, "glazed": 19724, "cause": 3426, "banners": 23562, "romero": 18290, "clasped": 16763, "elections": 3864, "##urgent": 27176, "custody": 9968, "[unused547]": 552, "##rmin": 27512, "\u044d": 1208, "clover": 25133, "alison": 12684, "supports": 6753, "lamar": 19756, "importance": 5197, "stratford": 17723, "invariably": 26597, "##take": 15166, "25th": 10965, "subscribers": 17073, "orr": 26914, "71": 6390, "salim": 27490, "archangel": 28185, "wanted": 2359, "intruder": 22841, "demise": 13614, "##rao": 25667, "blouse": 18149, "##cona": 24366, "corps": 3650, "artifact": 20785, "adrian": 7918, "sears": 18493, "##gues": 22967, "bea": 26892, "homme": 26574, "##mpt": 27718, "##zed": 5422, "wastewater": 28269, "promised": 5763, "##ping": 4691, "extreme": 6034, "##ops": 11923, "##tar": 7559, "mummy": 22788, "peaking": 13015, "fungus": 16622, "definitions": 15182, "smug": 20673, "##uba": 19761, "##kowski": 15449, "predict": 16014, "##virus": 23350, "##cton": 28312, "tal": 21368, "mba": 15038, "wand": 23967, "\u5409": 1793, "publication": 4772, "storey": 11676, "announcements": 25674, "rescue": 5343, "rex": 10151, "certified": 7378, "lest": 26693, "blanket": 8768, "author": 3166, "hartman": 26766, "nobleman": 18487, "\u2095": 1564, "royalty": 16664, "##oor": 16506, "projection": 13996, "prefers": 19233, "m2": 25525, "graphic": 8425, "cellar": 15423, "probable": 15596, "boardwalk": 29496, "interviewed": 10263, "committees": 9528, "civilizations": 24784, "stationed": 8895, "usd": 13751, "[unused821]": 826, "##\u0921": 29857, "##very": 27900, "38th": 22051, "songwriting": 14029, "honored": 8686, "##gp": 21600, "yu": 9805, "betray": 20895, "fireplace": 13788, "wax": 13844, "specifications": 15480, "retribution": 25928, "##drik": 28730, "devices": 5733, "giuseppe": 12574, "dim": 11737, "bengali": 11267, "inclination": 21970, "##\u25a0": 30144, "reinforcements": 14214, "estates": 8707, "mean": 2812, "sweetness": 23210, "##scan": 29378, "organizations": 4411, "longevity": 26906, "shareholders": 15337, "france": 2605, "##dim": 22172, "variations": 8358, "##ndra": 17670, "overcome": 9462, "[unused187]": 192, "steamboat": 24897, "ho": 7570, "fujian": 29551, "helped": 3271, "meeting": 3116, "##po": 6873, "cantonese": 22241, "aw": 22091, "heated": 9685, "##mme": 20058, "##more": 5974, "havilland": 23994, "descends": 23328, "\u27e9": 1630, "adopted": 4233, "strings": 7817, "groundwater": 22761, "##rdy": 17460, "[unused618]": 623, "thursday": 9432, "galerie": 17941, "lone": 10459, "antigua": 26023, "hundreds": 5606, "research": 2470, "wilton": 26407, "flores": 17343, "templar": 27850, "reassure": 24647, "\u00ac": 1078, "##sto": 16033, "nephew": 7833, "simon": 4079, "logging": 15899, "##ede": 14728, "aarhus": 29173, "liter": 23675, "##yang": 12198, "revenge": 7195, "willed": 22705, "debris": 11385, "[unused754]": 759, "##\u83ef": 30468, "##rac": 22648, "ya": 8038, "abnormal": 19470, "prepares": 20776, "##ms": 5244, "##\u02bf": 29714, "marsden": 29558, "negative": 4997, "photograph": 9982, "macedonia": 11492, "[unused216]": 221, "500": 3156, "discover": 7523, "bao": 25945, "##imeters": 28136, "egan": 27889, "parade": 7700, "prohibiting": 26325, "coherent": 18920, "##rn": 6826, "back": 2067, "reece": 24227, "written": 2517, "barclay": 23724, "283": 25504, "premium": 12882, "1751": 24440, "recognition": 5038, "##ev": 6777, "##xide": 19491, "mussolini": 22554, "renewal": 14524, "informing": 21672, "thessaloniki": 23162, "explain": 4863, "staple": 18785, "fin": 10346, "destroying": 9846, "patients": 5022, "comedic": 21699, "quit": 8046, "train": 3345, "erase": 22505, "philanthropist": 15246, "talked": 5720, "assisting": 13951, "iced": 28248, "[unused437]": 442, "nationwide": 9053, "penn": 9502, "spaniards": 20999, "archival": 22796, "broadcasters": 18706, "donald": 6221, "##hers": 22328, "##itors": 27287, "drives": 9297, "guinea": 7102, "[unused769]": 774, "eased": 10987, "curious": 8025, "pressure": 3778, "##ddin": 18277, "##ysis": 20960, "arched": 9194, "seismic": 22630, "##\u5fc3": 30375, "sarajevo": 18354, "lodging": 26859, "coarse": 20392, "##pes": 10374, "sunshine": 9609, "waters": 5380, "1996": 2727, "rahman": 14364, "1841": 9840, "attacked": 4457, "28th": 15538, "lev": 23310, "benin": 21164, "essay": 9491, "baking": 21522, "consultancy": 24853, "pamela": 17217, "contexts": 18046, "ally": 9698, "moves": 5829, "##\ufb02": 30511, "##vation": 21596, "156": 16734, "dummy": 24369, "multiple": 3674, "##te": 2618, "droplets": 27126, "consuming": 15077, "serbia": 7238, "1930s": 5687, "##\u10e0": 29987, "dennis": 6877, "theorist": 24241, "appointing": 28050, "launches": 18989, "airship": 27636, "detectors": 25971, "##yna": 18279, "seater": 23392, "confined": 12302, "##ctic": 13306, "evidently": 15329, "watered": 27129, "militant": 16830, "##cular": 15431, "33rd": 20883, "wound": 6357, "[unused335]": 340, "viceroy": 19007, "sorted": 19616, "##\u3001": 30161, "[unused826]": 831, "peng": 26473, "85": 5594, "##olis": 20872, "juliana": 24157, "##ented": 14088, "##ris": 6935, "hiroshima": 20168, "peeling": 28241, "tempered": 22148, "asthma": 26180, "lear": 26511, "dissolve": 21969, "coldly": 24745, "honourable": 17164, "tossing": 15021, "logged": 26618, "shifts": 12363, "supplied": 8127, "##worth": 5172, "shadowed": 25843, "mirrors": 13536, "aunt": 5916, "52nd": 26898, "morally": 28980, "fathers": 11397, "programmer": 20273, "grass": 5568, "siemens": 22108, "\u209c": 1571, "eighty": 12021, "theodor": 21448, "bremen": 16314, "##ez": 9351, "training": 2731, "theater": 4258, "bearings": 21714, "shy": 11004, "##\u6c34": 30419, "printer": 15041, "##ove": 21818, "##\u76f8": 30445, "chronological": 23472, "##ac": 6305, "specialist": 8325, "sudbury": 26487, "dorothea": 24052, "burgundy": 18383, "cautious": 17145, "##xy": 18037, "##vor": 14550, "keepers": 24018, "cosmic": 14448, "heavier": 11907, "##\u0986": 29884, "##utz": 20267, "maximize": 25845, "##cao": 20808, "processor": 13151, "know": 2113, "\u0e15": 1411, "viscount": 12182, "foremost": 16097, "southend": 26104, "\u09a8": 1366, "granddaughter": 12787, "washington": 2899, "##\u0987": 29885, "cincinnati": 7797, "moss": 10636, "250": 5539, "olympian": 25977, "##sic": 19570, "##istles": 28738, "\u02bc": 1146, "beetle": 7813, "rama": 14115, "##osphere": 25444, "grasses": 21620, "bodyguard": 16174, "biology": 7366, "1890s": 13678, "bamboo": 15216, "awkward": 9596, "##kled": 19859, "wet": 4954, "nineteen": 11977, "ale": 15669, "accountant": 17907, "duane": 27319, "jug": 26536, "viaduct": 20596, "percentage": 7017, "lots": 7167, "melissa": 9606, "metallic": 12392, "parted": 10277, "##\u03b2": 29720, "mysterious": 8075, "shirt": 3797, "chassis": 11832, "wildcats": 19495, "stop": 2644, "jerseys": 28772, "modify": 19933, "synthesized": 23572, "measures": 5761, "mortally": 26495, "place": 2173, "271": 25103, "##ime": 14428, "padded": 20633, "[unused467]": 472, "optimization": 20600, "la": 2474, "rivalry": 10685, "##inating": 19185, "tumble": 28388, "armagh": 24678, "everyday": 10126, "prosperous": 18241, "jc": 29175, "69": 6353, "##alic": 27072, "interesting": 5875, "versus": 6431, "townsend": 16139, "quality": 3737, "snorted": 15235, "soluble": 24345, "suggested": 4081, "##\u05d7": 29794, "##\u6728": 30401, "welfare": 7574, "##aker": 22626, "vp": 21210, "paralympics": 15600, "remix": 6136, "##ho": 6806, "europa": 12124, "1951": 4131, "illustrations": 11249, "ter": 28774, "banks": 5085, "flickered": 15999, "obscure": 14485, "chuckled": 10252, "fuck": 6616, "down": 2091, "throat": 3759, "employees": 5126, "##act": 18908, "je": 15333, "##esian": 25253, "##erving": 25164, "minorities": 14302, "she": 2016, "faults": 19399, "venus": 11691, "proto": 15053, "cmll": 25395, "jerk": 12181, "lamp": 10437, "west": 2225, "sealed": 10203, "hymn": 14825, "derives": 12153, "hey": 4931, "beating": 6012, "sant": 15548, "learns": 10229, "reggie": 17963, "manifest": 19676, "compose": 17202, "##tated": 16238, "[unused701]": 706, "cnn": 13229, "grave": 6542, "maj": 16686, "master": 3040, "ur": 24471, "stroking": 14943, "opined": 26084, "##\u05db": 29798, "\u5dff": 1837, "shielding": 25553, "print": 6140, "understanding": 4824, "celtics": 23279, "friendship": 6860, "heroine": 18869, "recognizing": 14622, "varies": 9783, "nominally": 24207, "runs": 3216, "[unused538]": 543, "steep": 9561, "legions": 23269, "enlightenment": 16724, "telecom": 18126, "39": 4464, "##fl": 10258, "taxpayer": 26980, "commissions": 13239, "[unused474]": 479, "##bri": 23736, "embarked": 11299, "##nee": 24045, "aisles": 25442, "planes": 9738, "bitten": 19026, "ipa": 24531, "mountains": 4020, "##\u2010": 30048, "such": 2107, "neon": 16231, "\u3044": 1647, "nixon": 11296, "instructional": 23219, "\u300f": 1644, "irritation": 17373, "rods": 19485, "[unused645]": 650, "darrell": 23158, "hara": 18820, "##ugh": 8953, "tristan": 9822, "45th": 24634, "\u91cc": 1962, "neolithic": 19061, "percival": 27832, "reasons": 4436, "tokugawa": 22065, "##yam": 14852, "sense": 3168, "b1": 29491, "welding": 23604, "newfound": 27608, "people": 2111, "lakes": 6597, "madly": 29179, "visible": 5710, "swelling": 18348, "rosa": 9508, "southernmost": 21787, "##fine": 23460, "extremely": 5186, "risked": 22374, "extent": 6698, "absorbing": 20998, "fitted": 7130, "conflict": 4736, "##29": 24594, "##litz": 24725, "for": 2005, "texans": 23246, "convertible": 22840, "##ven": 8159, "sparta": 21251, "##ffle": 18142, "reveals": 7657, "swell": 18370, "machinery": 10394, "meet": 3113, "score": 3556, "semester": 13609, "##building": 25820, "arboretum": 25197, "francais": 22357, "curate": 27530, "delhi": 6768, "##las": 8523, "appreciate": 9120, "##gned": 19225, "roger": 5074, "##01": 24096, "[unused203]": 208, "conflicts": 9755, "##heim": 8049, "untitled": 24819, "reiterated": 28960, "talking": 3331, "first": 2034, "recorded": 2680, "aleksandr": 24020, "boone": 15033, "##19": 16147, "17": 2459, "##ives": 24653, "##kee": 20553, "governed": 9950, "fish": 3869, "[unused32]": 33, "retained": 6025, "##ngen": 25997, "##alia": 22786, "pasha": 14292, "13": 2410, "homo": 24004, "chases": 29515, "##dav": 29045, "stampede": 29375, "lincolnshire": 16628, "##dini": 26039, "pursuits": 23719, "##writing": 18560, "1923": 4927, "gulf": 6084, "graveyard": 16685, "##\u06a9": 29841, "##kic": 29493, "cpc": 28569, "triangular": 14023, "posts": 8466, "sank": 7569, "##torium": 24390, "rating": 5790, "iq": 26264, "architect": 4944, "selector": 27000, "\u30b3": 1704, "fountains": 23497, "\u0dbb": 1405, "glamorgan": 23861, "muller": 12304, "detailed": 6851, "nuevo": 22250, "[unused465]": 470, "##\u4e5f": 30276, "tempest": 22553, "targets": 7889, "##\u30bf": 30235, "synagogue": 13067, "##champ": 25450, "shook": 3184, "ringo": 25589, "cotton": 6557, "[unused986]": 991, "##dre": 16200, "hybrids": 23376, "##nbc": 28957, "today": 2651, "##zy": 9096, "##\u2081": 11871, "ventral": 23420, "##elli": 13348, "jonny": 26937, "inferno": 21848, "hospitalized": 24735, "touring": 6828, "extremes": 28800, "##marks": 27373, "\u4e09": 1741, "tornado": 11352, "campaigning": 18524, "madeline": 16974, "##scia": 27210, "##nology": 21020, "[unused119]": 124, "...": 2133, "brink": 20911, "guns": 4409, "dempsey": 28165, "derby": 7350, "bump": 16906, "aim": 6614, "##dar": 7662, "mammals": 11993, "salvation": 12611, "got": 2288, "disclosed": 21362, "\u0281": 1128, "utterly": 12580, "##ately": 28239, "252": 22898, "unexpected": 9223, "scratched": 15047, "ska": 24053, "slump": 28702, "##rys": 24769, "principality": 18018, "breeds": 15910, "\u529b": 1778, "looks": 3504, "##rret": 27032, "##\u6c35": 30420, "##tures": 22662, "archived": 9749, "stealth": 22150, "##ction": 7542, "mascot": 13314, "waitress": 13877, "astronomer": 15211, "sentencing": 23280, "lodge": 7410, "bare": 6436, "ineffective": 20694, "ascending": 22316, "##iv": 12848, "\u2076": 1540, "thematic": 23539, "positioning": 19120, "sp": 11867, "cancel": 17542, "1725": 25651, "ida": 16096, "##ose": 9232, "choreographer": 17334, "martha": 9246, "tack": 26997, "absorb": 16888, "##\u8279": 30465, "##ardo": 24649, "\u0446": 1201, "staffed": 21121, "measure": 5468, "aperture": 18892, "[unused659]": 664, "##zzling": 20838, "[unused807]": 812, "answers": 6998, "leaning": 6729, "lifespan": 26462, "pops": 16949, "##jong": 21958, "gangs": 18542, "##icles": 20921, "[unused713]": 718, "\u7cf9": 1934, "dismay": 20006, "stigma": 26453, "##ulton": 22145, "##\u4e2d": 30272, "catalyst": 16771, "efforts": 4073, "happen": 4148, "tightly": 7371, "##rber": 20473, "nerves": 10627, "blurted": 18751, "super": 3565, "##\u3048": 30175, "aristocratic": 19774, "ascension": 18071, "yugoslavia": 8936, "spinning": 9419, "honoring": 21494, "twisted": 6389, "brewster": 23009, "regardless": 7539, "gives": 3957, "hug": 8549, "huffington": 26149, "negotiated": 13630, "basel": 14040, "[unused293]": 298, "cameo": 12081, "disgust": 12721, "epithet": 19626, "helene": 20149, "swept": 7260, "ushered": 23815, "hobby": 17792, "##rries": 26801, "zimmerman": 27946, "grocery": 13025, "determining": 12515, "pearce": 19560, "cadets": 15724, "disturb": 22995, "clerks": 26706, "consequence": 9509, "appointment": 6098, "sunday": 4465, "koppen": 20139, "handwriting": 24149, "maintained": 5224, "females": 3801, "ethnic": 5636, "##ium": 5007, "bringing": 5026, "ceilings": 21098, "signing": 6608, "[unused183]": 188, "budapest": 10926, "busiest": 20530, "##\u0648": 29836, "vassal": 24351, "soto": 22768, "##hh": 23644, "almighty": 26668, "dart": 14957, "copyright": 9385, "phones": 11640, "##escence": 28964, "##horn": 9769, "delgado": 26532, "viking": 12886, "olympia": 17096, "workings": 24884, "nostalgia": 26968, "tipping": 25486, "##eve": 18697, "dei": 14866, "islanders": 16422, "traumatic": 19686, "scrutiny": 17423, "enjoys": 15646, "officer": 2961, "baronetcy": 25071, "considers": 10592, "koreans": 24651, "harmless": 19741, "##say": 24322, "dispute": 7593, "masterpiece": 17743, "##ausen": 25701, "phenomena": 13352, "hines": 25445, "dismantled": 17293, "mast": 15429, "peptide": 25117, "hbo": 14633, "elbow": 8999, "nick": 4172, "various": 2536, "jo": 8183, "##\u5b87": 30345, "encompassing": 19129, "corrupted": 27279, "silently": 8601, "scenarios": 16820, "\u4ebb": 1757, "ludwig": 10302, "tavern": 13090, "##orn": 9691, "typical": 5171, "reactors": 22223, "illuminating": 27816, "negligence": 27988, "costumes": 12703, "cunning": 23626, "anya": 21728, "##'": 29618, "[unused414]": 419, "edmonton": 10522, "brendan": 15039, "atm": 27218, "##nta": 12380, "cbe": 15852, "truly": 5621, "ghana": 9701, "##trom": 13887, "\u300e": 1643, "reformation": 13708, "[unused630]": 635, "writing": 3015, "emperor": 3750, "panels": 9320, "noisy": 20810, "becoming": 3352, "##cing": 6129, "voluntary": 10758, "1604": 28754, "bel": 19337, "flushed": 12953, "recapture": 27639, "argyll": 27365, "larry": 6554, "resemble": 13014, "guts": 18453, "charismatic": 23916, "surreal": 16524, "murray": 6264, "draw": 4009, "reorganized": 14137, "harrow": 24560, "lasted": 6354, "##dents": 28986, "skate": 17260, "remind": 10825, "##kovic": 14733, "##ingdon": 29138, "featuring": 3794, "humiliation": 21171, "\u6d77": 1902, "juarez": 25398, "uruguay": 11724, "sven": 21313, "##patient": 24343, "statewide": 13486, "eager": 9461, "tori": 23413, "dump": 15653, "[unused177]": 182, "##\u9999": 30505, "endeavor": 23855, "hiram": 27410, "returning": 4192, "##fc": 11329, "##ame": 14074, "usage": 8192, "karma": 19902, "newcomers": 24159, "adventurous": 29118, "duplicate": 24473, "airport": 3199, "##40": 12740, "lviv": 23814, "chimney": 17321, "ruin": 10083, "[unused890]": 895, "##pore": 26691, "alien": 7344, "##pone": 29513, "tribes": 6946, "5th": 4833, "##zzy": 28753, "\u02b8": 1144, "##plify": 28250, "measured": 7594, "maryland": 5374, "misery": 14624, "leaking": 24325, "yells": 22114, "roxy": 23682, "operations": 3136, "##moor": 17622, "simi": 28684, "core": 4563, "pitcher": 8070, "trenton": 17148, "##\u211d": 30107, "canopy": 14582, "[unused329]": 334, "radio": 2557, "annapolis": 24889, "beauty": 5053, "\u00a35": 27813, "preach": 25250, "[unused359]": 364, "trees": 3628, "##\u30ec": 30260, "polgara": 27041, "contestant": 10832, "tuberculosis": 15877, "dunbar": 23034, "good": 2204, "bullshit": 14636, "blond": 8855, "remy": 22712, "populous": 20151, "passes": 5235, "erected": 7019, "examine": 11628, "sire": 15785, "suspend": 28324, "exhibit": 8327, "zeppelin": 22116, "fore": 18921, "blues": 5132, "customs": 8205, "##oz": 18153, "stance": 11032, "line": 2240, "bollywood": 16046, "autobiographical": 18534, "##ids": 9821, "mississippi": 5900, "passive": 13135, "blood": 2668, "kidd": 25358, "wheelchair": 13204, "finance": 5446, "nickname": 8367, "quarterback": 9074, "coined": 13279, "nasser": 26099, "tuna": 24799, "[unused39]": 40, "awake": 8300, "bernie": 15941, "corresponding": 7978, "payroll": 26854, "house": 2160, "##plicity": 27293, "faulty": 28927, "pandit": 29331, "##rey": 15202, "\u00a8": 1074, "hilarious": 26316, "landmark": 8637, "finch": 16133, "movement": 2929, "prompting": 15870, "##iol": 20282, "attendance": 5270, "friedrich": 8896, "##lt": 7096, "\u0cbe": 1402, "meanings": 15383, "flag": 5210, "ratified": 17673, "deficit": 15074, "1915": 4936, "concession": 16427, "##\u2074": 30073, "specimen": 11375, "betrayal": 14583, "##cens": 19023, "expanded": 4423, "teaching": 4252, "wind": 3612, "##dome": 26173, "commandant": 15254, "mateo": 19327, "weighs": 21094, "graf": 22160, "ronin": 29249, "##lls": 12718, "##erine": 24226, "262": 21950, "##ors": 5668, "handler": 28213, "maha": 24404, "reversal": 23163, "into": 2046, "beverage": 19645, "burr": 22715, "##tangle": 23395, "sutton": 11175, "risky": 19188, "marshall": 5832, "mane": 23055, "brest": 22451, "\u025b": 1115, "greenland": 16128, "testament": 9025, "ssr": 20896, "affiliated": 6989, "aided": 11553, "1948": 3882, "portable": 12109, "vishnu": 17647, "1688": 24082, "black": 2304, "dominates": 29532, "##ce": 3401, "##gman": 25494, "##ites": 7616, "jalan": 28410, "##dina": 18979, "##\u2012": 30050, "professionally": 12145, "elastic": 21274, "##el": 2884, "mx": 25630, "engagements": 20583, "[unused248]": 253, "downhill": 19448, "guarded": 13802, "manitoba": 10512, "cadence": 23620, "finding": 4531, "integer": 16109, "sector": 4753, "thames": 11076, "##ters": 7747, "chartered": 12443, "##hood": 9021, "honor": 3932, "##ection": 18491, "organisations": 8593, "lea": 12203, "\u1d63": 1508, "saturn": 14784, "distracting": 25012, "##wley": 20609, "[unused44]": 45, "reserves": 8269, "1650": 21875, "afar": 28978, "lunar": 11926, "moaning": 22653, "pretended": 14688, "purchased": 4156, "turbulence": 29083, "grayson": 17556, "perpetual": 18870, "allocation": 16169, "speaking": 4092, "fractures": 28929, "peters": 12420, "[unused298]": 303, "##bush": 22427, "sylvester": 20016, "imply": 19515, "burst": 6532, "boeing": 10321, "worried": 5191, "specializes": 16997, "##\u093f": 29877, "##hony": 27629, "mae": 11530, "##hma": 22444, "concentrated": 8279, "intrigued": 18896, "lock": 5843, "ra": 10958, "lawsuits": 20543, "data": 2951, "partridge": 26079, "sand": 5472, "footprints": 24629, "lobby": 9568, "660": 20982, "\u9547": 1966, "[unused558]": 563, "\u208a": 1557, "wedding": 5030, "laser": 9138, "selected": 3479, "arrest": 6545, "yorkshire": 7018, "contribute": 9002, "##nka": 25804, "\u00a3100": 27708, "[unused371]": 376, "distress": 12893, "resorts": 16511, "##type": 13874, "streaked": 21276, "poisonous": 22641, "[unused426]": 431, "pei": 26850, "diverted": 18356, "juniper": 29425, "[unused605]": 610, "summary": 12654, "puebla": 27452, "##vent": 15338, "\u4e16": 1745, "breathing": 5505, "brace": 17180, "visibly": 19397, "50th": 12951, "frenchman": 26529, "midway": 12213, "dialed": 21300, "attacking": 7866, "sahib": 23513, "villages": 4731, "microscope": 24635, "pulpit": 23134, "voss": 24878, "swapped": 29176, "##una": 9521, "bacteria": 10327, "risking": 26875, "##station": 20100, "playstation": 9160, "##il": 4014, "cracked": 9630, "start": 2707, "##isto": 20483, "seneca": 21224, "satellite": 5871, "aid": 4681, "\u0153": 1107, "##7th": 27506, "##nac": 18357, "monica": 9018, "spurs": 18205, "uno": 27776, "sargent": 27599, "disagreements": 23145, "ottomans": 17774, "tailed": 14578, "engulfed": 24692, "1611": 28769, "decca": 21079, "mc": 11338, "##aga": 16098, "inform": 12367, "##scribe": 29234, "[unused759]": 764, "defiance": 19674, "air": 2250, "fetch": 18584, "libretto": 17621, "aspen": 18567, "kate": 5736, "rotation": 9963, "repetition": 23318, "brigades": 14589, "\u0459": 1215, "[unused782]": 787, "kernel": 16293, "ravaged": 25537, "1620": 24259, "##ilation": 29545, "damaged": 5591, "mediation": 26435, "list": 2862, "unison": 18732, "michaels": 17784, "##wives": 23744, "becomes": 4150, "##\u1d58": 30042, "conservation": 5680, "##ouk": 27967, "##ible": 7028, "820": 26667, "bomb": 5968, "grows": 7502, "sellers": 19041, "mcc": 23680, "##oles": 29111, "##reus": 23446, "[unused796]": 801, "politician": 3761, "warn": 11582, "##bol": 14956, "kapoor": 17129, "electromagnetic": 17225, "desmond": 16192, "commissioning": 21612, "glossy": 19504, "1891": 6607, "treats": 18452, "galen": 21062, "##\u30ad": 30227, "##uke": 15851, "##centric": 22461, "utopia": 26425, "valerie": 14264, "carolina": 3792, "##vah": 21927, "##ttal": 28200, "[unused765]": 770, "##ume": 17897, "concurrently": 15442, "humiliated": 26608, "musicals": 20103, "immigrated": 17352, "slapped": 11159, "1618": 29029, "riley": 7546, "nagar": 16395, "originating": 14802, "lumber": 13891, "jewels": 15565, "hurdles": 18608, "2018": 2760, "frustration": 9135, "residency": 14079, "ordnance": 14445, "places": 3182, "overhaul": 18181, "##selle": 19358, "lineman": 24062, "kassel": 27884, "94": 6365, "morgan": 5253, "madeira": 27309, "quoting": 27394, "security": 3036, "clouded": 26761, "##gio": 11411, "tackle": 11147, "mca": 22432, "stabilized": 27697, "plata": 19534, "loses": 12386, "##mar": 7849, "##tian": 10772, "##powering": 23948, "lady": 3203, "games": 2399, "sorting": 22210, "##sau": 23823, "##\u00f0": 29668, "##while": 19927, "\u967d": 1973, "etched": 20286, "brandy": 17951, "demos": 18267, "\u30c6": 1713, "silesia": 21872, "cursing": 19752, "casino": 9270, "pennsylvania": 3552, "because": 2138, "\u0e27": 1419, "assistance": 5375, "shocked": 7135, "byte": 24880, "accuse": 26960, "charting": 17918, "quake": 27785, "semi": 4100, "m3": 29061, "vaults": 28658, "traced": 9551, "shake": 6073, "##gos": 12333, "parts": 3033, "woman": 2450, "fatalities": 20871, "documentary": 4516, "isil": 19600, "unchanged": 15704, "[unused870]": 875, "##aca": 19629, "\u02bb": 1145, "repeatedly": 8385, "218": 20741, "360": 9475, "##anial": 27532, "luck": 6735, "##evsky": 27015, "##arian": 12199, "thinkers": 24762, "devastation": 25594, "underwood": 22751, "alvin": 17348, "[unused934]": 939, "identity": 4767, "##age": 4270, "slice": 14704, "ordered": 3641, "doubtful": 21888, "culinary": 20560, "ang": 17076, "beckett": 20599, "gymnast": 25055, "warlord": 16579, "fraudulent": 27105, "joao": 16304, "repertoire": 13646, "flu": 19857, "##lices": 29146, "porsche": 16099, "fellows": 13572, "hendrix": 20645, "hague": 14575, "inched": 25330, "encoded": 12359, "davy": 23255, "historian": 5272, "surgeon": 9431, "fundraising": 15524, "patrol": 6477, "##\u3081": 30206, "domenico": 18638, "raymond": 7638, "predatory": 21659, "frogs": 17582, "meditation": 13804, "tt": 23746, "sami": 17015, "grunt": 20696, "##\u592b": 30339, "paper": 3259, "##qui": 15549, "touching": 7244, "seek": 6148, "bono": 23648, "grazing": 15400, "idaho": 9795, "[unused35]": 36, "internationally": 7587, "##zak": 20685, "sutra": 26567, "##uid": 21272, "landscape": 5957, "horsemen": 25431, "romanized": 7651, "bon": 14753, "oral": 8700, "interim": 9455, "cheating": 16789, "refinery": 21034, "##cote": 19800, "vengeance": 14096, "shine": 12342, "greta": 26111, "##gard": 13444, "shaw": 8233, "stared": 3592, "##gly": 25643, "dreams": 5544, "pot": 8962, "ke": 17710, "mission": 3260, "lenses": 15072, "\u00bc": 1091, "##phobic": 20200, "scattering": 17501, "note": 3602, "successors": 18530, "increase": 3623, "shocks": 28215, "##nya": 17238, "decree": 10037, "nee": 7663, "historically": 7145, "energetic": 18114, "america": 2637, "jeans": 6312, "valet": 27238, "ferocious": 27863, "pioneers": 13200, "##lb": 20850, "tugged": 10621, "sorbonne": 28452, "homecoming": 20772, "northampton": 15944, "clary": 13145, "technician": 16661, "happiness": 8404, "##ori": 10050, "##mma": 14760, "\u771f": 1921, "subway": 10798, "##para": 28689, "##tter": 12079, "implying": 20242, "settled": 3876, "suggestion": 10293, "\u58eb": 1807, "##poulos": 24662, "consultative": 28581, "snuck": 24492, "wyoming": 10622, "playable": 16854, "##ael": 21147, "kicker": 22652, "astonishment": 23819, "accept": 5138, "4": 1018, "no": 2053, "jars": 25067, "pilasters": 26752, "1890": 6193, "present": 2556, "referendum": 9782, "fundamentally": 24670, "trois": 25527, "choreographed": 23317, "inquiries": 27050, "stumbling": 19730, "prostitute": 19215, "loose": 6065, "##hit": 16584, "clusters": 12906, "##inge": 23496, "andersson": 28643, "caroline": 7981, "reflecting": 10842, "[unused493]": 498, "##cology": 19824, "lafayette": 14425, "##lto": 23223, "students": 2493, "basilica": 13546, "puck": 22900, "flame": 8457, "iran": 4238, "15": 2321, "nellie": 25365, "retrieved": 5140, "apr": 19804, "routing": 16972, "saratoga": 23136, "1709": 28955, "adele": 17623, "\u0440": 1195, "craving": 26369, "flynn": 13259, "violins": 25877, "dish": 9841, "logo": 8154, "##wicz": 21355, "abs": 14689, "finely": 22126, "\u5cf6": 1833, "##\u5bfa": 30353, "##ness": 2791, "duets": 29410, "vincenzo": 24712, "pilots": 8221, "fearing": 14892, "accurately": 14125, "seems": 3849, "och": 28166, "1716": 28204, "##\u06c1": 29845, "##romatic": 23645, "showcased": 22443, "[unused597]": 602, "recommended": 6749, "loomed": 24358, "induced": 10572, "alexei": 21219, "##\u3053": 30181, "david": 2585, "##acion": 21736, "breakdown": 12554, "brownish": 19437, "##heimer": 18826, "latin": 3763, "designed": 2881, "nichols": 15746, "\u04cf": 1218, "freshman": 10452, "##60": 16086, "journey": 4990, "1690": 24765, "nigerian": 11884, "##mate": 8585, "beer": 5404, "\u30e3": 1728, "etat": 17997, "11th": 6252, "reds": 12281, "conferred": 15186, "##lam": 10278, "viable": 14874, "nitrate": 29607, "check": 4638, "pulsing": 23139, "propellers": 23405, "##\u1d65": 30045, "cumberland": 12310, "humanist": 24464, "ph": 6887, "mused": 22335, "buzzed": 21377, "coma": 16571, "##bury": 4917, "outline": 12685, "soap": 7815, "armored": 10612, "[unused291]": 296, "ruben": 19469, "##gai": 23805, "##yana": 16811, "quicker": 19059, "\u0e23": 1417, "##\u092a": 29864, "copied": 15826, "nape": 23634, "listed": 3205, "##\u5c71": 30357, "thousands": 5190, "elder": 6422, "overs": 15849, "##pad": 15455, "golf": 5439, "[unused818]": 823, "##iu": 17922, "participate": 5589, "foley": 17106, "disasters": 18665, "banded": 25264, "##\u03b9\u03b1": 27432, "intently": 16170, "maternity": 23676, "##hari": 18428, "mistress": 10414, "obeyed": 22665, "##eti": 20624, "##jin": 14642, "skater": 18815, "##\u306a": 30193, "fuselage": 13478, "hall": 2534, "##\u05de": 29801, "premiership": 11264, "cottages": 18918, "gamer": 27911, "hesse": 16399, "unwilling": 15175, "[unused176]": 181, "remote": 6556, "destinations": 14345, "oppression": 20489, "tallest": 13747, "##orf": 16347, "troupe": 16017, "jacobite": 28725, "bologna": 14102, "benefactor": 27398, "##\u0e27": 29955, "##zing": 6774, "clifford": 13894, "##wa": 4213, "confronted": 12892, "bridges": 7346, "process": 2832, "14th": 6400, "##bane": 27543, "porn": 22555, "generalized": 18960, "asset": 11412, "##\u21c4": 30117, "reading": 3752, "\u2098": 1567, "albums": 4042, "##lessly": 10895, "uniformly": 27423, "kills": 8563, "royce": 14789, "640": 19714, "realities": 22213, "44th": 26409, "defective": 28829, "basins": 22739, "argues": 9251, "##tiv": 29068, "gaga": 23332, "##sbury": 18065, "stair": 23788, "committee": 2837, "wrinkled": 15968, "##tti": 6916, "encourage": 8627, "seam": 25180, "prussian": 10734, "streamlined": 29445, "traitor": 17328, "shells": 10986, "milne": 24377, "functioned": 20903, "\u30e5": 1729, "plunged": 16687, "spheres": 19885, "volcanic": 10942, "strength": 3997, "##\u00ac": 29655, "think": 2228, "render": 17552, "morse": 17107, "cast": 3459, "##pod": 27633, "clung": 14752, "swallows": 26436, "angus": 13682, "danced": 10948, "840": 28122, "##orus": 21694, "scholar": 6288, "rockies": 22366, "ultrasound": 27312, "cycle": 5402, "##arians": 28369, "indirect": 14958, "taste": 5510, "bolivar": 22118, "defamation": 27652, "favour": 7927, "tariffs": 26269, "courier": 18092, "clarke": 8359, "prosecuted": 21651, "}": 1065, "##ife": 29323, "nine": 3157, "reject": 15454, "##igo": 14031, "mandy": 18193, "publishers": 8544, "##enberg": 11029, "verses": 11086, "commercially": 11088, "bows": 21207, "brute": 26128, "gideon": 12137, "mlb": 10901, "gables": 27008, "ethics": 9615, "##cent": 13013, "##finger": 20349, "task": 4708, "[unused841]": 846, "florence": 7701, "sink": 7752, "ipod": 26322, "##anger": 25121, "##smo": 25855, "##ary": 5649, "template": 23561, "jordanian": 26276, "photographed": 16164, "hand": 2192, "qualified": 4591, "##ston": 7106, "aground": 29406, "##born": 10280, "jesuits": 20297, "##\u0282": 29695, "stalks": 29594, "##\u043a\u0430": 28598, "utc": 11396, "##zong": 13150, "[unused677]": 682, "vacancy": 15619, "##ere": 7869, "impatience": 28011, "here": 2182, "brush": 8248, "noah": 7240, "sheikh": 12840, "penny": 10647, "321": 24030, "68": 6273, "exaggerated": 16903, "scanning": 13722, "characterised": 17253, "rhode": 9763, "bothering": 17067, "rasped": 28459, "crimean": 20516, "##just": 29427, "invoked": 24959, "spectator": 21027, "substrates": 23725, "jack": 2990, "##wind": 11101, "tightened": 8371, "\u5143": 1769, "thrill": 16959, "loves": 7459, "subdistrict": 24150, "edge": 3341, "vienna": 6004, "rope": 8164, "herb": 12810, "recruit": 13024, "rouen": 27030, "##\u1d52": 30039, "angle": 6466, "notion": 9366, "[unused525]": 530, "communicate": 10639, "hates": 16424, "km": 2463, "rothschild": 19712, "rpg": 22531, "proven": 10003, "windmill": 25367, "reelected": 20847, "\u8279": 1939, "henrietta": 20775, "blanca": 27538, "floats": 24885, "brick": 5318, "102": 9402, "##achal": 24409, "restructuring": 18322, "distressed": 24305, "midfielder": 8850, "is": 2003, "mickey": 11021, "##om": 5358, "##rist": 15061, "\u0454": 1212, "##nem": 25832, "##tford": 26341, "##hmi": 26837, "oak": 6116, "reminding": 15906, "expense": 10961, "helps": 7126, "posing": 20540, "1762": 20827, "143": 16065, "sophomore": 13758, "vice": 3580, "filling": 8110, "narrow": 4867, "##sar": 10286, "poet": 4802, "##aran": 20486, "[unused254]": 259, "mohawk": 22338, "\u0289": 1131, "stockings": 26412, "mounting": 15986, "osborne": 16732, "rookie": 8305, "passport": 12293, "ecstasy": 19069, "##rsten": 19020, "gestured": 11574, "earliest": 5700, "missy": 25019, "molten": 23548, "[unused480]": 485, "chat": 11834, "##minate": 19269, "turf": 14585, "322": 23768, "polymer": 17782, "ina": 27118, "flight": 3462, "##psy": 18075, "##\u2014": 30052, "nato": 10079, "\u2212": 1597, "##zow": 22670, "health": 2740, "journalism": 8083, "was": 2001, "tis": 22320, "dental": 11394, "passage": 6019, "miriam": 16925, "bites": 15424, "chess": 7433, "placement": 11073, "##ted": 3064, "economically": 15318, "consul": 11801, "##aring": 22397, "##\u6211": 30381, "recruitment": 15680, "smallpox": 25765, "109": 11518, "##vision": 17084, "[unused407]": 412, "flushing": 23519, "##hala": 19531, "\u5e78": 1841, "kisses": 8537, "query": 23032, "organizers": 18829, "remembrance": 19451, "##ws": 9333, "truncated": 25449, "matter": 3043, "prevention": 9740, "1814": 10977, "spiders": 14160, "\u09b7": 1375, "##hin": 10606, "wesleyan": 19858, "biographies": 22056, "##tance": 26897, "##8th": 28264, "canoe": 14347, "cremated": 28376, "##bank": 9299, "transcribed": 26223, "metaphor": 19240, "##ments": 8163, "\ufb02": 1985, "incorporating": 13543, "##jer": 20009, "##\u201e": 30060, "helium": 22764, "\u0f62": 1434, "brightness": 18295, "\u694a": 1883, "weaker": 15863, "asks": 5176, "maestro": 25270, "establishing": 7411, "##\u6c38": 30422, "nominate": 23388, "occasions": 6642, "employer": 11194, "stiff": 10551, "##cript": 23235, "precinct": 18761, "richer": 26108, "##ishment": 21808, "furlongs": 26602, "[unused7]": 8, "merger": 7660, "inaccurate": 24949, "##hae": 25293, "\u00d7": 1095, "paolo": 14174, "expedition": 5590, "premises": 10345, "fuels": 20145, "senses": 9456, "tie": 5495, "b": 1038, "inaugurated": 11070, "milwaukee": 9184, "##yat": 26139, "series": 2186, "[unused688]": 693, "abstracts": 29474, "headed": 3753, "neighborhood": 5101, "##\u4f0a": 30288, "1560": 29185, "guilt": 8056, "eagle": 6755, "pyrenees": 22696, "password": 20786, "[unused894]": 899, "prey": 8336, "chamber": 4574, "90s": 17233, "farrell": 16248, "##ssa": 11488, "stool": 14708, "savannah": 10891, "exclusively": 7580, "dwarves": 29281, "pumping": 14107, "reinforcement": 23895, "elevations": 18166, "760": 24643, "upstream": 13909, "computation": 22334, "pac": 14397, "messed": 18358, "vip": 21722, "viral": 13434, "titular": 12960, "tudor": 15588, "wiener": 25072, "examination": 7749, "des": 4078, "##bey": 19182, "british": 2329, "##dra": 7265, "bugs": 12883, "##ist": 2923, "1887": 6837, "gaze": 3657, "westward": 15165, "perspective": 7339, "diagram": 16403, "alec": 9752, "remark": 17674, "distant": 6802, "dinosaurs": 18148, "cp": 18133, "bed": 2793, "glendale": 27649, "\u98df": 1978, "##\u092e": 29867, "##\u03c7": 29737, "##folding": 21508, "admiral": 5902, "justify": 16114, "chiefly": 15897, "driveway": 11202, "attitude": 7729, "tens": 15295, "philippe": 11169, "acid": 5648, "##stor": 23809, "butt": 10007, "phelps": 20475, "feldman": 26908, "jian": 29214, "poole": 19107, "web": 4773, "##iaceae": 23357, "##oom": 17650, "[unused347]": 352, "hungary": 5872, "saints": 6586, "neutron": 20393, "spain": 3577, "novi": 21574, "esteem": 19593, "downing": 22501, "stadiums": 28244, "brass": 8782, "motel": 14901, "covering": 5266, "compact": 9233, "##hian": 14204, "\u30cf": 1718, "screaming": 7491, "sinai": 20837, "dependency": 24394, "lucas": 6326, "[unused552]": 557, "reacted": 14831, "realise": 19148, "jiangsu": 28091, "podcast": 16110, "countryside": 10833, "bombardier": 29143, "carleton": 22273, "asylum": 11386, "equestrian": 19191, "gunn": 22079, "aback": 26575, "##bry": 25731, "##lova": 24221, "sri": 5185, "reich": 14365, "president": 2343, "prison": 3827, "topological": 24309, "##\u0444": 29749, "53": 5187, "vibe": 21209, "squadrons": 11435, "[unused479]": 484, "mgm": 15418, "cousin": 5542, "hawthorn": 21671, "fauna": 15018, "trembling": 10226, "##gible": 18507, "##quent": 15417, "unexpectedly": 14153, "amount": 3815, "bautista": 27845, "nouveau": 25272, "bismarck": 22029, "##zcz": 29419, "encourages": 16171, "\u516c": 1772, "403": 28203, "layne": 22452, "kelly": 5163, "samurai": 16352, "ns": 24978, "konstantin": 23989, "nme": 23770, "defend": 6985, "tri": 13012, "don": 2123, "angelina": 23847, "1879": 7449, "##red": 5596, "##\u0917": 29853, "##cor": 27108, "jailed": 21278, "##\u00a1": 29644, "confirming": 19195, "racing": 3868, "liberties": 18271, "dunlop": 27458, "particular": 3327, "##\u09b7": 29911, "accreditation": 14893, "wave": 4400, "##kir": 23630, "cavendish": 23570, "raju": 25098, "apes": 27754, "evolution": 6622, "swords": 10689, "terrorism": 10130, "constantine": 12790, "recommends": 26021, "heinz": 17655, "confessions": 21444, "##bow": 18912, "mechanic": 15893, "hadley": 21681, "perceptions": 23271, "reflective": 21346, "pray": 11839, "sophisticated": 12138, "flatly": 24295, "[unused352]": 357, "\u045a": 1216, "dyke": 22212, "##polis": 17699, "##lch": 29358, "##games": 26393, "introduce": 8970, "serb": 20180, "ugly": 9200, "##v": 2615, "constraint": 27142, "gothenburg": 22836, "newborn": 20662, "mates": 14711, "##ten": 6528, "brittany": 12686, "shares": 6661, "step": 3357, "ecole": 12431, "##ony": 16585, "hello": 7592, "stripe": 18247, "infiltrate": 29543, "##lines": 12735, "##havan": 24652, "nacional": 10718, "grammatical": 24402, "##ulla": 22187, "soothe": 28384, "kg": 4705, "footballers": 27784, "joshi": 26645, "80s": 16002, "yoko": 28758, "ella": 11713, "1740": 21757, "marseille": 16766, "yourself": 4426, "warmed": 17336, "sims": 18135, "smiles": 8451, "cheese": 8808, "in": 1999, "specialists": 15744, "quentin": 15969, "##\u961d": 30496, "com": 4012, "commit": 10797, "arid": 17511, "##ears": 26492, "##personal": 28823, "\u6708": 1872, "ornate": 18099, "pads": 19586, "##nik": 8238, "easter": 10957, "##ries": 5134, "##hid": 27511, "crossover": 16335, "streamed": 18498, "[unused200]": 205, "withdrawing": 21779, "##jit": 18902, "loading": 10578, "formats": 11630, "grover": 25242, "carroll": 10767, "devon": 7614, "workout": 27090, "theatre": 3004, "localities": 19664, "##gee": 18372, "providers": 11670, "istanbul": 9960, "cass": 16220, "disbelief": 12537, "rotherham": 27456, "uh": 7910, "apology": 12480, "selecting": 17739, "##ost": 14122, "##\u03b7": 24824, "patriotic": 14314, "patrolling": 24248, "supplemental": 27024, "clyde": 12085, "1873": 7612, "diagnostic": 16474, "barry": 6287, "115": 10630, "victorious": 13846, "boom": 8797, "##mond": 11442, "whitaker": 27049, "tierney": 26198, "exhibiting": 22922, "dangerously": 20754, "peas": 26072, "bastion": 26829, "upgrading": 25925, "dodged": 28339, "##\u304a": 30176, "karin": 24537, "commonplace": 27550, "robin": 5863, "serie": 8668, "##roup": 22107, "midi": 22265, "futuristic": 28971, "355": 26271, "##reate": 29313, "replacing": 6419, "sodium": 13365, "passageway": 27336, "mn": 24098, "terminate": 20320, "orderly": 23589, "##ingly": 15787, "tibetan": 11953, "beasts": 15109, "initiated": 7531, "reserved": 9235, "regimes": 25228, "drag": 8011, "exclude": 23329, "118": 12963, "competing": 6637, "pat": 6986, "substantially": 12381, "exceed": 13467, "robbins": 18091, "chords": 18495, "##ska": 8337, "culture": 3226, "##logy": 6483, "galloway": 22372, "manipulate": 17708, "diversion": 20150, "hint": 9374, "upon": 2588, "orthogonal": 28721, "[unused625]": 630, "\u30b7": 1706, "collision": 12365, "came": 2234, "elliot": 11759, "stuttgart": 13022, "plagued": 17808, "daly": 18509, "\u043e": 1193, "1986": 3069, "selling": 4855, "##pe": 5051, "\u30e1": 1726, "hotspur": 25985, "reed": 7305, "elisa": 29490, "volume": 3872, "banquet": 19032, "milestone": 19199, "behavioral": 14260, "distributors": 22495, "zipper": 22082, "legion": 8009, "tick": 16356, "richardson": 9482, "cbs": 6568, "meals": 12278, "michigan": 4174, "bn": 24869, "209": 19348, "\u2020": 1526, "researcher": 10753, "##ilis": 24411, "##osity": 25949, "clicks": 29225, "##rant": 17884, "##che": 5403, "strolled": 20354, "resolve": 10663, "cells": 4442, "serves": 4240, "knees": 5042, "##sche": 22842, "##tler": 25091, "sensitivity": 14639, "magician": 16669, "cough": 19340, "1822": 12307, "hounds": 27772, "sk": 15315, "facades": 28708, "gong": 17242, "##\u300b": 30166, "##oulos": 28262, "minimum": 6263, "archduke": 27463, "manual": 6410, "\u82f1": 1941, "customer": 8013, "content": 4180, "journeys": 19147, "nationals": 10342, "##row": 10524, "##\u8a9e": 30476, "oxygen": 7722, "repository": 22409, "blurred": 18449, "privatization": 23966, "snort": 26759, "arabian": 13771, "\u3088": 1684, "fallout": 23902, "bobo": 27418, "dahl": 27934, "strands": 14119, "identifies": 14847, "purity": 18433, "creates": 9005, "acquired": 3734, "racial": 5762, "carly": 18431, "pediatric": 23614, "[unused481]": 486, "grandmaster": 27101, "royals": 15426, "##\u967d": 30499, "agitation": 22356, "teatro": 16038, "subtly": 28797, "\u09bf": 1379, "restaurant": 4825, "understood": 5319, "##\u884c": 30471, "##dating": 16616, "preference": 12157, "witchcraft": 21599, "called": 2170, "litter": 19070, "belts": 18000, "ranch": 8086, "[unused79]": 80, "##nesian": 20281, "joints": 17651, "##ntly": 20630, "numerical": 15973, "murderous": 25303, "immortal": 12147, "##iving": 14966, "\u1103": 1457, "vigorous": 21813, "parentheses": 27393, "illustration": 14614, "##ona": 7856, "infused": 29592, "clutched": 13514, "##ceae": 9071, "##kat": 24498, "flames": 7311, "##kos": 15710, "##ire": 7442, "colts": 14390, "##\u2295": 30139, "arrow": 8612, "musique": 25784, "gardener": 19785, "##aur": 21159, "yoon": 24863, "exiting": 22371, "\u30a4": 1695, "desktop": 15363, "huffed": 25014, "##\u30c1": 30236, "lit": 5507, "gotten": 5407, "amman": 25703, "june": 2238, "##nne": 10087, "zip": 14101, "stafford": 15064, "##gal": 9692, "losers": 23160, "##ikh": 28209, "##uttered": 23128, "artisans": 26818, "mahmoud": 27278, "\u2070": 1536, "presence": 3739, "malcolm": 8861, "##\u05be": 29787, "initiative": 6349, "falcons": 14929, "hubert": 15346, "brushes": 22569, "telangana": 23764, "##kha": 15256, "\u2086": 1553, "bern": 16595, "unearthed": 27422, "australian": 2827, "bce": 10705, "##yle": 12844, "anhalt": 27088, "pointer": 20884, "martinez": 10337, "sweater": 14329, "gown": 11739, "dalton": 12413, "amc": 21962, "architecture": 4294, "engagement": 8147, "serpent": 16517, "transplant": 22291, "\u5c71": 1831, "interviewing": 27805, "clemens": 27277, "##eaux": 25639, "india": 2634, "heavyweight": 8366, "snapped": 5941, "speechless": 25146, "duncan": 7343, "signage": 29404, "headmaster": 16296, "##elis": 29282, "procedural": 24508, "1016": 28707, "longitudinal": 20134, "butler": 7055, "hovered": 18190, "excelled": 23081, "hardened": 15015, "fraction": 12884, "rubber": 8903, "figures": 4481, "majestic": 22337, "instinctively": 16607, "sitcom": 13130, "useful": 6179, "rate": 3446, "directive": 16449, "cambridge": 4729, "baha": 13253, "accountable": 26771, "bart": 12075, "varieties": 9903, "##tsk": 29064, "interception": 17385, "urban": 3923, "##ood": 17139, "[unused300]": 305, "mia": 8764, "##giving": 23795, "##pre": 28139, "fontaine": 25749, "clocks": 20940, "lars": 16357, "everywhere": 7249, "poorer": 27196, "[unused647]": 652, "fighting": 3554, "##zes": 11254, "bond": 5416, "nipple": 14298, "##sfield": 15951, "[unused868]": 873, "focuses": 7679, "1632": 28216, "##iidae": 15648, "wynn": 25328, "automobiles": 19207, "boating": 23639, "##xie": 16898, "darmstadt": 28381, "wrestle": 25579, "syndicate": 16229, "young": 2402, "tissues": 14095, "tnt": 24048, "##tro": 13181, "sprint": 9043, "among": 2426, "chili": 20238, "overseen": 22485, "seals": 13945, "believer": 24591, "professionals": 8390, "##lifting": 26644, "yields": 16189, "264": 21611, "domed": 29208, "curl": 15390, "churchyard": 19812, "##int": 18447, "devoid": 22808, "condo": 25805, "leroy": 19103, "huey": 29503, "astronaut": 19748, "ahl": 18347, "wooden": 4799, "##\u4e00": 30266, "moe": 22078, "##lington": 18722, "[unused22]": 23, "tennessee": 5298, "diplomat": 11125, "[unused743]": 748, "piccolo": 29368, "flying": 3909, "jeffrey": 10799, "responsive": 26651, "##rling": 22036, "flavor": 14894, "identifiable": 27800, "upton": 26900, "f1": 20069, "actor": 3364, "benny": 11945, "tapestry": 25213, "##lard": 20822, "carousel": 27628, "emerald": 14110, "looming": 23430, "eyeing": 19285, "unmarked": 25779, "convenient": 14057, "##oof": 21511, "contain": 5383, "citadel": 15364, "tangle": 24453, "bastard": 8444, "##bbon": 27684, "nikolay": 28494, "##eki": 26576, "variation": 8386, "##hard": 11783, "shielded": 25474, "onslaught": 28644, "niall": 21889, "ideological": 17859, "fictitious": 23577, "underwent": 9601, "portrayed": 6791, "##sies": 14625, "depends": 9041, "behaviors": 15592, "diploma": 9827, "battle": 2645, "disco": 12532, "164": 17943, "bananas": 26191, "differentiated": 24374, "##lies": 11983, "##\u306b": 30194, "[unused629]": 634, "panama": 8515, "stil": 25931, "educated": 5161, "partition": 13571, "chester": 8812, "villain": 12700, "fulfill": 13883, "gustav": 13430, "##ater": 24932, "cove": 11821, "[unused534]": 539, "phenomenon": 9575, "ginger": 14580, "argued": 5275, "welcomed": 10979, "##gence": 17905, "poultry": 22468, "behavior": 5248, "bahadur": 21715, "##ru": 6820, "requiring": 9034, "addressed": 8280, "townspeople": 27938, "lois": 15815, "feels": 5683, "garbage": 13044, "parameter": 16381, "gymnastics": 14002, "growing": 3652, "##nami": 28987, "sierra": 7838, "mansions": 26842, "modifying": 29226, "riots": 12925, "[unused710]": 715, "greed": 22040, "ottawa": 8166, "##\u2099": 19110, "wing": 3358, "penguin": 13987, "[unused33]": 34, "dragons": 8626, "mm": 3461, "predicted": 10173, "argent": 23157, "communities": 4279, "convoys": 23083, "goo": 27571, "gem": 17070, "##gli": 25394, "dilapidated": 29283, "1638": 27497, "[unused247]": 252, "style": 2806, "diameter": 6705, "[unused46]": 47, "nicola": 17388, "ono": 21058, "val": 11748, "westminster": 9434, "##app": 29098, "finishes": 12321, "246": 22376, "##\u0575": 29777, "fingered": 28842, "craig": 7010, "chunks": 24839, "##\u2013": 30051, "undergraduate": 8324, "carefully": 5362, "maya": 9815, "guzman": 22789, "##mler": 18602, "\u2295": 1612, "kick": 5926, "##\u7537": 30438, "[unused404]": 409, "landau": 28570, "jorge": 10853, "hartley": 20955, "discomfort": 17964, "myles": 27056, "##jana": 18803, "##\u5fe0": 30378, "c1": 27723, "hacked": 28719, "sarcastically": 23800, "##iography": 26535, "\u05d9": 1250, "##lian": 15204, "blushed": 19370, "irritated": 15560, "##ytic": 21252, "produces": 7137, "trace": 7637, "\u09b8": 1376, "satire": 18312, "##iche": 17322, "[unused919]": 924, "##\u30ca": 30241, "sikhs": 26697, "##ious": 6313, "champion": 3410, "gemini": 21424, "brood": 25565, "waterford": 17769, "metz": 24424, "##em": 6633, "grille": 26192, "##iki": 17471, "##mind": 23356, "contractors": 16728, "kaplan": 22990, "[unused115]": 120, "zionist": 21379, "prominence": 12144, "\u6210": 1854, "robots": 13507, "specific": 3563, "##\u207f": 30080, "equipment": 3941, "philosophers": 17586, "projective": 27473, "internally": 16058, "reliable": 10539, "izzy": 16699, "brow": 8306, "bombardment": 10400, "supplier": 17024, "plum": 22088, "shape": 4338, "1857": 8204, "\u9752": 1975, "defiant": 27836, "gardening": 21529, "tuesday": 9857, "from": 2013, "encouraging": 11434, "ambassadors": 20986, "thoughtfully": 19897, "##ci": 6895, "styles": 6782, "##itung": 28813, "mention": 5254, "##lle": 6216, "nazareth": 27192, "\u9673": 1972, "mascara": 27700, "fatima": 27596, "excellence": 8012, "siberia": 16881, "functional": 8360, "hesitated": 9369, "shamrock": 28782, "##ld": 6392, "kickoff": 25233, "meta": 18804, "shaped": 5044, "coward": 16592, "pg": 18720, "pistons": 24399, "1922": 4798, "vista": 13005, "understands": 19821, "curse": 8364, "during": 2076, "##phs": 18757, "tanner": 12780, "[unused718]": 723, "##\u5948": 30340, "immensely": 24256, "eleanor": 10508, "[unused877]": 882, "abroad": 6917, "byron": 12234, "##fia": 22749, "abstract": 10061, "[unused692]": 697, "immortals": 26796, "hyper": 23760, "##rocity": 21735, "\u5929": 1811, "ua": 25423, "##ened": 6675, "electoral": 6092, "pow": 23776, "duluth": 28218, "hackett": 28630, "wilkins": 22745, "\u3063": 1663, "##\u02bc": 29712, "chew": 21271, "buddies": 24115, "shuddering": 25735, "##uve": 22909, "auxiliary": 9830, "clarinet": 12089, "draining": 19689, "society": 2554, "stronghold": 16995, "cigarette": 9907, "idea": 2801, "##wice": 23425, "##mer": 5017, "statement": 4861, "motto": 12652, "swallow": 10577, "##52": 25746, "antagonist": 17379, "##\u5fd7": 30377, "handicapped": 26920, "##tem": 18532, "##\u540d": 30321, "enraged": 18835, "match": 2674, "##hli": 27766, "additive": 29167, "##hampton": 21946, "##entation": 19304, "imitation": 20017, "sorcerer": 23324, "##bots": 27014, "24": 2484, "tornadoes": 22668, "transmitted": 11860, "filipino": 10275, "distinctions": 25995, "basic": 3937, "structures": 5090, "\u2078": 1542, "temporal": 15850, "atp": 12649, "nominations": 9930, "submarine": 6982, "##peed": 25599, "napoleonic": 18813, "defeats": 14222, "bela": 20252, "scared": 6015, "waiter": 15610, "implements": 22164, "##ergy": 24395, "monsters": 9219, "namesake": 17283, "consent": 9619, "wien": 22782, "embarrassment": 14325, "##han": 4819, "vince": 12159, "##turn": 22299, "prisoners": 5895, "##rden": 18246, "rejoin": 25261, "footballer": 4362, "nose": 4451, "intention": 6808, "visions": 12018, "##x": 2595, "##pani": 26569, "schoolhouse": 26301, "##rit": 14778, "cinder": 29399, "accomplished": 8885, "casa": 14124, "zoe": 11199, "tito": 20712, "slapping": 22021, "walden": 24834, "hoffmann": 24437, "##\u2660": 30150, "foreigners": 15040, "##\u27e9": 30156, "malawi": 18137, "molina": 25601, "stage": 2754, "shaman": 23610, "hunters": 9624, "##nai": 26416, "vulcan": 25993, "board": 2604, "##garh": 13484, "##ri": 3089, "signature": 8085, "airplanes": 24042, "1749": 24704, "##zano": 24147, "veteran": 8003, "galaxy": 9088, "\u043c": 1191, "monitor": 8080, "tucson": 17478, "melancholy": 22247, "criminal": 4735, "intrinsic": 23807, "133": 14506, "225": 14993, "##vie": 13469, "##grave": 12830, "camden": 13267, "predecessors": 16372, "cr": 13675, "glued": 22805, "wild": 3748, "##iy": 28008, "peasants": 13193, "affects": 13531, "convictions": 20488, "##\u2229": 30131, "comforting": 16334, "commonly": 4141, "oath": 11292, "##lot": 10994, "[unused453]": 458, "dar": 18243, "##erated": 16848, "feed": 5438, "subtle": 11259, "##yla": 23943, "pour": 10364, "cannes": 14775, "jade": 12323, "##\u91d1": 30490, "backwards": 11043, "destroy": 6033, "hammering": 27883, "chapters": 9159, "carolyn": 15611, "nothin": 24218, "springs": 6076, "##ale": 9453, "##\u9547": 30492, "sweeping": 12720, "matthew": 5487, "##eto": 18903, "injustice": 21321, "talbot": 14838, "[unused913]": 918, "\u30a8": 1698, "[unused165]": 170, "\u2084": 1551, "classification": 5579, "deepest": 17578, "jobs": 5841, "stamford": 22469, "decrease": 9885, "##hed": 9072, "league": 2223, "##th": 2705, "lau": 21360, "intensity": 8015, "infringement": 20701, "resultant": 28573, "characterized": 7356, "claim": 4366, "##iness": 9961, "escape": 4019, "[unused295]": 300, "\u0127": 1103, "classed": 27811, "375": 18034, "##rgh": 27172, "handkerchief": 23975, "restricting": 26996, "adversary": 27248, "worker": 7309, "doncaster": 18895, "finite": 10713, "##\u028e": 29701, "son": 2365, "swat": 25414, "consort": 13440, "backdrop": 18876, "priscilla": 25193, "saigon": 24001, "##light": 7138, "hewitt": 19482, "myspace": 24927, "intend": 13566, "##vial": 18660, "kunst": 28145, "##\u092c": 29865, "plaques": 28487, "##placed": 22829, "theories": 8106, "##dan": 7847, "halo": 17201, "650": 13757, "configured": 26928, "##utus": 23998, "authorship": 26324, "311": 23532, "\u30c1": 1710, "##\u2084": 17004, "scales": 9539, "strategy": 5656, "salvatore": 17485, "overland": 21400, "benefits": 6666, "assessments": 20794, "smeared": 25400, "helicopter": 7739, "clasp": 23465, "\u0baa": 1388, "affiliation": 12912, "1853": 8933, "flee": 10574, "garfield": 20170, "ups": 11139, "alike": 11455, "repealed": 21492, "lifts": 13695, "settler": 18556, "blunt": 14969, "their": 2037, "slots": 19832, "fast": 3435, "insult": 15301, "clause": 11075, "mattered": 13836, "malone": 16321, "##wear": 16689, "[unused705]": 710, "vita": 19300, "##\u1d40": 30031, "171": 18225, "encyclopedia": 12204, "mated": 28795, "ama": 25933, "##itative": 29293, "schwarz": 29058, "##\u1d64": 30044, "muslims": 7486, "##owe": 29385, "diving": 9404, "third": 2353, "reluctantly": 11206, "##\u793e": 30450, "##arm": 27292, "hard": 2524, "chemical": 5072, "dover": 13985, "tube": 7270, "##icum": 22167, "adobe": 18106, "northamptonshire": 21367, "tends": 12102, "robyn": 28047, "karl": 6382, "fundraiser": 28536, "1978": 3301, "pagoda": 27387, "\u0905": 1311, "onions": 24444, "usher": 20774, "individuals": 3633, "lucius": 15639, "aggregation": 28041, "kerry": 11260, "hasan": 17000, "bolsheviks": 28755, "pornographic": 26932, "noun": 15156, "##biology": 21685, "1977": 3355, "1870": 6940, "undead": 17315, "wessex": 27886, "films": 3152, "garcia": 7439, "[unused724]": 729, "gmbh": 18289, "dashed": 18198, "moth": 5820, "abolitionist": 29554, "##ogy": 15707, "ceremony": 5103, "##lana": 16695, "##idal": 16975, "1860s": 15914, "shifting": 9564, "reduced": 4359, "slash": 18296, "dangers": 16796, "papacy": 25097, "directors": 5501, "joins": 9794, "praising": 15838, "kwan": 27741, "##din": 8718, "powerplant": 19526, "leyte": 27214, "wiring": 27930, "##phy": 21281, "botany": 17018, "\u3055": 1656, "bald": 13852, "sacrificed": 20268, "steiner": 21264, "sticky": 15875, "##vine": 20534, "##elles": 22869, "unopposed": 17123, "coincidence": 16507, "ivanov": 26333, "routledge": 21180, "multiplied": 28608, "disciple": 17849, "barrister": 19805, "##ida": 8524, "evaluate": 16157, "mccann": 28641, "1761": 21364, "recurring": 10694, "efficient": 8114, "straw": 13137, "congregations": 16850, "thirty": 4228, "firing": 7493, "concentrations": 14061, "##olved": 16116, "reborn": 24910, "flaming": 19091, "##opped": 27288, "stephane": 26624, "constructions": 21913, "ness": 23384, "spectacle": 21177, "\u00e6": 1097, "[unused192]": 197, "20": 2322, "blame": 7499, "scalp": 21065, "##\u535a": 30312, "loft": 19459, "##ob": 16429, "ponytail": 18865, "rogers": 7369, "dictionary": 9206, "symbolic": 12613, "why": 2339, "drummond": 19266, "##cise": 18380, "unsigned": 27121, "numbered": 8597, "encircled": 25759, "[unused210]": 215, "morning": 2851, "nikita": 29106, "fan": 5470, "poetic": 13805, "\ufb01": 1984, "payment": 7909, "grab": 6723, "posthumously": 12770, "portico": 23104, "sardinia": 21594, "forests": 6138, "handling": 8304, "\u0432": 1182, "vocational": 13099, "29th": 16318, "mutant": 15527, "[unused429]": 434, "beat": 3786, "counselor": 17220, "\u0283": 1130, "infamous": 14429, "wrists": 12150, "##3d": 29097, "##writer": 15994, "tehran": 13503, "##eiro": 17166, "stake": 8406, "uganda": 10031, "\u2018": 1520, "##54": 27009, "1959": 3851, "##tres": 19168, "##rga": 28921, "[unused388]": 393, "bury": 11010, "shrieked": 22383, "failures": 15428, "##sant": 22341, "gerald": 9659, "omega": 14827, "[unused871]": 876, "blogs": 23012, "clearly": 4415, "##dicate": 16467, "323": 25392, "##hearted": 27693, "1658": 28944, "124": 13412, "##bahn": 16052, "nominees": 17853, "##ara": 5400, "sip": 10668, "##ound": 28819, "caress": 21753, "talk": 2831, "moran": 17866, "##lord": 19980, "artillery": 4893, "puppets": 26101, "[unused227]": 232, "might": 2453, "##ulo": 18845, "wharf": 16435, "slowed": 9784, "births": 18250, "\u8857": 1946, "##ulus": 11627, "##yre": 16363, "criticised": 10648, "flipping": 18497, "\u5b89": 1820, "awesome": 12476, "baird": 20866, "##gent": 11461, "appalachian": 19682, "##iss": 14643, "mercer": 13081, "unreleased": 13270, "examining": 12843, "recovering": 13400, "shivering": 19197, "beloved": 11419, "silas": 18553, "clues": 15774, "seminary": 8705, "if": 2065, "assimilation": 27574, "realized": 3651, "[unused272]": 277, "##\u044f": 17432, "##lia": 6632, "speculative": 23250, "lava": 13697, "battled": 19787, "participation": 6577, "rounding": 26939, "husbands": 19089, "fabric": 8313, "active": 3161, "rumored": 22710, "water": 2300, "##ail": 12502, "kindly": 19045, "joe": 3533, "preferring": 21393, "##oir": 21165, "\u00aa": 1076, "escorting": 23831, "##wi": 9148, "yeast": 21957, "analyses": 16478, "tensions": 13136, "##rative": 18514, "salman": 28542, "darwin": 11534, "##lor": 10626, "responsibilities": 10198, "vanguard": 18332, "valleys": 12467, "cables": 15196, "pro": 4013, "abnormalities": 28828, "##xi": 9048, "##slin": 22908, "##ception": 24422, "##igen": 29206, "wept": 24966, "memorabilia": 28663, "wasps": 23146, "[unused441]": 446, "each": 2169, "leach": 24520, "loudly": 9928, "declare": 13520, "[unused803]": 808, "harlow": 22545, "memories": 5758, "astoria": 29285, "botanical": 13194, "sumo": 28193, "##rada": 28510, "barbados": 16893, "attends": 23933, "demeanor": 21745, "\u5dde": 1836, "marlborough": 22830, "cretaceous": 18122, "malaysia": 6027, "contest": 5049, "blazers": 28513, "retorted": 24056, "\u00df": 1096, "##gia": 10440, "\u00a32": 21853, "skeleton": 13526, "nickelodeon": 20814, "[unused392]": 397, "sciences": 4163, "locals": 10575, "##ports": 25378, "baked": 17776, "##\u1107": 29996, "subgenus": 25356, "gt": 14181, "yi": 12316, "78": 6275, "1968": 3380, "removed": 3718, "##bled": 23242, "##pm": 9737, "1667": 27643, "##11": 14526, "reason": 3114, "warwickshire": 18430, "rye": 20926, "arranged": 5412, "campus": 3721, "orbital": 13943, "johor": 25268, "##vard": 25911, "##dong": 17679, "weak": 5410, "##kas": 13716, "show": 2265, "diagrams": 26309, "##edly": 26207, "nanjing": 21455, "proportion": 10817, "olive": 9724, "234": 22018, "hasn": 8440, "gallant": 26984, "##uka": 15750, "cc": 10507, "autonomous": 8392, "##kei": 29501, "wrath": 14532, "##pee": 28084, "contamination": 18701, "##uted": 12926, "[unused761]": 766, "##mbled": 23931, "shang": 29382, "couch": 6411, "rhea": 24775, "pear": 28253, "##play": 13068, "307": 24559, "##\u5f35": 30370, "affect": 7461, "oldest": 4587, "sorority": 27600, "plates": 7766, "##raf": 27528, "##\u0274": 29690, "peking": 27057, "\u306c": 1669, "##yer": 10532, "1931": 4739, "clancy": 24530, "creep": 19815, "stacked": 16934, "achieving": 10910, "provider": 10802, "[unused280]": 285, "1732": 27582, "##bation": 23757, "similarly": 6660, "rudder": 24049, "##morphism": 19539, "nawab": 26543, "620": 23612, "popularly": 16071, "broader": 12368, "##mouth": 14359, "greens": 15505, "sweetly": 22557, "##\u7701": 30446, "\u11b7": 1487, "strewn": 25259, "##dgets": 28682, "##fell": 23510, "deprivation": 29516, "pest": 20739, "perfect": 3819, "musa": 23154, "terminating": 23552, "tighten": 21245, "##walk": 17122, "significant": 3278, "disorder": 8761, "1872": 7572, "couple": 3232, "sloppy": 28810, "##hu": 6979, "\u4eac": 1755, "##due": 20041, "synth": 24203, "paler": 24489, "thugs": 24106, "mri": 27011, "creeping": 18266, "unsuccessfully": 11551, "widowed": 22874, "adams": 5922, "sweating": 18972, "boxer": 10423, "232": 20666, "##ctum": 27272, "##wark": 24298, "century": 2301, "##\u0686": 29840, "plaintiffs": 23953, "practicing": 12560, "volcano": 12779, "130": 7558, "chuckle": 15375, "[unused415]": 420, "##bbs": 17226, "broad": 5041, "vanderbilt": 17066, "##\u0e19": 29949, "ventura": 21151, "lad": 14804, "##ks": 5705, "##ha": 3270, "rebuild": 14591, "[unused500]": 505, "medicinal": 20632, "payton": 28666, "wrecked": 18480, "incarcerated": 23995, "delta": 7160, "radha": 26498, "napier": 21320, "infectious": 16514, "1871": 7428, "bangs": 28490, "opportunity": 4495, "street": 2395, "putnam": 20230, "experimenting": 23781, "eurovision": 12714, "ensure": 5676, "drum": 6943, "##rwood": 20941, "polo": 11037, "andhra": 14065, "cheered": 25471, "inside": 2503, "cliff": 7656, "attic": 14832, "##asia": 15396, "\u5730": 1802, "awkwardly": 18822, "okay": 3100, "luca": 15604, "arrives": 8480, "1803": 12651, "stevens": 8799, "promoters": 26512, "wander": 17677, "assessing": 20077, "soprano": 10430, "\u30bb": 1708, "oliver": 6291, "##nie": 8034, "##bbly": 24200, "sax": 19656, "reception": 7684, "stationary": 17337, "wrapped": 5058, "##ige": 25538, "wheeling": 29142, "##lion": 18964, "sally": 8836, "annabelle": 24722, "dispose": 27764, "rebirth": 22785, "beaches": 12212, "exponential": 27258, "dhabi": 23153, "\u1d65": 1510, "canada": 2710, "rna": 12987, "merrill": 16239, "arrests": 17615, "direct": 3622, "##\u22121": 27944, "realistic": 12689, "groin": 20092, "##\u8033": 30463, "##bari": 25990, "gunshot": 22077, "meek": 28997, "laos": 15786, "##*": 29621, "winfield": 24739, "induce": 19653, "embryo": 28086, "pluto": 26930, "210": 12875, "eruption": 17259, "advisor": 8619, "##aux": 13754, "##mc": 12458, "rhapsody": 29395, "un": 4895, "sees": 5927, "werner": 14121, "##gul": 24848, "easy": 3733, "males": 3767, "##rington": 17281, "##neer": 19755, "##tee": 17389, "fremantle": 20358, "fashioned": 13405, "chronicle": 9519, "java": 9262, "hodges": 19772, "208": 18512, "track": 2650, "flashing": 12659, "##lah": 14431, "hobbs": 23748, "theirs": 17156, "##\u30ed": 30261, "mckenzie": 18506, "notice": 5060, "este": 28517, "ufo": 24321, "mysteriously": 29239, "collaborating": 20295, "francoise": 28979, "##berg": 4059, "ousted": 28368, "desire": 4792, "wilkinson": 16237, "deny": 9772, "##mg": 24798, "palais": 22113, "omitted": 16647, "xu": 15990, "##escu": 19434, "confronts": 17628, "fda": 17473, "##kumar": 18494, "miss": 3335, "##aghan": 26685, "lets": 11082, "1866": 7647, "resistance": 5012, "##mbit": 28878, "harold": 7157, "impatient": 17380, "\u02bf": 1148, "##xton": 14226, "eurasian": 23399, "represents": 5836, "executives": 12706, "bets": 29475, "bored": 11471, "propulsion": 16404, "disks": 23999, "##thed": 23816, "balancing": 20120, "walks": 7365, "\u540d": 1795, "realising": 27504, "sleeve": 10353, "margins": 17034, "near": 2379, "##quist": 18331, "resort": 7001, "distance": 3292, "eps": 20383, "dorsey": 27332, "pantry": 27796, "closure": 8503, "baseball": 3598, "##\u6771": 30405, "erect": 14908, "[unused569]": 574, "seconds": 3823, "##cu": 10841, "nancy": 7912, "programming": 4730, "junta": 22450, "##eased": 25063, "primate": 25662, "scramble": 25740, "corrected": 13371, "##kon": 19648, "seekers": 24071, "two": 2048, "whorls": 25637, "1655": 28438, "exams": 13869, "zac": 29250, "mcleod": 25363, "typed": 21189, "[unused405]": 410, "advocated": 11886, "pup": 26781, "commercial": 3293, "grupo": 26678, "##\u0f58": 29968, "hoax": 28520, "hoop": 27669, "bigger": 7046, "circulation": 9141, "administrations": 27722, "bias": 13827, "muddy": 15405, "espana": 20678, "[unused268]": 273, "anomaly": 28685, "smoked": 20482, "narrative": 7984, "1979": 3245, "flung": 14016, "earrings": 27212, "[unused304]": 309, "##\u51fa": 30300, "stormy": 24166, "pointless": 23100, "75th": 25092, "[unused822]": 827, "angered": 18748, "treasure": 8813, "\u0940": 1342, "##rmi": 28550, "brewery": 12161, "lucky": 5341, "electrified": 18042, "##ly": 2135, "participant": 13180, "hanover": 14393, "adrenaline": 14963, "billboard": 4908, "gift": 5592, "du": 4241, "certification": 10618, "inclusive": 18678, "##eous": 14769, "##nous": 18674, "##ition": 22753, "pinned": 11807, "fills": 17469, "trident": 26515, "resisting": 22363, "escaping": 13002, "seasonal": 12348, "##off": 7245, "alternatively": 14084, "stormed": 16201, "grapes": 16575, "errors": 10697, "fragments": 10341, "vin": 19354, "appleton": 26050, "republics": 24822, "##music": 27275, "produced": 2550, "hz": 22100, "##leen": 24129, "bedford": 12003, "fear": 3571, "demonstrate": 10580, "[unused911]": 916, "\u1da0": 1512, "\u0915": 1315, "##aria": 10980, "fight": 2954, "replies": 14054, "55th": 29075, "ratio": 6463, "flashback": 21907, "pronunciation": 15498, "corporations": 11578, "[unused386]": 391, "##33": 22394, "##ept": 23606, "demographics": 28321, "plot": 5436, "successor": 6332, "hillary": 18520, "donnell": 18016, "hip": 5099, "pens": 25636, "##isation": 6648, "##flict": 29301, "dwelling": 13160, "captives": 21496, "resources": 4219, "discovers": 9418, "molecules": 10737, "constituent": 13794, "scripts": 14546, "1664": 28485, "admission": 9634, "closeness": 28398, "##rem": 28578, "hearings": 19153, "allow": 3499, "\u00b0c": 6362, "carlton": 12989, "##\u09ae": 29906, "moved": 2333, "propagation": 20594, "##ree": 9910, "##gne": 10177, "lia": 22393, "##ni": 3490, "##tangled": 27898, "cyrus": 16123, "##k": 2243, "drafted": 7462, "visuals": 26749, "##vable": 12423, "exemption": 19621, "\u00bf": 1094, "counter": 4675, "recognize": 6807, "muscular": 13472, "ivy": 7768, "forster": 21316, "crowded": 10789, "##xley": 20959, "shimmering": 22349, "mail": 5653, "##wed": 15557, "actions": 4506, "them": 2068, "##ndo": 15482, "keller": 16155, "barred": 15605, "ek": 23969, "collaborative": 12317, "##erson": 18617, "earning": 7414, "preached": 21491, "##\u014b": 29673, "protesters": 13337, "arguing": 9177, "##\u1111": 30004, "##oned": 17799, "external": 6327, "https": 16770, "##erie": 17378, "\u0930": 1333, "269": 25717, "kyiv": 25669, "forgive": 9641, "##\u10d0": 29974, "hysteria": 29004, "##65": 26187, "179": 20311, "shrugs": 23822, "averaging": 14985, "continuum": 22961, "seth": 6662, "way": 2126, "##\u0580": 29784, "menon": 25111, "\u0574": 1229, "1630": 24994, "illusions": 24883, "academies": 20994, "##ype": 18863, "dried": 9550, "##tructing": 26310, "acting": 3772, "##tine": 10196, "shorter": 7820, "charlton": 17821, "footprint": 24319, "twilight": 13132, "plead": 25803, "\u2010": 1513, "jaenelle": 20757, "humanoid": 28051, "suppliers": 20141, "sunset": 10434, "##yn": 6038, "##\u0291": 29703, "##cated": 12921, "##train": 23654, "##km": 22287, "inducing": 29290, "##nat": 19833, "##sity": 17759, "assign": 23911, "tires": 13310, "walsall": 29054, "steelers": 15280, "##itaire": 29422, "adolescents": 25947, "segments": 9214, "socialists": 21633, "spin": 6714, "accommodated": 28959, "##ged": 5999, "suggests": 6083, "##cles": 18954, "##storm": 19718, "subdivision": 12572, "consolidation": 17439, "rollins": 23502, "fordham": 27302, "##osa": 8820, "rocco": 28167, "doomed": 20076, "universities": 5534, "hail": 16889, "jain": 17136, "catchment": 22865, "##ntation": 23436, "trevor": 8672, "defected": 26330, "tina": 11958, "34th": 20460, "##ules": 16308, "##ennial": 22929, "mali": 16007, "policeman": 14460, "##yed": 20821, "##col": 25778, "##croft": 14716, "pia": 24624, "snails": 13482, "bobbed": 29579, "##vio": 25500, "##pis": 18136, "transmission": 6726, "##med": 7583, "##ety": 27405, "vh1": 26365, "guess": 3984, "mentor": 10779, "##rrick": 24999, "tolerance": 13986, "outreach": 15641, "\u0e22": 1416, "terrible": 6659, "before": 2077, "fabrication": 25884, "resume": 13746, "horrors": 22812, "##\u0f0b": 29960, "rainbow": 10098, "cambridgeshire": 24197, "235": 17825, "dalai": 28511, "yves": 19687, "settlement": 4093, "[unused379]": 384, "puppy": 17022, "agreement": 3820, "##imeter": 19198, "##nally": 26827, "monk": 8284, "##des": 6155, "tormented": 29026, "glove": 15913, "##\u2021": 30062, "ebert": 22660, "translit": 28468, "plastic": 6081, "second": 2117, "denim": 26762, "tablets": 17596, "certificates": 17987, "corruption": 7897, "spark": 12125, "1958": 3845, "##ne": 2638, "soc": 27084, "maguire": 26196, "bedrock": 28272, "spotted": 7282, "eighteenth": 12965, "avoiding": 9992, "angular": 16108, "guidance": 8606, "##tok": 18715, "armenian": 7508, "dumont": 25830, "reproduced": 22296, "reproduction": 14627, "motorsport": 21044, "celestial": 17617, "widow": 7794, "connection": 4434, "jameson": 22324, "january": 2254, "punching": 19477, "interpreted": 10009, "##arth": 22425, "##rri": 18752, "coral": 11034, "thoroughbred": 18359, "murmur": 20227, "sipping": 24747, "1782": 16890, "disagreed": 18335, "quote": 14686, "geese": 28519, "##ctric": 22601, "##\u7530": 30437, "##cup": 15569, "classifications": 26739, "heads": 4641, "damien": 12587, "##sian": 17043, "void": 11675, "[unused517]": 522, "##nnis": 27803, "407": 28941, "bay": 3016, "damp": 10620, "v6": 25275, "others": 2500, "crossing": 5153, "nuts": 12264, "lacked": 10858, "withstand": 19319, "ecumenical": 23540, "kuala": 15490, "##oslav": 23085, "fastened": 24009, "sufficiently": 12949, "1969": 3440, "congregational": 20809, "mildred": 25452, "##\u0127": 29672, "last": 2197, "quay": 21048, "legends": 9489, "##berry": 9766, "tailored": 21727, "aluminium": 14794, "stacks": 20829, "brahms": 28419, "surveys": 12265, "##pol": 18155, "hd": 10751, "bearded": 23905, "\u10d8": 1445, "##ely": 26006, "301": 19123, "nissan": 16509, "barns": 25684, "boyer": 23456, "##\u0e2a": 29956, "42nd": 21373, "philippine": 7802, "helicopters": 12400, "seat": 2835, "mortgage": 14344, "ceylon": 16447, "electro": 16175, "faltered": 26015, "lancaster": 10237, "pain": 3255, "chicken": 7975, "interventions": 19388, "402": 28048, "objections": 17304, "factions": 13815, "models": 4275, "priests": 8656, "mouths": 15076, "regarded": 5240, "chong": 24008, "\u0bbf": 1396, "##hetic": 20086, "cover": 3104, "attractive": 8702, "complaint": 12087, "hypothesis": 10744, "vol": 5285, "cleavage": 28691, "panted": 28149, "see": 2156, "technically": 10892, "eels": 29317, "##rmed": 29540, "correlation": 16902, "injuring": 22736, "\u00b4": 1084, "attempts": 4740, "principal": 4054, "hidden": 5023, "freestyle": 9817, "inserted": 12889, "##ggs": 21314, "##edance": 29605, "##\u2202": 30120, "setup": 16437, "yard": 4220, "##22": 19317, "expelled": 10016, "monster": 6071, "unbelievable": 23653, "##ure": 5397, "34": 4090, "[unused334]": 339, "decreases": 17913, "christianity": 7988, "teachers": 5089, "testing": 5604, "operatic": 22534, "indicating": 8131, "supporter": 10129, "nell": 20970, "wasted": 13842, "kendrick": 25341, "jacqueline": 17551, "swamps": 22722, "\u5fe0": 1852, "shutting": 17521, "##osaurus": 25767, "##bular": 28808, "##rch": 11140, "shuttle": 10382, "\u20b1": 1575, "lima": 12967, "electronic": 4816, "bladed": 27402, "horseshoe": 23449, "chiefs": 9058, "pursued": 9505, "shortlisted": 21353, "calcium": 13853, "communicating": 20888, "mg": 11460, "[unused234]": 239, "\u099f": 1359, "annoyance": 17466, "organism": 15923, "bile": 23974, "struggle": 5998, "soldiers": 3548, "opium": 21075, "kinds": 7957, "innate": 25605, "ha": 5292, "trainee": 26758, "luciano": 24512, "elemental": 19529, "maybe": 2672, "hilt": 21184, "oclc": 12258, "recited": 24843, "breeders": 20823, "##7": 2581, "bid": 7226, "marlon": 25861, "\u03bf": 1169, "propelled": 15801, "differentiation": 20582, "[unused361]": 366, "[unused671]": 676, "stakeholders": 22859, "##ever": 22507, "##llo": 7174, "preoccupied": 23962, "absolutely": 7078, "stain": 21101, "da": 4830, "grading": 26886, "mined": 21846, "\u5b66": 1817, "##ct": 6593, "##\u6709": 30399, "communication": 4807, "maxi": 21510, "woodward": 19133, "geologist": 21334, "##rc": 11890, "logs": 15664, "##grad": 16307, "\u2012": 1515, "reveal": 7487, "unaware": 11499, "uploaded": 21345, "441": 28015, "natives": 12493, "parasitic": 26045, "picking": 8130, "american": 2137, "documents": 5491, "rivals": 9169, "vowel": 12710, "\u0f0b": 1424, "##ges": 8449, "bradford": 9999, "minors": 18464, "spaces": 7258, "##rm": 10867, "ing": 13749, "snaps": 20057, "oswald": 17411, "##\u5b50": 30342, "obstacles": 15314, "zane": 6944, "competed": 3879, "tobacco": 9098, "substances": 13978, "bell": 4330, "police": 2610, "##cuting": 29163, "retreat": 7822, "less": 2625, "cerambycidae": 13168, "dudley": 12648, "dice": 18740, "[unused929]": 934, "male": 3287, "##\u03c2": 19579, "societies": 8384, "carpenter": 10533, "conserve": 27749, "[SEP]": 102, "1626": 28818, "##eran": 23169, "##ilde": 23891, "layers": 9014, "##cco": 21408, "\u05df": 1256, "##cats": 19588, "tequila": 26791, "##\u0bb3": 29929, "nominal": 15087, "markets": 6089, "commanding": 7991, "tko": 26537, "boris": 11235, "uneven": 17837, "gaston": 18572, "taut": 21642, "dance": 3153, "##ie": 2666, "soviets": 15269, "celebrating": 12964, "associate": 5482, "##fs": 10343, "overcoming": 27363, "##lat": 20051, "boosted": 28043, "difficult": 3697, "##\u209a": 30097, "freight": 8441, "interfere": 15115, "##ifies": 14144, "submit": 12040, "sigh": 6682, "commence": 22825, "inhabit": 21490, "vacation": 10885, "sync": 26351, "evergreen": 16899, "##\u65b9": 30389, "jingle": 29262, "##st": 3367, "1775": 14276, "authorised": 19256, "preferences": 18394, "min": 8117, "modelling": 19518, "##en": 2368, "fleetwood": 23866, "banged": 22843, "san": 2624, "910": 27743, "embarrassed": 10339, "##iah": 12215, "\u6c35": 1894, "tightening": 18711, "chico": 22136, "stunned": 9860, "##riety": 27840, "bram": 20839, "so": 2061, "mongolian": 17855, "execution": 7781, "\u11ab": 1485, "gatherings": 21403, "hopped": 17230, "##bella": 21700, "halted": 12705, "lauded": 26507, "oxidation": 19577, "\u266d": 1627, "times": 2335, "isabella": 10323, "pattern": 5418, "sucks": 19237, "lebanon": 8341, "lexie": 24123, "selena": 19166, "enchanted": 22454, "harmonies": 28594, "##lers": 12910, "failure": 4945, "dominated": 6817, "tactic": 19717, "##oja": 22918, "bypass": 11826, "paste": 19351, "tags": 22073, "##\u30f3": 30263, "wife": 2564, "encore": 19493, "pension": 11550, "lucivar": 21401, "putin": 22072, "composers": 9929, "##lights": 15733, "iris": 11173, "[unused313]": 318, "##\u305f": 30187, "rosemary": 18040, "josiah": 24461, "investigating": 11538, "stick": 6293, "pbs": 13683, "montrose": 24990, "liable": 20090, "nostrils": 15325, "pdf": 11135, "##\u2016": 30054, "pacific": 3534, "##bly": 6321, "literacy": 8433, "turned": 2357, "benz": 17770, "pneumonia": 18583, "##\u694a": 30409, "intersects": 17349, "tufts": 25252, "flirt": 27978, "periods": 6993, "possesses": 14882, "[MASK]": 103, "dmitri": 28316, "kepler": 28219, "bench": 6847, "nursery": 13640, "chunk": 20000, "circulating": 22458, "adjective": 24931, "diaspora": 18239, "flared": 14937, "sevilla": 29363, "labels": 10873, "1644": 23477, "ninth": 6619, "mammal": 25476, "##los": 10483, "1863": 6899, "cavalier": 28778, "friendships": 28956, "##ington": 7853, "##\u826f": 30464, "midwest": 13608, "libertarian": 19297, "logic": 7961, "iroquois": 23015, "audit": 15727, "##\u1103": 29993, "##illy": 20577, "immaculate": 19532, "saxe": 24937, "walton": 14290, "[unused656]": 661, "synod": 15374, "referee": 5330, "chord": 13924, "anticipating": 26481, "transylvania": 20816, "##idon": 28201, "sabine": 18578, "elizabeth": 3870, "ghanaian": 27202, "##\u9752": 30501, "520": 19611, "interfaces": 19706, "pentagon": 20864, "##cans": 26642, "noses": 27518, "bonfire": 28698, "\u2660": 1623, "ambrose": 15675, "subcommittee": 18052, "##iser": 17288, "rented": 12524, "taxes": 7773, "domes": 26193, "##stead": 25647, "##gram": 13113, "sen": 12411, "interested": 4699, "rep": 16360, "remnant": 19614, "295": 21679, "ind": 27427, "writes": 7009, "cardiac": 15050, "tastes": 16958, "incense": 28647, "[unused577]": 582, "hermit": 24308, "bred": 13680, "##cope": 16186, "##ross": 25725, "flirting": 20661, "programs": 3454, "grande": 9026, "dialogues": 22580, "ceased": 7024, "rewards": 19054, "hopper": 20517, "acknowledges": 28049, "[unused584]": 589, "pleasantly": 27726, "eminent": 14953, "[unused745]": 750, "typically": 4050, "##\u1166": 30009, "##meter": 22828, "lived": 2973, "rue": 13413, "poem": 5961, "lewis": 4572, "##usions": 22016, "che": 18178, "terrific": 27547, "gingerly": 26961, "believing": 8929, "##nde": 13629, "##?": 29632, "pendulum": 28300, "disappointment": 10520, "disney": 6373, "forest": 3224, "##\u0ba9": 29923, "[unused421]": 426, "carmichael": 23537, "midland": 12240, "\u09b6": 1374, "glory": 8294, "##\u20a9": 30101, "[UNK]": 100, "numbering": 15200, "rooster": 27681, "gs": 28177, "tally": 19552, "reads": 9631, "##rge": 20800, "\u00b9\u2044\u2082": 18728, "##ilo": 22360, "##ap": 9331, "haze": 16332, "ultra": 11087, "##onte": 28040, "\u6ca2": 1898, "electrons": 15057, "kaitlyn": 28584, "el": 3449, "howling": 22298, "##duk": 28351, "##\u0ba8": 29922, "idf": 24011, "ewing": 24023, "simpson": 9304, "##ai": 4886, "fatally": 26292,
[...]
