{"huntington": 16364, "dartmouth": 16960, "multiple": 3674, "##otide": 26601, "filing": 15242, "occurs": 5158, "civilians": 9272, "olympus": 26742, "\u30de": 1723, "paranormal": 20725, "##coe": 16288, "##olved": 16116, "[unused263]": 268, "libby": 19533, "[unused968]": 973, "attire": 20426, "troll": 18792, "beyond": 3458, "##church": 22743, "mood": 6888, "not": 2025, "meters": 5563, "traditionally": 6964, "noticeably": 25327, "##ying": 14147, "\u304d": 1652, "##osing": 18606, "slave": 6658, "##bruck": 28985, "drawers": 22497, "##ah": 4430, "reclamation": 27389, "tandem": 18231, "##\u09b2": 29909, "##ecure": 29150, "smashing": 21105, "wolverine": 22162, "newport": 9464, "##cise": 18380, "pv": 26189, "regarding": 4953, "palazzo": 18482, "branching": 23346, "mormon": 15111, "brandon": 8825, "relied": 13538, "\u02be": 1147, "[unused186]": 191, "fernandez": 12023, "bunny": 16291, "thud": 20605, "sweets": 26844, "astronomer": 15211, "skating": 10080, "bye": 9061, "guam": 16162, "flicking": 26259, "potato": 14557, "clifford": 13894, "overs": 15849, "##\u30ab": 30226, "bolton": 12118, "illuminated": 14640, "wedge": 17632, "clarissa": 25260, "##idon": 28201, "battalion": 4123, "colton": 21000, "strauss": 16423, "mercenaries": 19331, "##sons": 23345, "copies": 4809, "##yang": 12198, "steady": 6706, "contradiction": 26917, "arctic": 10162, "\u1d57": 1505, "furry": 28662, "su": 10514, "##\u10da": 29983, "brighton": 10309, "outlet": 13307, "\u516b": 1771, "##icular": 21412, "tau": 19982, "##\u1d40": 30031, "jays": 18930, "[unused561]": 566, "jacqueline": 17551, "streams": 9199, "corresponded": 27601, "r": 1054, "\u306f": 1672, "##taff": 22542, "##nally": 26827, "shuddering": 25735, "grasp": 10616, "roommate": 18328, "bose": 21299, "##ar": 2906, "accounting": 9529, "##oi": 10448, "##\u00b5": 29659, "emitted": 22627, "abortion": 11324, "elect": 11322, "modest": 10754, "spacecraft": 12076, "goes": 3632, "coastline": 15458, "##cchi": 25955, "##mers": 16862, "produced": 2550, "##\u2194": 30115, "album": 2201, "hastings": 12296, "phone": 3042, "##aldi": 24657, "##lessly": 10895, "punching": 19477, "nuevo": 22250, "1966": 3547, "##ander": 12243, "ballads": 18456, "barley": 21569, "##\u092a": 29864, "euroleague": 26093, "##nty": 29405, "bedrooms": 18390, "poorly": 9996, "believe": 2903, "stakes": 7533, "##cturing": 19159, "hallway": 6797, "lurched": 21977, "dwarfs": 28984, "##\u092e": 29867, "leicestershire": 20034, "extension": 5331, "call": 2655, "##va": 3567, "##nsed": 27730, "assassin": 12025, "rossi": 18451, "shakes": 10854, "ow": 27593, "postwar": 20013, "##oko": 16366, "check": 4638, "tuned": 15757, "[unused313]": 318, "eggs": 6763, "hosting": 9936, "load": 7170, "1655": 28438, "offended": 15807, "asteroid": 12175, "topped": 9370, "india": 2634, "##rating": 15172, "heiress": 20020, "cadence": 23620, "yo": 10930, "stack": 9991, "changes": 3431, "\u1da0": 1512, "racial": 5762, "higher": 3020, "roofs": 15753, "##glers": 25555, "fullback": 21803, "##nched": 19282, "qing": 13282, "policy": 3343, "##mc": 12458, "rivals": 9169, "neumann": 22860, "apparently": 4593, "##lings": 11227, "incense": 28647, "##nya": 17238, "signalling": 21919, "milwaukee": 9184, "sachs": 22818, "gretchen": 21625, "##hom": 23393, "versa": 18601, "##ors": 5668, "pandora": 19066, "tonga": 20188, "tender": 8616, "hideous": 22293, "commemorate": 13415, "##tr": 16344, "emblem": 16199, "proper": 5372, "grenada": 29153, "fisheries": 13424, "topping": 22286, "allmusic": 10477, "##dian": 11692, "addresses": 11596, "##i": 2072, "yeah": 3398, "maintenance": 6032, "suggests": 6083, "loomed": 24358, "injury": 4544, "package": 7427, "bench": 6847, "##lip": 15000, "minogue": 27736, "sophomore": 13758, "##urity": 25137, "shaken": 16697, "qualify": 7515, "iata": 9833, "scott": 3660, "era": 3690, "overview": 19184, "terrorist": 9452, "\u9593": 1969, "irregular": 12052, "\u0923": 1322, "1850": 7973, "midfielder": 8850, "buttons": 11287, "##hoot": 23416, "##\u8cb4": 30479, "estonia": 10692, "technological": 10660, "##cased": 28969, "##unk": 16814, "comforting": 16334, "calendar": 8094, "didn": 2134, "\u52a0": 1779, "textbook": 16432, "lynch": 11404, "aerodynamic": 28033, "hoover": 17443, "automatically": 8073, "seafood": 23621, "mbc": 27262, "182": 17691, "sera": 26358, "yugoslavia": 8936, "warren": 6031, "attributes": 12332, "shiva": 12535, "waiter": 15610, "paz": 18183, "parasite": 21198, "insisting": 22604, "##ol": 4747, "documented": 8832, "422": 29269, "##\u0679": 29838, "sylvester": 20016, "shifted": 5429, "initial": 3988, "awaited": 19605, "applying": 11243, "astro": 28625, "stunning": 14726, "runs": 3216, "millionaire": 19965, "##cute": 26869, "planned": 3740, "\u05d0": 1241, "##lent": 16136, "balkans": 19733, "peggy": 14911, "303": 19988, "lennon": 14294, "##\u2084": 17004, "loyola": 21580, "nebraska": 8506, "hindi": 9269, "accusation": 19238, "wishes": 8996, "41st": 24233, "executives": 12706, "shortage": 15843, "coaster": 16817, "updates": 14409, "launched": 3390, "nay": 29349, "antonio": 4980, "glued": 22805, "stifled": 27146, "wasp": 19411, "hepburn": 22004, "condition": 4650, "receive": 4374, "hispanic": 6696, "theology": 8006, "huddled": 20258, "wilder": 18463, "concern": 5142, "evidence": 3350, "##lene": 11474, "##21": 17465, "##rek": 16816, "bhutan": 18768, "quivering": 26012, "vegas": 7136, "inequality": 16440, "##rford": 26430, "ears": 5551, "communicating": 20888, "clusters": 12906, "1889": 6478, "relationship": 3276, "bath": 7198, "awarding": 21467, "beamed": 22587, "guangdong": 21287, "sting": 12072, "##bag": 16078, "dissipated": 22572, "##icio": 27113, "flinch": 23224, "##\u5b50": 30342, "teens": 13496, "\u0916": 1316, "corporal": 14265, "intelligence": 4454, "allegedly": 9382, "##ually": 28488, "[unused219]": 224, "lush": 16299, "iconic": 14430, "pattern": 5418, "##phs": 18757, "nature": 3267, "##eding": 17819, "writer": 3213, "##ori": 10050, "##kou": 24861, "miniseries": 13612, "julia": 6423, "bravery": 16534, "cerebral": 18439, "##\u2012": 30050, "thong": 27468, "multiplied": 28608, "##jong": 21958, "placing": 6885, "seriously": 5667, "flyer": 23821, "feast": 9831, "roof": 4412, "##rigues": 22934, "rite": 14034, "\u0965": 1345, "lateral": 11457, "vineyard": 18621, "kristen": 22435, "##dded": 19520, "handling": 8304, "schooling": 14118, "##ator": 8844, "spatial": 13589, "rhodes": 10588, "nominally": 24207, "prairie": 10996, "kingdoms": 12028, "##he": 5369, "front": 2392, "\u0445": 1200, "reclaimed": 23119, "##oia": 25463, "##7": 2581, "alpine": 10348, "critical": 4187, "leisure": 12257, "\u4e09": 1741, "stephane": 26624, "truman": 15237, "bram": 20839, "wheeled": 17320, "bosnia": 9562, "[unused690]": 695, "satisfy": 13225, "tribe": 5917, "imp": 17727, "etat": 17997, "1926": 4881, "cox": 9574, "\u0d9a": 1403, "##rti": 28228, "possessions": 13689, "inscription": 9315, "237": 23297, "2010": 2230, "economical": 21791, "rue": 13413, "##dha": 17516, "polo": 11037, "confiscated": 17182, "sen": 12411, "tempting": 23421, "chandra": 16469, "analytics": 25095, "stems": 12402, "degrees": 5445, "##aw": 10376, "biographical": 16747, "##ali": 11475, "##time": 7292, "animal": 4111, "technology": 2974, "motivated": 12774, "\u1162": 1471, "duration": 9367, "[unused467]": 472, "oversized": 21698, "gorilla": 23526, "##ified": 7810, "champaign": 28843, "beatty": 27305, "shotgun": 13305, "##fting": 26169, "pursued": 9505, "reborn": 24910, "marty": 12578, "haji": 28174, "##ricting": 28827, "##rai": 14995, "##\u5ca1": 30358, "##iner": 26455, "finance": 5446, "gibson": 9406, "subgroup": 20576, "eyes": 2159, "beneficial": 15189, "##rug": 26549, "botanic": 27761, "orient": 16865, "poison": 9947, "readily": 12192, "nobles": 13969, "jayne": 24408, "1788": 15622, "##\u9762": 30502, "weeping": 19750, "##slin": 22908, "sidney": 11430, "chemical": 5072, "\u05dd": 1254, "invasive": 17503, "##cap": 17695, "rotary": 16933, "hurts": 13403, "koch": 15259, "##\u9053": 30483, "gina": 17508, "occurring": 10066, "##ulla": 22187, "salle": 18005, "properly": 7919, "##ven": 8159, "##bank": 9299, "[unused773]": 778, "dull": 10634, "description": 6412, "[unused505]": 510, "fictitious": 23577, "epidemic": 16311, "##els": 9050, "appeal": 5574, "mistakenly": 20706, "certificate": 8196, "assumption": 11213, "neck": 3300, "mk": 12395, "alison": 12684, "detroit": 5626, "\u5289": 1777, "gloucester": 13370, "##sit": 28032, "gunshot": 22077, "paler": 24489, "recall": 9131, "vocational": 13099, "tamil": 6008, "38th": 22051, "catholics": 10774, "massage": 21881, "revolver": 17863, "mirrors": 13536, "mourning": 16236, "encore": 19493, "pulsing": 23139, "1653": 29309, "miniature": 12973, "[unused680]": 685, "senegal": 16028, "finds": 4858, "makers": 11153, "ghostly": 24407, "##evich": 16277, "406": 27433, "warwick": 13283, "drawer": 13065, "combining": 11566, "whiskey": 13803, "sociologist": 25106, "kw": 6448, "##nut": 24072, "honor": 3932, "necessarily": 9352, "##eased": 25063, "somme": 25158, "scroll": 17186, "wii": 16568, "spying": 22624, "irritation": 17373, "spare": 8622, "##\u0ba4": 29921, "mule": 20568, "session": 5219, "joy": 6569, "resignation": 8172, "##talk": 28014, "personality": 6180, "thugs": 24106, "cylindrical": 18797, "##claim": 25154, "quebec": 5447, "kaitlyn": 28584, "wildly": 13544, "41": 4601, "##optera": 25324, "asshole": 22052, "presiding": 18131, "acts": 4490, "contested": 7259, "explosives": 14792, "turn": 2735, "configured": 26928, "originals": 23728, "immigration": 7521, "##vos": 19862, "balcony": 11673, "leipzig": 11222, "hose": 21290, "238": 22030, "jarrett": 24503, "departmental": 28912, "serving": 3529, "submit": 12040, "sprint": 9043, "demeanor": 21745, "who": 2040, "biennial": 20313, "1893": 6489, "395": 24673, "footing": 22849, "altitude": 7998, "verandah": 26153, "ashby": 28729, "1664": 28485, "concurrent": 16483, "##ega": 29107, "eyelashes": 25150, "noodles": 27130, "wreckage": 21056, "##me": 4168, "##hir": 11961, "nate": 8253, "ode": 24040, "[unused460]": 465, "weren": 4694, "connect": 7532, "##ion": 3258, "avoid": 4468, "classed": 27811, "adolescence": 29101, "elder": 6422, "##\u03c2": 19579, "mei": 19734, "##ship": 9650, "[unused43]": 44, "raja": 10164, "grunted": 14922, "##star": 14117, "1983": 3172, "clan": 6338, "coma": 16571, "reconstruction": 8735, "eileen": 20495, "epa": 19044, "toast": 15174, "revolutionaries": 24517, "congo": 9030, "caine": 19881, "\u27e8": 1629, "dazed": 19720, "marcos": 14810, "[unused789]": 794, "bot": 28516, "researched": 18800, "##aint": 22325, "masked": 16520, "hugely": 27564, "framed": 10366, "cradled": 23774, "foundry": 19853, "marries": 19941, "negative": 4997, "##ceptive": 28687, "rocks": 5749, "there": 2045, "finch": 16133, "##shed": 14740, "buy": 4965, "conquered": 11438, "salford": 23001, "professional": 2658, "uh": 7910, "hermit": 24308, "albany": 10283, "##\u30e2": 30253, "whorls": 25637, "requirement": 9095, "philanthropist": 15246, "oxford": 4345, "##gf": 25708, "[unused89]": 90, "spike": 9997, "dod": 26489, "##ick": 6799, "stability": 9211, "crank": 27987, "android": 11924, "coinage": 25396, "##lined": 18194, "##oese": 23379, "rhapsody": 29395, "##ome": 8462, "garrett": 9674, "siegfried": 25948, "emphasis": 7902, "chambers": 8477, "territories": 6500, "architects": 8160, "janata": 20308, "monograph": 24039, "anita": 12918, "##dies": 18389, "wing": 3358, "##\u6751": 30404, "envisioned": 18035, "disgrace": 29591, "blurted": 18751, "flotilla": 17150, "humboldt": 19249, "shimmering": 22349, "marcelo": 24984, "stanford": 8422, "venezuela": 8326, "relates": 14623, "felt": 2371, "hum": 14910, "##tania": 21013, "##able": 3085, "##abad": 10542, "##ites": 7616, "thump": 21324, "##\u03b1": 14608, "believes": 7164, "hays": 29051, "goal": 3125, "##parts": 26950, "rounds": 6241, "generally": 3227, "##\u10e0": 29987, "researches": 27338, "##ologies": 20792, "artists": 3324, "inorganic": 28256, "payton": 28666, "##iq": 18515, "sammy": 14450, "217": 20335, "gathers": 29438, "mixes": 21109, "underworld": 13607, "##\u590f": 30334, "medley": 13863, "bin": 8026, "deemed": 8357, "##rry": 12244, "keith": 6766, "shrill": 28349, "poster": 13082, "1725": 25651, "\u30df": 1724, "talked": 5720, "promising": 10015, "##\u09ad": 29905, "intending": 16533, "gifford": 29360, "subscription": 15002, "financially": 13732, "ignorant": 21591, "ke": 17710, "methods": 4725, "restrained": 19868, "##xin": 20303, "##urgent": 27176, "##hei": 26036, "opportunity": 4495, "mock": 12934, "theatrical": 8900, "looks": 3504, "augsburg": 24362, "jailed": 21278, "##&": 29617, "attracted": 6296, "##hang": 18003, "\u0444": 1199, "landed": 5565, "exhibit": 8327, "##well": 4381, "hendricks": 28895, "remarkable": 9487, "fellowships": 27298, "suzy": 28722, "discoveries": 15636, "pittsburgh": 6278, "##stra": 20528, "darting": 24567, "jan": 5553, "##rr": 12171, "relic": 24933, "swear": 8415, "rafael": 10999, "format": 4289, "##\u0b95": 29918, "eun": 26070, "dorchester": 27252, "been": 2042, "lawful": 26410, "subtle": 11259, "##eri": 11124, "##ulously": 21227, "astronomers": 26357, "\u4ecb": 1759, "rules": 3513, "lakers": 18264, "##\u58eb": 30333, "congregational": 20809, "darcy": 17685, "suv": 15620, "messy": 18307, "indicate": 5769, "friendships": 28956, "quality": 3737, "eds": 11985, "tasha": 25448, "carson": 9806, "hernandez": 13688, "roberto": 10704, "baronetcy": 25071, "regina": 12512, "gerry": 14926, "[unused226]": 231, "couldn": 2481, "vanished": 9955, "saxophone": 8283, "##tp": 25856, "corridor": 7120, "customary": 16120, "diner": 15736, "excerpts": 24962, "goofy": 27243, "[unused601]": 606, "marked": 4417, "imperative": 23934, "subspecies": 11056, "thornton": 14630, "hardness": 23608, "libre": 21091, "medications": 20992, "bmw": 13154, "##kaya": 20718, "states": 2163, "##dina": 18979, "sun": 3103, "mort": 22294, "martial": 7761, "##tor": 4263, "heresy": 28354, "deter": 28283, "quoted": 9339, "confident": 9657, "[unused567]": 572, "disused": 26958, "collar": 9127, "##bau": 27773, "dispose": 27764, "2011": 2249, "pokemon": 20421, "objection": 22224, "recounted": 22906, "reich": 14365, "replaces": 20736, "dso": 22951, "bash": 24234, "##hal": 8865, "russia": 3607, "##s\u0142aw": 23305, "vitamin": 17663, "gesturing": 22317, "kgb": 25467, "##urs": 9236, "guillermo": 21070, "sf": 16420, "martinez": 10337, "tactical": 8608, "evidently": 15329, "bop": 29432, "inaugurated": 11070, "door": 2341, "weapon": 5195, "[unused724]": 729, "##hat": 12707, "cisco": 26408, "ala": 21862, "clay": 5726, "cages": 27157, "##link": 13767, "cops": 10558, "blog": 9927, "darkening": 27862, "equator": 26640, "##\u306f": 30198, "##oli": 10893, "discussion": 6594, "bracket": 21605, "134": 15170, "\u25aa": 1618, "apologize": 12134, "dorsal": 12759, "lehman": 28444, "averaged": 11398, "shaft": 9093, "131": 14677, "domino": 23968, "##town": 4665, "boil": 26077, "locations": 5269, "refuse": 10214, "1990s": 4134, "indifference": 25920, "archaic": 19261, "confidently": 28415, "aus": 17151, "portable": 12109, "giggled": 15889, "reacts": 27325, "[unused522]": 527, "loyalty": 9721, "walnut": 18489, "mig": 19117, "ya": 8038, "cyclic": 23750, "1756": 22370, "bother": 8572, "##phonic": 27385, "##jon": 14339, "dollar": 7922, "resultant": 28573, "\u308b": 1687, "autobiography": 10828, "drastic": 23956, "suez": 21974, "##jevic": 26782, "garnered": 13056, "religions": 11822, "winchester": 12841, "attorneys": 16214, "[unused318]": 323, "##arth": 22425, "kazan": 22001, "re": 2128, "significantly": 6022, "mathematical": 8045, "supper": 15264, "nickname": 8367, "walton": 14290, "adjunct": 20621, "dishes": 10447, "stages": 5711, "##nr": 16118, "ionic": 24774, "monterrey": 26843, "marriages": 12743, "1950": 3925, "##boarding": 21172, "hirsch": 28127, "fronts": 21430, "household": 4398, "inc": 4297, "developing": 4975, "##lde": 17920, "humble": 15716, "misunderstood": 28947, "58": 5388, "silver": 3165, "engraver": 27771, "##\u0454": 29759, "respectful": 26438, "protagonists": 21989, "##mill": 19912, "ucla": 12389, "##nical": 20913, "berger": 16758, "unpaid": 23850, "municipal": 4546, "lavish": 22689, "annapolis": 24889, "vowels": 15260, "192": 17613, "monopoly": 15404, "sundays": 14803, "oslo": 9977, "dental": 11394, "cosmos": 21182, "\u0580": 1237, "curls": 14484, "##\u0449": 29754, "unnoticed": 22719, "portsmouth": 10913, "##encia": 27742, "##tate": 12259, "input": 7953, "[unused903]": 908, "percentage": 7017, "portland": 6734, "##jing": 29518, "newton": 8446, "[unused131]": 136, "masovian": 23703, "##yne": 9654, "##51": 22203, "deutschland": 28668, "andrey": 29219, "convened": 19596, "\u3042": 1646, "zachary": 19474, "##tus": 5809, "silky": 18848, "grim": 11844, "sciences": 4163, "[unused390]": 395, "harlem": 14864, "nsw": 11524, "sears": 18493, "##lib": 29521, "##\u04cf": 29765, "boarding": 9405, "specialists": 15744, "bluff": 14441, "taxonomic": 27691, "sellers": 19041, "predecessor": 8646, "casper": 24602, "purchases": 17402, "roland": 8262, "purse": 8722, "mouth": 2677, "\u300c": 1641, "##meric": 25531, "weekdays": 19759, "politically": 10317, "cy": 22330, "scholastic": 24105, "generate": 9699, "previously": 3130, "webb": 10923, "careless": 23358, "essendon": 25149, "pep": 27233, "rutherford": 18472, "correspond": 17254, "babe": 11561, "digit": 15340, "medallist": 28595, "\u043d": 1192, "stair": 23788, "tubes": 10868, "oskar": 28626, "extracted": 15901, "##qu": 28940, "83": 6640, "closely": 4876, "dustin": 24337, "mika": 27857, "noting": 9073, "portrayed": 6791, "##paper": 23298, "20": 2322, "hamish": 28859, "houston": 5395, "cores": 25562, "crabs": 26076, "covert": 19813, "odd": 5976, "jazz": 4166, "1836": 10081, "obsolete": 15832, "nationalists": 17934, "##\u2026": 30064, "shade": 8703, "menon": 25111, "jones": 3557, "[unused764]": 769, "[unused861]": 866, "retrieval": 26384, "\ufb01": 1984, "32nd": 20628, "squire": 21263, "established": 2511, "##guard": 18405, "[unused944]": 949, "sailor": 11803, "pet": 9004, "clover": 25133, "honolulu": 16598, "dance": 3153, "##ods": 20620, "[unused115]": 120, "rubber": 8903, "termination": 18287, "asteroids": 26732, "##hetic": 20086, "collections": 6407, "philosophers": 17586, "authoritarian": 27246, "conscience": 13454, "##tov": 26525, "[unused869]": 874, "hillside": 18573, "strengthening": 16003, "##tani": 17681, "wasting": 18313, "cupped": 13740, "illnesses": 24757, "potter": 10693, "##ally": 3973, "[unused777]": 782, "nod": 7293, "afterlife": 25115, "##\u571f": 30327, "ralph": 6798, "gypsy": 16006, "naturalized": 27558, "pandit": 29331, "effective": 4621, "ranch": 8086, "kylie": 9008, "##\uff08": 30513, "##ra\u00dfe": 27807, "convenient": 14057, "smoke": 5610, "##chaft": 29043, "##|": 29641, "##islav": 19834, "carole": 24348, "brno": 28634, "\u6751": 1878, "##\u7537": 30438, "cloth": 8416, "airship": 27636, "vimes": 28482, "##book": 8654, "[unused630]": 635, "\u8857": 1946, "sic": 14387, "##stad": 16917, "fu": 11865, "nicky": 20158, "##bad": 9024, "##rod": 14127, "1896": 6306, "confederates": 24627, "##kon": 19648, "##aceous": 25560, "pueblo": 18273, "puzzles": 19672, "stories": 3441, "##den": 4181, "conquest": 9187, "vulnerability": 18130, "better": 2488, "dolphins": 13600, "saturated": 23489, "reflecting": 10842, "spawned": 18379, "wished": 6257, "passenger": 4628, "##gues": 22967, "\u9053": 1957, "plots": 14811, "element": 5783, "conserve": 27749, "475": 28245, "regatta": 26848, "contemporaries": 16682, "commercials": 12698, "##fleet": 27657, "##tsa": 27110, "service": 2326, "animals": 4176, "[unused667]": 672, "visibly": 19397, "##wo": 12155, "unicorn": 21830, "rippled": 26862, "doyle": 11294, "native": 3128, "equivalence": 27841, "##wd": 21724, "##cho": 9905, "kerman": 24500, "barbarian": 25075, "##\u0578": 29779, "array": 9140, "530": 23523, "goodbye": 9119, "##\u0437": 29744, "[unused178]": 183, "dummy": 24369, "overboard": 27089, "denny": 14465, "perch": 21836, "gail": 18576, "hungarian": 5588, "juniors": 16651, "vacation": 10885, "aluminum": 13061, "\u0649": 1299, "epoch": 25492, "tightly": 7371, "betrayal": 14583, "[unused113]": 118, "jackie": 9901, "##ther": 12399, "175": 12862, "mel": 11463, "marjorie": 21562, "linger": 26577, "panties": 12095, "forbid": 27206, "dia": 22939, "liquids": 26820, "cbs": 6568, "herbal": 27849, "trinity": 7124, "merits": 22617, "stiffened": 16090, "##liga": 14715, "##lten": 29005, "##\u203a": 30068, "article": 3720, "inclusive": 18678, "west": 2225, "kings": 5465, "165": 13913, "kira": 15163, "ipswich": 15435, "##wang": 16600, "##40": 12740, "vehicles": 4683, "proponent": 22488, "seat": 2835, "clinton": 7207, "benji": 27231, "##fication": 10803, "directed": 2856, "##\u0445": 29750, "unpleasant": 16010, "somerset": 9198, "trumpet": 9368, "##\u2218": 30126, "reese": 15883, "##oper": 25918, "##oshi": 24303, "exploited": 18516, "fade": 12985, "lamp": 10437, "##mation": 28649, "opposes": 29158, "trust": 3404, "creditors": 23112, "survival": 7691, "##coming": 18935, "##berry": 9766, "substrates": 23725, "kelvin": 24810, "capita": 8353, "crimes": 6997, "traveller": 21916, "##\u056c": 29773, "boon": 23264, "resin": 24604, "vinnie": 24214, "storyline": 9994, "monsters": 9219, "dinosaur": 15799, "leung": 26037, "tray": 11851, "buck": 10131, "heating": 10808, "##urn": 14287, "math": 8785, "joo": 28576, "ensemble": 7241, "##cence": 29320, "flown": 10583, "[unused36]": 37, "dollars": 6363, "1679": 27924, "bunch": 9129, "dagger": 10794, "[unused951]": 956, "accepts": 13385, "##38": 22025, "##01": 24096, "sire": 15785, "azerbaijani": 18325, "agency": 4034, "\u0f63": 1435, "feminist": 10469, "bolivia": 11645, "[unused377]": 382, "\u5b66": 1817, "##\u702c": 30431, "jogging": 28233, "extend": 7949, "##cating": 18252, "subdivisions": 22095, "frederick": 5406, "##rine": 11467, "##nburg": 22642, "totally": 6135, "liszt": 26273, "massimo": 28080, "observing": 14158, "slam": 9555, "incurred": 22667, "bladed": 27402, "##jar": 16084, "[unused316]": 321, "innate": 25605, "ridiculous": 9951, "##logic": 27179, "investigations": 9751, "guiding": 14669, "stormy": 24166, "forms": 3596, "weird": 6881, "extract": 14817, "hampson": 21780, "morrow": 19084, "circulated": 17640, "[MASK]": 103, "tack": 26997, "typing": 22868, "announce": 14970, "rome": 4199, "##\u00df": 19310, "tissue": 8153, "fell": 3062, "##ists": 5130, "##ia": 2401, "print": 6140, "saxon": 10038, "[unused272]": 277, "ram": 8223, "bao": 25945, "cinnamon": 21229, "wireless": 9949, "defiant": 27836, "artisans": 26818, "204": 19627, "amman": 25703, "humanitarian": 11470, "\u1165": 1472, "residences": 14094, "moreover": 9308, "fascist": 14870, "cake": 9850, "lizzie": 15860, "##oof": 21511, "burgundy": 18383, "divisional": 14167, "probation": 19703, "hauling": 23113, "cebu": 23312, "##nam": 13129, "referee": 5330, "posterior": 15219, "wb": 25610, "affect": 7461, "armand": 20371, "prima": 21111, "comb": 22863, "marylebone": 28537, "abolition": 15766, "visiting": 5873, "##cous": 27199, "##\u221e": 30128, "##nnis": 27803, "irina": 25404, "appearance": 3311, "replacements": 23936, "##cake": 17955, "prefers": 19233, "bloomfield": 25584, "##of": 11253, "tingle": 25792, "343": 27810, "##42": 20958, "ultimatum": 29227, "tufts": 25252, "\u8a9e": 1950, "\u0937": 1337, "##right": 15950, "nitrogen": 14114, "disneyland": 25104, "confirmation": 13964, "01": 5890, "cpi": 28780, "jonah": 15617, "##roi": 26692, "benefit": 5770, "fey": 23864, "swap": 19948, "[unused422]": 427, "##\u7acb": 30457, "tram": 12517, "executions": 22679, "archie": 13255, "##\u751f": 30436, "adriatic": 23400, "circular": 8206, "ie": 29464, "##ei": 7416, "trophies": 22236, "universities": 5534, "*": 1008, "127": 13029, "##table": 10880, "types": 4127, "dock": 8946, "theorem": 9872, "marguerite": 15334, "danish": 5695, "##lez": 28060, "trauma": 12603, "##liffe": 27931, "##gence": 17905, "mater": 16289, "bragg": 23678, "[unused709]": 714, "nyc": 16392, "beats": 10299, "\u0294": 1139, "anthropologist": 21571, "\u5e74": 1840, "morphology": 19476, "##bey": 19182, "trim": 12241, "desperately": 9652, "having": 2383, "##\u1103": 29993, "civilian": 6831, "##bon": 11735, "##rgh": 27172, "seller": 14939, "dante": 9649, "##\u5dff": 30363, "woods": 5249, "decide": 5630, "tonight": 3892, "\u05db": 1252, "mathematician": 13235, "manual": 6410, "##ility": 15148, "brew": 24702, "marta": 18950, "##wc": 16526, "navy": 3212, "depend": 12530, "conversations": 11450, "dubbed": 9188, "watford": 21740, "supreme": 4259, "mariana": 22097, "broadcasts": 8960, "cautious": 17145, "uniformed": 25189, "poised": 22303, "##itor": 15660, "topic": 8476, "[unused142]": 147, "##igen": 29206, "##screen": 18182, "105": 8746, "masonry": 18103, "wendy": 12815, "lively": 17133, "aspects": 5919, "##minate": 19269, "guard": 3457, "obtaining": 11381, "##holz": 28094, "##np": 16275, "connacht": 27062, "privileges": 14310, "##adt": 18727, "ferreira": 26135, "##xed": 19068, "endeavors": 28809, "intelligent": 9414, "##formed": 29021, "gaze": 3657, "\u110a": 1462, "hallways": 28274, "synonymous": 22594, "hour": 3178, "reid": 9027, "scenario": 11967, "##cini": 27085, "hangar": 18284, "1937": 4347, "mercer": 13081, "terrorists": 15554, "crumpled": 19814, "fiba": 13651, "legislatures": 27977, "traveling": 7118, "acc": 16222, "pools": 12679, "##plate": 15725, "rented": 12524, "demo": 9703, "##ctus": 22675, "torres": 13101, "214": 19936, "##oid": 9314, "surgeons": 16804, "infrared": 14611, "monarch": 11590, "muted": 22124, "bleeding": 9524, "corner": 3420, "specifically": 4919, "maximize": 25845, "hypnotic": 28322, "atoll": 22292, "sampled": 18925, "postal": 10690, "[unused287]": 292, "firth": 25138, "stain": 21101, "apprehension": 25809, "##\u30af": 30228, "shorter": 7820, "[unused369]": 374, "sugar": 5699, "##ight": 18743, "exposition": 13080, "falling": 4634, "hunched": 20498, "worshipped": 22876, "blinding": 19709, "remind": 10825, "sacks": 14918, "##rel": 16570, "##dm": 22117, "##qvist": 28705, "eleventh": 11911, "##sms": 19230, "guess": 3984, "st": 2358, "weighted": 18215, "email": 10373, "[unused954]": 959, "820": 26667, "##pole": 15049, "1787": 16057, "lime": 14123, "structural": 8332, "returns": 5651, "dream": 3959, "tito": 20712, "[unused276]": 281, "educated": 5161, "##\u2076": 30075, "ego": 13059, "bumped": 19030, "beige": 28799, "\u3086": 1683, "hog": 27589, "lid": 11876, "embroidered": 23590, "cabinets": 20053, "compounds": 10099, "ceo": 5766, "friction": 15012, "vaughn": 18220, "ko": 12849, "##bet": 20915, "newman": 10625, "isolate": 27152, "admitted": 4914, "##cker": 9102, "##ir": 4313, "likelihood": 16593, "\u30b5": 1705, "manpower": 22039, "spikes": 19547, "partridge": 26079, "interspersed": 25338, "##khar": 22510, "[unused372]": 377, "##holding": 23410, "##\u20a9": 30101, "overlooking": 12549, "[unused753]": 758, "menace": 19854, "angelo": 12262, "king": 2332, "wait": 3524, "rat": 9350, "boss": 5795, "ivanov": 26333, "beaches": 12212, "variants": 10176, "broadly": 13644, "##now": 19779, "[unused117]": 122, "##ulated": 8898, "shit": 4485, "plain": 5810, "assam": 15181, "meal": 7954, "thereof": 21739, "glint": 25263, "protesters": 13337, "screwing": 29082, "civilizations": 24784, "unused": 15171, "prince": 3159, "##one": 5643, "daemon": 12828, "grimsby": 24470, "israeli": 5611, "\u3084": 1682, "info": 18558, "revive": 17995, "rehearsals": 24760, "diagonal": 19754, "northbound": 20055, "lose": 4558, "lola": 15137, "skirts": 18184, "oblique": 20658, "discussed": 6936, "##analysis": 25902, "broadcasting": 5062, "hutchinson": 17165, "bluegrass": 21286, "allison": 10786, "##32": 16703, "fertile": 14946, "remembrance": 19451, "footsteps": 9717, "sb": 24829, "relying": 18345, "##30": 14142, "##\u9577": 30493, "##ulating": 10924, "cale": 21854, "[unused689]": 694, "comprise": 15821, "##din": 8718, "unexpectedly": 14153, "counties": 5721, "clothed": 24963, "dorsey": 27332, "\u044f": 1210, "[unused974]": 979, "fletcher": 10589, "recipient": 7799, "evacuation": 13982, "realized": 3651, "shack": 22200, "shiver": 13277, "throwing": 6886, "php": 25718, "hoax": 28520, "cheers": 21250, "##vent": 15338, "nutrient": 26780, "[unused484]": 489, "satin": 19412, "##lini": 22153, "sailing": 8354, "[unused527]": 532, "messing": 22308, "along": 2247, "contender": 20127, "peck": 18082, "odor": 19255, "crack": 8579, "madhya": 20841, "monks": 9978, "conditional": 18462, "milky": 21582, "murders": 9916, "frankfurt": 9780, "attack": 2886, "##oin": 28765, "residence": 5039, "asks": 5176, "policies": 6043, "parameter": 16381, "advocate": 8175, "slovene": 18326, "[unused354]": 359, "tentacles": 24719, "##eka": 19025, "vermont": 8839, "[unused966]": 971, "sentiments": 23541, "deepest": 17578, "##aus": 20559, "tun": 27112, "bald": 13852, "pipes": 12432, "straw": 13137, "##ose": 9232, "##ply": 22086, "loaf": 27048, "gideon": 12137, "seminary": 8705, "residency": 14079, "ny": 6396, "354": 27878, "wed": 21981, "##ril": 15928, "passed": 2979, "asserts": 19514, "interrupted": 7153, "1826": 11931, "conical": 24750, "000": 2199, "irrational": 23179, "##rch": 11140, "arguably": 15835, "330": 14210, "huffington": 26149, "hardwood": 23165, "##house": 4580, "brightness": 18295, "tolkien": 23602, "battles": 7465, "austin": 5899, "fitted": 7130, "allies": 6956, "healthy": 7965, "##olic": 23518, "compromised": 20419, "harrington": 19760, "sampson": 22041, "describes": 5577, "fran": 23151, "reportedly": 7283, "iv": 4921, "adaptation": 6789, "usb": 18833, "handles": 16024, "\u30ad": 1701, "overcome": 9462, "absorb": 16888, "commandant": 15254, "named": 2315, "recovered": 6757, "\u2660": 1623, "howling": 22298, "outnumbered": 21943, "consider": 5136, "aramaic": 28934, "##iente": 25099, "chanting": 22417, "whimper": 28544, "##horpe": 22044, "coptic": 27672, "unfinished": 14342, "##\u5c0f": 30355, "which": 2029, "ithaca": 27939, "gamma": 13091, "seater": 23392, "##lun": 26896, "rosenberg": 21069, "entrances": 18084, "necessitated": 29611, "studies": 2913, "nacional": 10718, "spinal": 16492, "bonnet": 24367, "communities": 4279, "coughed": 19055, "7": 1021, "incoming": 14932, "70th": 26934, "monde": 23117, "circling": 18519, "##ndo": 15482, "hates": 16424, "diamonds": 11719, "sol": 14017, "veterinary": 15651, "glazed": 19724, "momentum": 11071, "cultivation": 13142, "##\u3048": 30175, "sandra": 12834, "neither": 4445, "mla": 18619, "armagh": 24678, "cables": 15196, "52": 4720, "##ino": 5740, "sundance": 20140, "##deck": 26547, "sofia": 8755, "##44": 22932, "jewel": 13713, "1795": 13397, "noir": 15587, "happened": 3047, "snarled": 15022, "circuits": 13782, "feminism": 20050, "##rc": 11890, "backgrounds": 15406, "##culus": 28703, "##loading": 18570, "mesa": 15797, "again": 2153, "madras": 12993, "##oj": 29147, "cuckoo": 29010, "agitation": 22356, "fanny": 17813, "bucks": 14189, "characterized": 7356, "grinning": 11478, "runner": 5479, "los": 3050, "predominantly": 9197, "aperture": 18892, "patrols": 14703, "lump": 15116, "trusted": 9480, "quezon": 26564, "paddle": 20890, "[unused455]": 460, "\u300d": 1642, "musik": 28076, "elbow": 8999, "##mbo": 13344, "denmark": 5842, "\u09bf": 1379, "hugging": 17662, "##\u05dd": 29800, "occasion": 6686, "eliot": 16292, "piled": 17835, "rehabilitation": 11252, "uss": 7234, "symmetry": 14991, "##\u2075": 30074, "southward": 22161, "donnell": 18016, "taxi": 10095, "nominate": 23388, "unharmed": 28150, "##\u2033": 30067, "[unused790]": 795, "##gue": 9077, "patented": 16719, "##ly": 2135, "assists": 8456, "##\u5fc3": 30375, "crude": 13587, "##bered": 22408, "loyal": 8884, "##mium": 27759, "stealth": 22150, "##rcus": 29006, "plump": 26731, "stress": 6911, "wa": 11333, "##\uff0e": 30517, "frankly": 19597, "reign": 5853, "dipping": 23427, "##\u963f": 30497, "fuck": 6616, "##kow": 24144, "rangers": 7181, "sahib": 23513, "tide": 10401, "woman": 2450, "whisper": 7204, "bump": 16906, "##22": 19317, "##ala": 7911, "\u0570": 1228, "resolutions": 18853, "princes": 12000, "resisted": 13335, "abel": 16768, "weddings": 20429, "lumpur": 17761, "heaved": 19970, "paths": 10425, "##erate": 22139, "headlining": 26533, "ciudad": 20759, "rio": 5673, "gorgeous": 9882, "nomadic": 21702, "cannabis": 17985, "oct": 13323, "lough": 29504, "polk": 20819, "slender": 10944, "slavery": 8864, "challenger": 12932, "war": 2162, "kite": 20497, "nowhere": 7880, "prosperity": 14165, "deteriorated": 20111, "olympics": 3783, "integrate": 17409, "kong": 4290, "phillip": 10852, "investigators": 14766, "##tten": 25970, "anchorage": 21086, "antennae": 28624, "patrick": 4754, "[unused184]": 189, "obstacles": 15314, "aero": 18440, "lighting": 7497, "token": 19204, "lauren": 10294, "1560": 29185, "[unused832]": 837, "excavation": 16456, "tied": 5079, "marlins": 27055, "olivier": 14439, "##ounded": 26240, "renewed": 9100, "##akes": 20060, "reaching": 4285, "guangzhou": 18693, "##dding": 27027, "trusts": 20278, "##ssed": 29417, "paralyzed": 22348, "scarce": 18782, "pakistani": 9889, "margin": 7785, "alert": 9499, "settle": 7392, "selection": 4989, "explanations": 17959, "##eth": 11031, "\u3064": 1664, "undone": 25757, "##rva": 19146, "assistant": 3353, "##aring": 22397, "moaned": 12557, "##\u7cf9": 30460, "##\u6d77": 30428, "thanksgiving": 15060, "bravo": 17562, "japan": 2900, "[unused860]": 865, "sonya": 27926, "##trum": 24456, "sanctuary": 8493, "embankment": 22756, "gables": 27008, "mob": 11240, "##owe": 29385, "[unused972]": 977, "##iform": 22631, "80": 3770, "myers": 13854, "bouncing": 16361, "##ssel": 21218, "\u25a0": 1617, "crunch": 24514, "alongside": 4077, "inches": 5282, "redskins": 17461, "orchestrated": 23339, "ramirez": 15206, "##dington": 21504, "official": 2880, "##egorical": 27203, "specification": 12827, "decoration": 11446, "sky": 3712, "cup": 2452, "tidal": 15065, "bullock": 25200, "suppressed": 13712, "pool": 4770, "adventure": 6172, "autonomous": 8392, "##nu": 11231, "marsh": 9409, "accidents": 13436, "hopped": 17230, "rattling": 26347, "culminating": 16979, "\u02e3": 1153, "nicole": 9851, "befriended": 23386, "grinding": 16153, "decent": 11519, "prussia": 10724, "tops": 13284, "components": 6177, "billions": 25501, "##\u03c0": 29731, "##horn": 9769, "aj": 19128, "tumor": 13656, "paraguay": 13884, "rub": 14548, "astros": 22058, "nj": 19193, "capability": 10673, "princely": 22771, "##bbed": 15499, "tierney": 26198, "##ark": 17007, "##\"": 29613, "father": 2269, "##\u03b7\u03c2": 29155, "correlated": 23900, "clips": 15281, "scale": 4094, "258": 24398, "perry": 6890, "lattice": 17779, "pigs": 14695, "computer": 3274, "stride": 18045, "##ette": 7585, "kangaroo": 21652, "mp": 6131, "cheerful": 18350, "th": 16215, "##ials": 26340, "##borough": 10235, "inviting": 15085, "wry": 24639, "##\u2097": 30095, "##ksha": 28132, "processes": 6194, "almeida": 29555, "alexei": 21219, "ill": 5665, "glances": 13021, "primetime": 18474, "cobb": 17176, "temps": 29023, "certainly": 5121, "vc": 18315, "geologist": 21334, "followed": 2628, "casa": 14124, "##ios": 10735, "elijah": 14063, "sql": 29296, "stays": 12237, "##ako": 20411, "susanna": 26681, "defaulted": 17265, "sexuality": 13798, "##nberg": 11144, "##enting": 26951, "##wyn": 11761, "##wright": 26460, "##uled": 18696, "diabetes": 14671, "[unused363]": 368, "pushing": 6183, "infantry": 3939, "sudden": 5573, "pegasus": 26606, "harder": 6211, "pious": 25020, "[unused866]": 871, "##85": 27531, "mann": 10856, "##iff": 13355, "##\u3072": 30199, "probability": 9723, "toyota": 11742, "foley": 17106, "dryly": 20825, "##\u1100": 29991, "bey": 20289, "brett": 12049, "gotten": 5407, "went": 2253, "preston": 8475, "[unused780]": 785, "[unused880]": 885, "##park": 14432, "grind": 23088, "handgun": 28497, "discouraged": 22585, "huh": 9616, "drives": 9297, "##von": 17789, "flowering": 10902, "memory": 3638, "monasteries": 15947, "hit": 2718, "sunglasses": 17072, "chinese": 2822, "##ocytes": 28788, "##lice": 13231, "bicycle": 10165, "sparkled": 28092, "universal": 5415, "ravine": 23188, "glucose": 18423, "feb": 13114, "distortion": 20870, "deposition": 19806, "contrasts": 23347, "dividing": 16023, "vocabulary": 16188, "30th": 13293, "\u533a": 1782, "unincorporated": 7754, "girl": 2611, "expressway": 11720, "##forth": 15628, "##rgen": 25892, "edges": 7926, "[unused797]": 802, "tournament": 2977, "##grad": 16307, "nouns": 19211, "patiently": 19080, "date": 3058, "titan": 16537, "dismay": 20006, "lullaby": 29149, "bridges": 7346, "spoil": 27594, "winced": 15574, "byron": 12234, "meadows": 13524, "ropes": 14607, "teams": 2780, "[unused242]": 247, "replicate": 28024, "leger": 26523, "armistice": 19125, "mall": 6670, "patty": 17798, "granted": 4379, "85": 5594, "mimi": 20705, "retirement": 5075, "exemption": 19621, "rocking": 14934, "##trom": 13887, "kramer": 16322, "exiled": 14146, "cautiously": 15151, "sits": 7719, "mina": 19808, "guildford": 26353, "198": 20003, "bruce": 5503, "juicy": 28900, "cocaine": 16034, "hesitate": 16390, "kitty": 14433, "##dor": 7983, "bids": 20723, "bae": 25818, "rt": 19387, "\u00a32": 21853, "competent": 17824, "##\u0987": 29885, "##ca": 3540, "chaplin": 23331, "loses": 12386, "styles": 6782, "##\u0ba9": 29923, "##hering": 22658, "##ffs": 21807, "biomass": 28148, "herb": 12810, "conversions": 25834, "flung": 14016, "bible": 6331, "##lius": 15513, "[unused289]": 294, "darted": 14051, "offering": 5378, "##\u110f": 30002, "gregory": 7296, "##osi": 20049, "holocaust": 11513, "cinematic": 21014, "principles": 6481, "ka": 10556, "##xious": 25171, "whitney": 9809, "arena": 5196, "##\u30e7": 30256, "##dity": 25469, "gravely": 28070, "[unused929]": 934, "##in": 2378, "##\u2011": 30049, "safe": 3647, "hat": 6045, "floral": 18686, "questioned": 8781, "survey": 5002, "pulp": 16016, "damage": 4053, "##uated": 16453, "[unused673]": 678, "lions": 7212, "shining": 9716, "dubious": 22917, "[unused11]": 12, "weed": 17901, "##\u0e15": 29947, "channels": 6833, "alexa": 24969, "refugee": 13141, "##cha": 7507, "catcher": 13795, "aldo": 28163, "##get": 18150, "peter": 2848, "ming": 11861, "##oked": 23461, "bun": 21122, "appearances": 3922, "secretly": 10082, "##\u0f66": 29972, "vichy": 29177, "predictable": 21425, "turkey": 4977, "curvature": 25045, "earls": 27371, "poker": 11662, "##rrie": 22155, "mcmillan": 27436, "##chase": 26300, "1642": 24061, "##ron": 4948, "\u05e7": 1264, "marino": 17185, "rey": 12569, "commonly": 4141, "dahl": 27934, "##ise": 5562, "hasan": 17000, "amelia": 11556, "##morphic": 18078, "becoming": 3352, "dangers": 16796, "choosing": 10549, "recorder": 14520, "##zio": 12426, "1753": 23810, "thinkers": 24762, "desire": 4792, "sector": 4753, "?": 1029, "##hea": 20192, "diablo": 28841, "[unused507]": 512, "revolves": 19223, "\u03b9": 1163, "pulitzer": 17618, "premio": 23031, "fairness": 26935, "rubbed": 7503, "##57": 28311, "maclean": 22528, "coordinates": 12093, "bedrock": 28272, "silvia": 27827, "german": 2446, "goth": 25976, "interred": 13917, "[unused138]": 143, "pow": 23776, "momentarily": 16032, "phil": 6316, "delivery": 6959, "##\u4e00": 30266, "espionage": 21003, "towed": 18948, "streaks": 21295, "ji": 10147, "cylinder": 7956, "afforded": 22891, "##\u738b": 30435, "freaks": 29526, "untitled": 24819, "exploration": 8993, "horatio": 27752, "bolivian": 26075, "cf": 12935, "parallels": 18588, "moniker": 21937, "volleyball": 7454, "47th": 28243, "##\u10dc": 29985, "fingers": 3093, "##,": 29623, "kernel": 16293, "\u53f8": 1791, "welfare": 7574, "modelled": 23364, "exercised": 17747, "numbering": 15200, "##anga": 18222, "##sque": 17729, "cantor": 26519, "[unused20]": 21, "remember": 3342, "##gnon": 26977, "meta": 18804, "davis": 4482, "electrical": 5992, "ely": 20779, "dawned": 27702, "airfields": 25278, "staying": 6595, "emancipation": 22656, "narration": 21283, "patients": 5022, "moat": 25266, "##dron": 19440, "##sberg": 11711, "1953": 4052, "shane": 8683, "lion": 7006, "linebacker": 15674, "kitchen": 3829, "##titled": 21309, "account": 4070, "sept": 17419, "masks": 15806, "\u5341": 1783, "glee": 18874, "supervisor": 12366, "brushed": 7765, "##istle": 24242, "ferns": 25715, "heather": 9533, "##care": 16302, "breeds": 15910, "##nesian": 20281, "ponder": 29211, "randomly": 18154, "##\u5cf6": 30359, "##kat": 24498, "undergoes": 29129, "amsterdam": 7598, "ninety": 13568, "moors": 24812, "##\u10d7": 29980, "authorities": 4614, "reel": 15934, "lingered": 17645, "arrogant": 15818, "duty": 4611, "understands": 19821, "##kh": 10023, "##vino": 26531, "fabian": 21174, "##gard": 13444, "leaves": 3727, "##ious": 6313, "trustees": 9360, "centers": 6401, "mayer": 14687, "derivative": 13819, "jordan": 5207, "natalia": 21521, "##\u03bf\u03c2": 15297, "##\u09a3": 29897, "##nidae": 29135, "over": 2058, "gigantic": 20193, "autumn": 7114, "##\u116f": 30015, "feared": 8615, "thinking": 3241, "missions": 6416, "carolina": 3792, "purchasing": 13131, "##run": 15532, "allowing": 4352, "pastoral": 13645, "stop": 2644, "todd": 6927, "penny": 10647, "zinc": 15813, "\u10dc": 1449, "crawled": 12425, "##iger": 17071, "mustache": 28786, "achievement": 6344, "battleship": 17224, "travelled": 7837, "[unused304]": 309, "##tered": 14050, "##tro": 13181, "##lass": 27102, "overseen": 22485, "corners": 8413, "colourful": 26102, "notoriety": 23215, "##dial": 27184, "##gin": 11528, "142": 16087, "balfour": 27560, "ins": 16021, "suggesting": 9104, "willis": 12688, "##vu": 19722, "aim": 6614, "recommendation": 12832, "lester": 14131, "barony": 19365, "amalgamation": 21968, "##kt": 25509, "##mmel": 29033, "sixty": 8442, "herr": 23506, "fc": 4429, "pomeranian": 17717, "lifespan": 26462, "turin": 13667, "harassed": 28186, "cyclist": 14199, "cites": 17248, "workplace": 16165, "##kian": 28545, "##iving": 14966, "1958": 3845, "viruses": 18191, "##erry": 19826, "freedom": 4071, "faerie": 27498, "##tance": 26897, "reported": 2988, "[unused681]": 686, "ross": 5811, "##gun": 12734, "macmillan": 15434, "holland": 7935, "viaduct": 20596, "coefficients": 21374, "overhaul": 18181, "debbie": 16391, "bertram": 27515, "lithium": 22157, "worm": 15485, "strategy": 5656, "retailers": 16629, "##tis": 7315, "##skaya": 23070, "am": 2572, "prominence": 12144, "canada": 2710, "mimic": 23150, "petition": 9964, "##osaurus": 25767, "ginger": 14580, "flashed": 8373, "##ish": 4509, "irvine": 16272, "unlikely": 9832, "tube": 7270, "betty": 9306, "zoom": 24095, "226": 21035, "ongoing": 7552, "rus": 22949, "bulb": 20581, "live": 2444, "overhead": 8964, "boston": 3731, "##\u2208": 30124, "maroon": 22222, "declaring": 13752, "basque": 13915, "prizes": 11580, "electrified": 18042, "district": 2212, "[unused943]": 948, "=": 1027, "[unused625]": 630, "debut": 2834, "enlightenment": 16724, "differed": 19541, "fallout": 23902, "vega": 15942, "overcoming": 27363, "##chester": 25322, "discipline": 9009, "blockade": 15823, "##\u00b4": 29658, "patrol": 6477, "springer": 17481, "reconciled": 28348, "shards": 23327, "completed": 2949, "graf": 22160, "document": 6254, "morris": 6384, "psychedelic": 18147, "startled": 9696, "##head": 4974, "##rium": 18802, "indeed": 5262, "itf": 27682, "##chemist": 24229, "duties": 5704, "awarded": 3018, "1819": 12552, "solid": 5024, "##\u4e8b": 30277, "render": 17552, "##arion": 27548, "bare": 6436, "\u5742": 1803, "initiate": 17820, "##onne": 18256, "##\u10d8": 29981, "rubbing": 10137, "waste": 5949, "##ds": 5104, "sparsely": 24961, "[unused333]": 338, "\u04cf": 1218, "##note": 22074, "u2": 23343, "[unused893]": 898, "voter": 14303, "nest": 9089, "##pire": 20781, "##nate": 12556, "\u10d0": 1438, "mountain": 3137, "##yd": 25688, "##ulous": 16203, "vessels": 6470, "expansion": 4935, "objectives": 11100, "differentiate": 21032, "##eche": 27635, "salzburg": 18369, "thief": 12383, "vinci": 23765, "adobe": 18106, "archaeology": 12009, "tucked": 9332, "suspend": 28324, "##iser": 17288, "colonial": 5336, "daughters": 5727, "##tier": 17579, "[unused281]": 286, "sg": 22214, "plight": 24525, "radiation": 8249, "moroccan": 17494, "views": 5328, "commodity": 19502, "exceptions": 11790, "stockings": 26412, "drilled": 24311, "##unciation": 24101, "spanish": 3009, "reward": 10377, "gunslinger": 29274, "pigeons": 27567, "posting": 14739, "parent": 6687, "andrew": 4080, "sheets": 8697, "citizen": 6926, "motown": 22654, "yale": 7996, "\u0432": 1182, "robert": 2728, "meath": 26856, "stamford": 22469, "gaddafi": 28924, "garner": 18661, "loves": 7459, "writ": 25697, "navigable": 28538, "reflect": 8339, "1778": 16331, "mosque": 8806, "costello": 21015, "##oured": 16777, "hahn": 24266, "audible": 19525, "505": 28952, "sway": 17812, "effectiveness": 12353, "##tto": 9284, "relatives": 9064, "##rta": 13320, "easing": 24070, "crypt": 19888, "linguistics": 15397, "\u09c0": 1380, "##proof": 18907, "sleeper": 24372, "judgments": 26186, "developer": 9722, "successfully": 5147, "[unused253]": 258, "looting": 29367, "villain": 12700, "shenzhen": 26555, "ono": 21058, "sins": 15516, "commands": 10954, "stalker": 23883, "justices": 19867, "[unused107]": 112, "31st": 17089, "playing": 2652, "genera": 11416, "[unused957]": 962, "##23": 21926, "otago": 21831, "##arm": 27292, "[unused121]": 126, "week": 2733, "backstage": 20212, "calls": 4455, "hicks": 17221, "##cco": 21408, "lantern": 12856, "differentiated": 24374, "bart": 12075, "reno": 17738, "##mmy": 18879, "infectious": 16514, "extreme": 6034, "approximation": 20167, "expresses": 16783, "rochester": 10541, "archway": 28189, "comprehension": 26683, "\u5c07": 1828, "very": 2200, "207": 19843, "barracks": 10492, "[unused264]": 269, "clemson": 25906, "bait": 17395, "##\u30d5": 30246, "marshall": 5832, "anal": 20302, "bursts": 19239, "sweeping": 12720, "##\u093f": 29877, "cork": 8513, "kahn": 19361, "beef": 12486, "grit": 24842, "\u7248": 1907, "wince": 29585, "conducting": 9283, "cheng": 15898, "[unused713]": 718, "hackett": 28630, "ghent": 24202, "##isk": 20573, "boulders": 22177, "##ario": 16843, "displaced": 12936, "wake": 5256, "##vere": 28943, "community": 2451, "bridgeport": 27986, "##ald": 19058, "member": 2266, "\u0e21": 1415, "eastern": 2789, "nascar": 11838, "breton": 16659, "troops": 3629, "##lative": 26255, "abolitionist": 29554, "newborn": 20662, "##anus": 20849, "companies": 3316, "simpler": 16325, "sticking": 13423, "lyrics": 4581, "jacobite": 28725, "excavated": 15199, "chu": 14684, "tor": 17153, "clue": 9789, "won": 2180, "accused": 5496, "hatfield": 26853, "[unused360]": 365, "185": 15376, "nunez": 28454, "prelude": 19508, "naples": 10553, "ability": 3754, "[unused301]": 306, "genuine": 10218, "sentinel": 16074, "fear": 3571, "renovation": 10525, "readiness": 19822, "darker": 9904, "enrico": 21982, "relaunched": 26391, "##tur": 20689, "[unused631]": 636, "humans": 4286, "aria": 9342, "##ions": 8496, "privileged": 21598, "extremely": 5186, "gleaming": 18242, "braced": 15515, "unable": 4039, "causeway": 23336, "affiliate": 8727, "moi": 25175, "fm": 4718, "statehood": 28000, "tuck": 18029, "##hot": 12326, "hodge": 23148, "##cc": 9468, "\u826f": 1938, "manufactures": 22027, "mills": 6341, "interaction": 8290, "subconscious": 27952, "caucus": 13965, "##ucible": 21104, "##elo": 18349, "##ostal": 29381, "##onzo": 29452, "tempered": 22148, "consumer": 7325, "usual": 5156, "149": 17332, "[unused286]": 291, "propelled": 15801, "elle": 15317, "scents": 29254, "judged": 13224, "vedic": 25824, "vinyl": 8877, "##just": 29427, "##cts": 16649, "descriptions": 13271, "bobo": 27418, "hummed": 26747, "chilling": 27017, "slower": 12430, "##ngo": 16656, "occur": 5258, "402": 28048, "answered": 4660, "[unused572]": 577, "##ato": 10610, "leaped": 16900, "importantly": 14780, "wong": 11789, "jonas": 10680, "diva": 25992, "[unused479]": 484, "faintly": 18587, "sabah": 22515, "dar": 18243, "stamp": 11359, "impatience": 28011, "conservatives": 11992, "\u4eac": 1755, "landslide": 20148, "vassal": 24351, "##routed": 25849, "medici": 22605, "accomplishment": 24718, "inventory": 12612, "##gt": 13512, "alarms": 29034, "shouting": 11273, "born": 2141, "esteem": 19593, "##lk": 13687, "fay": 23201, "basis": 3978, "\u0563": 1221, "hunters": 9624, "wanna": 10587, "powerplant": 19526, "dining": 7759, "##org": 21759, "endless": 10866, "porch": 7424, "[unused598]": 603, "malicious": 24391, "##boot": 27927, "feature": 3444, "theatre": 3004, "nominal": 15087, "##eve": 18697, "##mour": 20360, "equipment": 3941, "[unused374]": 379, "[unused216]": 221, "49": 4749, "anticipated": 11436, "osborn": 26999, "monastic": 17361, "##iferous": 23930, "regimes": 25228, "brianna": 25558, "verity": 22178, "watering": 25813, "##scribe": 29234, "supervised": 13588, "raced": 8255, "ark": 15745, "##roid": 22943, "correspondence": 11061, "limp": 14401, "awards": 2982, "##bino": 21891, "##ety": 27405, "switches": 15924, "biker": 28988, "guts": 18453, "strongest": 10473, "shaded": 25273, "yank": 23178, "flourishing": 29571, "explores": 15102, "##urrent": 29264, "speeches": 13867, "edged": 13011, "299": 25926, "strike": 4894, "1640": 21533, "facades": 28708, "##lson": 14881, "1683": 27414, "luminous": 25567, "softened": 16573, "slab": 17584, "apparent": 6835, "knob": 16859, "##ej": 20518, "##ab": 7875, "##dale": 5634, "riga": 17557, "##ones": 21821, "wandering": 13071, "gertrude": 18734, "retail": 7027, "translit": 28468, "sci": 16596, "pm": 7610, "[unused307]": 312, "jobs": 5841, "gram": 13250, "rattle": 23114, "lowry": 27281, "##some": 14045, "woodland": 11051, "screamed": 7210, "notable": 3862, "watery": 28259, "trail": 4446, "gambling": 12219, "drunk": 7144, "modify": 19933, "##enberg": 11029, "grouped": 15131, "sinks": 23462, "garrison": 8427, "clutches": 29497, "ascended": 19644, "##ord": 8551, "wickets": 10370, "saxe": 24937, "dropping": 7510, "##vich": 12933, "toilet": 11848, "bolivar": 22118, "##som": 25426, "[unused614]": 619, "barak": 27739, "northern": 2642, "adults": 6001, "##hy": 10536, "1955": 3982, "haydn": 25595, "experiencing": 13417, "obeyed": 22665, "nanny": 19174, "##ffi": 26989, "brewery": 12161, "concerning": 7175, "##isation": 6648, "##inda": 23938, "railing": 15747, "staggered": 14648, "##\u967d": 30499, "lahore": 15036, "amazement": 21606, "salazar": 25315, "partnerships": 13797, "kinetic": 20504, "catches": 11269, "outset": 26674, "donations": 11440, "make": 2191, "watched": 3427, "juarez": 25398, "##rove": 17597, "virtue": 11870, "col": 8902, "cathy": 18305, "##rick": 11285, "##xia": 14787, "fascism": 23779, "raider": 27826, "helplessly": 24942, "midtown": 27219, "innovations": 15463, "sud": 19219, "concentration": 6693, "conducts": 17976, "tackle": 11147, "##dus": 17619, "henley": 20768, "abroad": 6917, "eyed": 7168, "hidalgo": 24715, "puppet": 13997, "progressed": 12506, "##nated": 23854, "##tick": 26348, "liberia": 18039, "shirts": 11344, "liable": 20090, "greedy": 20505, "halfway": 8576, "1863": 6899, "swami": 20087, "##fighting": 22158, "pair": 3940, "hangul": 19051, "disciplines": 12736, "sonata": 14681, "refurbished": 18662, "##hop": 18471, "##\u00f8y": 27688, "##rsa": 22381, "##ecin": 28191, "chilean": 12091, "##orio": 27416, "##pse": 29251, "during": 2076, "##arina": 27943, "bergen": 12674, "scissors": 25806, "##pants": 27578, "gallons": 18501, "prescott": 20719, "stampede": 29375, "carlo": 9758, "founders": 8759, "fk": 14352, "competes": 14190, "nehru": 23556, "kolkata": 13522, "send": 4604, "comic": 5021, "equation": 8522, "deceased": 10181, "tragic": 13800, "fleeing": 14070, "##trics": 29392, "dunn": 14145, "confession": 12633, "inflicted": 17303, "volley": 28073, "chalmers": 29069, "##etched": 29574, "##boat": 11975, "instructor": 9450, "negotiations": 7776, "trumpeter": 28220, "subjective": 20714, "tracks": 3162, "rejoined": 14311, "##emann": 17545, "\u1019": 1437, "pits": 14496, "harmonica": 16527, "##eles": 26741, "mt": 11047, "##olo": 12898, "departure": 6712, "agenda": 11376, "orthodoxy": 26582, "##script": 22483, "transient": 25354, "fluttered": 18360, "##\u0629": 19433, "##ison": 10929, "\u30a6": 1696, "battleships": 21327, "newmarket": 22489, "approve": 14300, "darryl": 22821, "fiesta": 24050, "formula": 5675, "appalled": 29279, "huey": 29503, "carriages": 17744, "disliked": 18966, "utrecht": 18361, "stating": 5517, "sousa": 28535, "fielding": 15452, "brentford": 26550, "yuki": 24924, "illegally": 17800, "insignia": 16751, "faculties": 18658, "projecting": 18398, "still": 2145, "siam": 25583, "ut": 21183, "build": 3857, "territorial": 7894, "vlad": 19163, "bee": 10506, "styling": 20724, "malta": 9933, "kerala": 8935, "##thed": 23816, "term": 2744, "tread": 29449, "crowded": 10789, "toss": 10055, "cues": 23391, "converted": 4991, "gunnar": 26138, "60s": 20341, "processed": 13995, "symbol": 6454, "siblings": 9504, "buena": 27493, "ranked": 4396, "hounds": 27772, "westminster": 9434, "##ham": 3511, "nosed": 29338, "point": 2391, "worlds": 8484, "passions": 25289, "##\u00b9": 27904, "enable": 9585, "##eem": 21564, "rides": 12271, "nights": 6385, "transcribed": 26223, "##illo": 10486, "logic": 7961, "laced": 17958, "existing": 4493, "phonetic": 26664, "newcastle": 8142, "altogether": 10462, "researching": 20059, "##rified": 22618, "zhu": 15503, "collaborative": 12317, "bared": 23485, "libya": 12917, "graders": 23256, "\u0938": 1338, "##lish": 13602, "[unused2]": 3, "\u2015": 1518, "##vana": 27313, "gender": 5907, "##tino": 25690, "foreword": 23059, "fivb": 28423, "resolution": 5813, "executing": 23448, "[unused394]": 399, "##bry": 25731, "mortar": 14335, "##ck": 3600, "[unused137]": 142, "##dable": 20782, "[unused9]": 10, "[unused26]": 27, "heat": 3684, "snuck": 24492, "sensation": 8742, "1880s": 12751, "##kshi": 27488, "regiments": 10435, "stopped": 3030, "mps": 12616, "reversal": 23163, "417": 27519, "##\u1d43": 30032, "tensed": 15225, "nail": 13774, "pr": 10975, "[unused151]": 156, "bwf": 21215, "yoko": 28758, "##open": 26915, "tipped": 11182, "abbot": 11428, "founded": 2631, "percussion": 6333, "gig": 15453, "influenced": 5105, "communicate": 10639, "records": 2636, "attacks": 4491, "dimly": 25361, "credits": 6495, "requesting": 17942, "imports": 17589, "sport": 4368, "1759": 21667, "employers": 12433, "monty": 18446, "\uff0c": 1989, "scored": 3195, "hive": 26736, "##ai": 4886, "##ull": 18083, "\u308c": 1688, "lifelong": 13506, "havre": 28890, "\u1172": 1480, "\u05d3": 1244, "blaine": 20002, "vulgar": 29364, "\u00a2": 1068, "feudal": 16708, "abby": 9460, "kept": 2921, "##tosis": 25950, "##works": 9316, "sedan": 15134, "denise": 15339, "ste": 26261, "long": 2146, "shoots": 11758, "intensive": 11806, "1860s": 15914, "onward": 15834, "##\u4eee": 30287, "marianne": 19887, "reptiles": 20978, "dominated": 6817, "[unused566]": 571, "assurance": 16375, "tenant": 16713, "beating": 6012, "##uan": 13860, "vii": 8890, "showtime": 23811, "##mics": 22924, "exaggerated": 16903, "bel": 19337, "graffiti": 17990, "##tlement": 24007, "requires": 5942, "ezra": 16245, "critically": 11321, "[unused683]": 688, "messiah": 22112, "paced": 13823, "seventeenth": 15425, "\u06a9": 1304, "hut": 12570, "\u9fb8": 1983, "dash": 11454, "wandered": 13289, "literal": 18204, "videos": 6876, "decidedly": 27873, "mounts": 19363, "commission": 3222, "supervisory": 26653, "##\u5149": 30296, "\u222a": 1605, "carp": 29267, "interested": 4699, "problem": 3291, "##cated": 12921, "##ble": 3468, "trick": 7577, "##nare": 26148, "jane": 4869, "##zos": 28370, "comparative": 12596, "kenji": 25894, "##lica": 19341, "headlines": 19377, "freeze": 13184, "smart": 6047, "##ode": 10244, "museums": 9941, "##\u0925": 29860, "peeking": 28222, "transmitted": 11860, "remarks": 12629, "##kovic": 14733, "moody": 14434, "rodeo": 18936, "ministers": 7767, "burgess": 17754, "burlington": 15552, "wes": 14008, "restraining": 28285, "souza": 26598, "fibers": 16662, "pl": 20228, "heavier": 11907, "psychiatry": 18420, "devoted": 7422, "bypass": 11826, "[unused661]": 666, "stumbling": 19730, "##orne": 23846, "storytelling": 20957, "convert": 10463, "adopting": 16151, "##lce": 23314, "medicines": 20233, "jody": 27562, "complexity": 11619, "attaining": 26615, "##\u30fc": 30265, "ot": 27178, "arise": 13368, "neighborhoods": 11681, "1921": 4885, "##gned": 19225, "##\u09ac": 29904, "[unused248]": 253, "flew": 5520, "seattle": 5862, "generation": 4245, "preached": 21491, "wet": 4954, "sabbath": 19546, "bain": 28477, "plurality": 29018, "chiba": 27368, "nomination": 6488, "\u65b9": 1863, "alive": 4142, "humanity": 8438, "narratives": 22143, "practiced": 9051, "##yla": 23943, "invitations": 29492, "##cta": 25572, "stefano": 19618, "##bber": 29325, "reviewing": 15252, "hosted": 4354, "furnished": 19851, "necklace": 13016, "bombed": 18897, "survive": 5788, "lent": 15307, "clergy": 11646, "corpses": 18113, "methodist": 8938, "emails": 22028, "phoebe": 18188, "##unt": 16671, "wyoming": 10622, "cromwell": 16759, "\u4e3b": 1747, "tom": 3419, "arson": 24912, "suburbs": 9435, "alps": 13698, "##manship": 21530, "boulder": 13264, "matter": 3043, "##ity": 3012, "ashore": 16145, "theological": 9208, "##oslav": 23085, "chosen": 4217, "wien": 22782, "357": 26231, "performance": 2836, "denominations": 17384, "##resses": 25932, "marko": 28003, "##nen": 10224, "regretted": 18991, "enhancing": 20226, "unfolded": 23959, "rendered": 10155, "localities": 19664, "403": 28203, "##fying": 14116, "##po": 6873, "bacon": 11611, "sporadic": 24590, "ron": 6902, "doris": 15467, "woodstock": 21028, "##rse": 22573, "parks": 6328, "libel": 26201, "willow": 11940, "recoil": 27429, "##it": 4183, "pumping": 14107, "reworked": 27575, "plaintiffs": 23953, "specific": 3563, "beautifully": 17950, "bce": 10705, "wrongly": 29116, "tc": 22975, "##\u0640": 29832, "inhabit": 21490, "attract": 9958, "failing": 7989, "shook": 3184, "suppression": 16341, "##nted": 14706, "railroad": 4296, "errors": 10697, "larvae": 9673, "xp": 26726, "letters": 4144, "multicultural": 27135, "undergone": 17215, "prostate": 25086, "jung": 11810, "tuna": 24799, "##\u5e7f": 30368, "harpsichord": 26504, "highways": 10292, "distinguish": 10782, "[unused65]": 66, "48": 4466, "tory": 17117, "600": 5174, "cambrian": 29228, "angry": 4854, "##mare": 24376, "tim": 5199, "spectrum": 8674, "smoking": 9422, "ah": 6289, "oclc": 12258, "27th": 15045, "wei": 11417, "throbbing": 17061, "[unused190]": 195, "alloys": 28655, "##\u091a": 29854, "rock": 2600, "##race": 22903, "nut": 17490, "guns": 4409, "##top": 14399, "[unused198]": 203, "##up": 6279, "climax": 14463, "kills": 8563, "highlighted": 11548, "requiring": 9034, "##lai": 19771, "\u10e0": 1451, "hamid": 24811, "medal": 3101, "\u05e1": 1258, "strait": 11195, "##alla": 25425, "mastered": 15682, "subsequently": 3525, "default": 12398, "jim": 3958, "improper": 24156, "praise": 8489, "grassroots": 23299, "cartoons": 13941, "dimensional": 8789, "crowns": 24364, "francaise": 18427, "##\u10d4": 29978, "\u5c1a": 1830, "tutor": 14924, "algiers": 22947, "hannah": 8410, "1659": 28288, "heats": 18559, "1927": 4764, "lasers": 23965, "rb": 21144, "piers": 16067, "pp": 4903, "submerged": 13563, "coating": 18898, "giggling": 21783, "dolphin": 17801, "copper": 6967, "beer": 5404, "mbe": 20301, "##\u540c": 30320, "vaguely": 15221, "directs": 23303, "claudio": 19569, "forcibly": 20951, "sets": 4520, "[unused4]": 5, "adjustments": 24081, "##ilia": 27861, "##_": 29638, "##ba": 3676, "239": 23688, "1682": 29478, "##oped": 24174, "bergman": 24544, "umpire": 20887, "valiant": 24329, "##iver": 16402, "##ragan": 28905, "paralympics": 15600, "uncle": 4470, "\u30a4": 1695, "barbarians": 28056, "oldies": 26826, "[unused738]": 743, "workers": 3667, "crouch": 21676, "spawn": 25645, "clare": 11152, "##ela": 10581, "epilogue": 24297, "skirt": 9764, "melodies": 16106, "##ok": 6559, "151": 16528, "mane": 23055, "psychic": 12663, "seven": 2698, "polly": 17543, "combo": 25025, "proponents": 20401, "##veda": 28614, "goodwin": 19928, "equal": 5020, "fold": 10671, "2500": 25108, "have": 2031, "dozens": 9877, "##vation": 21596, "cite": 21893, "job": 3105, "136": 15407, "preserving": 15224, "##uz": 17040, "##eia": 27958, "dots": 14981, "burnham": 25295, "##kota": 27380, "someday": 13834, "breast": 7388, "substituted": 17316, "##tment": 21181, "credibility": 21553, "destined": 16036, "weaknesses": 21775, "brodie": 27379, "cell": 3526, "##ma": 2863, "plastic": 6081, "evolving": 20607, "austrian": 6161, "##lb": 20850, "outcomes": 13105, "achilles": 23167, "##gor": 20255, "##tism": 17456, "simultaneous": 17424, "nero": 19212, "sumo": 28193, "[unused863]": 868, "thriller": 10874, "campuses": 13696, "substance": 9415, "[unused463]": 468, "[unused930]": 935, "bundled": 24378, "ladder": 10535, "everett": 15160, "crete": 19111, "ample": 20851, "bengali": 11267, "trojan": 23445, "##rzburg": 29136, "\u2264": 1608, "retrieved": 5140, "##ifolia": 29244, "[unused575]": 580, "screw": 11224, "##gating": 16961, "1609": 28058, "offers": 4107, "glow": 8652, "speaker": 5882, "##champ": 25450, "faded": 8105, "zack": 13658, "normally": 5373, "[unused191]": 196, "kidnap": 22590, "##cala": 25015, "\u30b1": 1703, "pearce": 19560, "independently": 9174, "cries": 12842, "francoise": 28979, "shed": 8328, "unlawful": 22300, "ebert": 22660, "commendation": 23039, "##view": 8584, "boxed": 27554, "newsletter": 17178, "##joy": 24793, "onions": 24444, "##\u3002": 30162, "restaurants": 7884, "##\u0bb2": 29928, "innings": 7202, "##ricted": 20623, "dual": 7037, "fontaine": 25749, "flash": 5956, "internship": 22676, "talmud": 24380, "##sari": 22740, "translating": 22969, "paid": 3825, "thumbs": 16784, "yusuf": 23495, "excerpt": 28142, "meiji": 23214, "contains": 3397, "tr": 19817, "##heimer": 18826, "aspect": 7814, "owens": 14824, "[unused201]": 206, "telecommunication": 25958, "agustin": 26889, "showered": 23973, "##hul": 21886, "##\u30db": 30248, "brings": 7545, "wired": 17502, "collingwood": 20044, "formidable": 18085, "graph": 10629, "p": 1052, "ballast": 28030, "vt": 28879, "pressed": 4508, "flop": 28583, "##garh": 13484, "##idium": 28742, "casting": 9179, "\u5b87": 1819, "dusseldorf": 18160, "[unused898]": 903, "alleviate": 24251, "tails": 17448, "archangel": 28185, "malaysia": 6027, "felicia": 27579, "fibre": 20962, "instrument": 6602, "##\u30df": 30250, "sent": 2741, "##vir": 21663, "roth": 12211, "commotion": 23960, "sunni": 18883, "##dah": 18417, "escapes": 12976, "masonic": 21152, "skaters": 24789, "shuttle": 10382, "burned": 5296, "[unused328]": 333, "##ahu": 21463, "##oga": 18170, "reed": 7305, "santana": 21158, "lovely": 8403, "\u0cbe": 1402, "##iom": 18994, "francesco": 11400, "angus": 13682, "director": 2472, "\u116e": 1478, "##eg": 13910, "relinquished": 26566, "principal": 4054, "hawks": 12505, "estimation": 24155, "enormous": 8216, "croft": 28983, "neoclassical": 22657, "[unused565]": 570, "pretend": 9811, "rotational": 25254, "##ative": 8082, "uninhabited": 24749, "columbus": 8912, "##ug": 15916, "primary": 3078, "telugu": 12180, "consensus": 10465, "minor": 3576, "glided": 26936, "##bari": 25990, "highlighting": 20655, "prevented": 8729, "superior": 6020, "muttered": 6250, "parkinson": 20310, "1746": 24507, "belgrade": 10291, "##rked": 19849, "purely": 11850, "lining": 14834, "aztec": 25245, "favorite": 5440, "##\u09b6": 29910, "rushes": 18545, "##\u0643": 29835, "##yles": 26274, "drugged": 25483, "allah": 16455, "unseen": 16100, "of": 1997, "##tas": 10230, "pony": 15606, "downloaded": 22817, "slump": 28702, "heightened": 21106, "roche": 20162, "borrowed": 11780, "grimes": 24865, "plates": 7766, "up": 2039, "virginia": 3448, "divides": 20487, "catfish": 23723, "rudolf": 12794, "paterson": 19162, "##ely": 26006, "[unused91]": 92, "##chan": 14856, "dispute": 7593, "bullet": 7960, "hastily": 15789, "fed": 7349, "\u0648": 1298, "consonants": 19694, "##udes": 22087, "decree": 10037, "durban": 25040, "edmund": 9493, "##balls": 18510, "gabrielle": 16988, "##pre": 28139, "exhaled": 16242, "ominous": 23504, "##oon": 7828, "cheer": 15138, "lil": 13451, "unlock": 19829, "moan": 13673, "downing": 22501, "entrusted": 18011, "swedish": 4467, "vol": 5285, "lock": 5843, "##ager": 17325, "99": 5585, "1978": 3301, "resembled": 15881, "mojo": 28017, "mongolian": 17855, "sounding": 9391, "lange": 21395, "36th": 21460, "comparatively": 20172, "hence": 6516, "nurse": 6821, "unanimous": 13604, "aircraft": 2948, "carrying": 4755, "human": 2529, "slovakia": 10991, "damaging": 15011, "elemental": 19529, "##\u661f": 30392, "1a": 20720, "\u00fe": 1101, "compensated": 29258, "nora": 12306, "grande": 9026, "review": 3319, "gloss": 27068, "environmentally": 25262, "##cens": 19023, "##km": 22287, "1846": 9244, "zeta": 23870, "skeletons": 24365, "##jo": 5558, "erik": 10240, "\u2154": 1582, "exclude": 23329, "##vili": 21661, "##rey": 15202, "\u56d7": 1797, "[unused939]": 944, "schooner": 21567, "unicef": 29073, "parallel": 5903, "croatian": 7963, "scientists": 6529, "vip": 21722, "administrations": 27722, "##hedron": 26440, "sbs": 21342, "banco": 28678, "blasted": 18461, "smash": 15132, "##ports": 25378, "cho": 16480, "manning": 11956, "ports": 8831, "disk": 9785, "photo": 6302, "distinguishing": 20852, "none": 3904, "kazakh": 25907, "annoyance": 17466, "our": 2256, "interact": 11835, "110": 7287, "##vah": 21927, "##sling": 28886, "dhabi": 23153, "furnace": 17533, "shipping": 7829, "##\u208a": 30086, "oversight": 15709, "gonzaga": 26840, "bitterness": 22364, "polymer": 17782, "##\u03ba": 29726, "ava": 10927, "##ridge": 9438, "essentially": 7687, "blindness": 26290, "dat": 23755, "favor": 5684, "monitored": 17785, "roofed": 26080, "[unused849]": 854, "slash": 18296, "vane": 23334, "##rill": 24714, "##tton": 15474, "deprivation": 29516, "dignity": 13372, "dragoons": 28069, "ghana": 9701, "aside": 4998, "old": 2214, "##50": 12376, "##dled": 20043, "basic": 3937, "violet": 8766, "##ava": 12462, "##ddled": 28090, "\u0e2a": 1420, "guardian": 6697, "sichuan": 20980, "jurist": 22757, "\u3072": 1673, "influx": 18050, "ipod": 26322, "publicized": 24928, "controllers": 21257, "\u2605": 1620, "[unused86]": 87, "sequence": 5537, "waltz": 17569, "##elia": 13902, "##kr": 21638, "powerhouse": 24006, "308": 24232, "feet": 2519, "diet": 8738, "fundraising": 15524, "analyst": 12941, "norse": 15342, "tornado": 11352, "immigrants": 7489, "400": 4278, "retire": 11036, "ali": 4862, "vengeance": 14096, "deer": 8448, "initiative": 6349, "alfonso": 13591, "circle": 4418, "##met": 11368, "cooler": 14976, "##tower": 23196, "tully": 25724, "chronological": 23472, "[unused97]": 98, "drought": 14734, "roasted": 28115, "gatherings": 21403, "sparkle": 26831, "sack": 12803, "lacey": 16355, "scrolling": 28903, "setting": 4292, "free": 2489, "survivor": 12084, "cinderella": 21686, "surprisingly": 10889, "vancouver": 6930, "burrows": 22009, "installation": 8272, "430": 19540, "potion": 26722, "ratios": 21879, "gould": 14913, "concentrations": 14061, "sensual": 18753, "jersey": 3933, "whatsoever": 18971, "repairs": 10315, "ashamed": 14984, "aberdeen": 12080, "rosario": 17496, "##xing": 19612, "gunther": 19384, "manifested": 24906, "##lty": 24228, "remastered": 19484, "sal": 16183, "##by": 3762, "embracing": 23581, "##wei": 19845, "##onis": 27296, "steep": 9561, "\u00df": 1096, "jokes": 13198, "sponsor": 10460, "stanza": 29509, "##neo": 23585, "eventual": 9523, "barrio": 25676, "remarkably": 17431, "##rgan": 16998, "\u062f": 1278, "bt": 18411, "angelina": 23847, "distributor": 16632, "winston": 10180, "51": 4868, "rallies": 22867, "alfa": 22989, "irrigation": 12442, "630": 23609, "dell": 12418, "remake": 12661, "219": 20636, "incomplete": 12958, "##2": 2475, "somewhere": 4873, "##\u1d2c": 30026, "laval": 26205, "platinum": 8899, "##tagram": 23091, "sucked": 8631, "333": 21211, "##lston": 21540, "##>": 29631, "able": 2583, "distraction": 14836, "fraudulent": 27105, "factory": 4713, "culture": 3226, "crowned": 10249, "alvarez": 16309, "tajikistan": 23538, "oxidation": 19577, "gujarati": 26428, "##wald": 11191, "##llen": 12179, "##\u0940": 29878, "##ogical": 20734, "##\u79be": 30453, "##powering": 23948, "relocate": 20102, "cheney": 23745, "[unused229]": 234, "##\u0905": 29847, "##igh": 18377, "spread": 3659, "popped": 10538, "compulsion": 27638, "contacted": 11925, "wallet": 15882, "pdf": 11135, "retrieve": 12850, "##rso": 25301, "[unused497]": 502, "xbox": 12202, "1991": 2889, "##\u05dc": 29799, "backlash": 25748, "ought": 11276, "##oum": 24778, "navigation": 9163, "\u30bb": 1708, "medicine": 4200, "olds": 19457, "##rah": 10404, "##num": 19172, "fenton": 27096, "buildings": 3121, "gastropod": 10953, "acronym": 20137, "##khand": 25910, "shelton": 22230, "1925": 4849, "pcs": 27019, "##jou": 23099, "jaguar": 16490, "##unda": 18426, "gu": 19739, "xiv": 15939, "selects": 27034, "##lang": 25023, "marines": 9622, "exclusive": 7262, "first": 2034, "##ella": 8411, "sired": 26940, "encountered": 8567, "compiled": 9227, "cooperate": 17654, "culturally": 20547, "paints": 23262, "sally": 8836, "die": 3280, "prisons": 15996, "every": 2296, "##ema": 14545, "\u771f": 1921, ")": 1007, "probe": 15113, "unbelievable": 23653, "pleading": 16418, "emanuel": 21135, "peruvian": 15432, "guarding": 17019, "healy": 25706, "208": 18512, "\u0dcf": 1408, "future": 2925, "##pher": 27921, "atletico": 16132, "##zam": 20722, "bonds": 9547, "bethlehem": 19360, "richard": 2957, "hobart": 14005, "nerves": 10627, "1858": 8517, "cleaning": 9344, "\u677e": 1880, "sanskrit": 11353, "repetition": 23318, "sudan": 10411, "mirror": 5259, "cannons": 17138, "spinning": 9419, "documentary": 4516, "practice": 3218, "##uve": 22909, "bend": 8815, "##gen": 6914, "legislative": 4884, "##ants": 11390, "timing": 10984, "upscale": 28276, "died": 2351, "##wi": 9148, "mankind": 14938, "##\u062d": 29820, "croix": 18733, "youtube": 7858, "love": 2293, "##sboro": 25623, "smallest": 10479, "roadside": 25131, "doin": 24341, "window": 3332, "##lovic": 29356, "robe": 11111, "williams": 3766, "climb": 7105, "cramer": 29433, "bulk": 9625, "macedonian": 13037, "reviews": 4391, "biking": 28899, "##via": 9035, "scorpion": 22015, "booking": 21725, "outsiders": 22361, "andersson": 28643, "museum": 2688, "recognizable": 20123, "ruthless": 18101, "recycling": 17874, "##hee": 21030, "consulted": 17535, "##rent": 22787, "orthodox": 6244, "linden": 22066, "##ilde": 23891, "bargain": 17113, "rejects": 19164, "landowner": 20270, "documentaries": 15693, "sipped": 17735, "anne": 4776, "boasts": 21979, "##\u0131": 11722, "eighty": 12021, "devil": 6548, "gallantry": 22111, "[unused679]": 684, "conglomerate": 22453, "ventured": 20510, "belarusian": 15626, "clones": 24418, "frequented": 24832, "residue": 21755, "##way": 4576, "necessary": 4072, "44th": 26409, "cricketer": 9490, "tattoo": 11660, "pena": 19409, "[unused329]": 334, "addison": 18403, "food": 2833, "souls": 9293, "##tyle": 27983, "##ange": 22043, "##zo": 6844, "karen": 8129, "[unused389]": 394, "staples": 24533, "butcher": 14998, "seville": 18983, "wounds": 8710, "preserved": 6560, "consecration": 24730, "robber": 27307, "[unused99]": 104, "upstream": 13909, "##mos": 15530, "stamps": 12133, "##strel": 26877, "gong": 17242, "##gging": 12588, "terms": 3408, "jail": 7173, "##urst": 29402, "donor": 15009, "287": 23090, "minorities": 14302, "\u092d": 1330, "fuselage": 13478, "ninth": 6619, "parcels": 28998, "##\u30b5": 30231, "suffer": 9015, "##\u0989": 29886, "sperm": 18047, "vr": 27830, "suffered": 4265, "inspiring": 18988, "##erie": 17378, "raion": 24235, "clemens": 27277, "##iko": 12676, "haute": 18535, "ascending": 22316, "obedience": 22645, "victorious": 13846, "curled": 8188, "##\u0142a": 22972, "\u0631": 1280, "swords": 10689, "##yal": 21095, "\u5916": 1809, "maple": 11035, "preliminary": 8824, "wimbledon": 13411, "earlier": 3041, "oman": 16640, "##bina": 21114, "danielle": 18490, "strangled": 21384, "##pala": 19636, "##mbe": 18552, "sega": 16562, "suicide": 5920, ".": 1012, "masses": 11678, "##ris": 6935, "speed": 3177, "provisions": 8910, "[unused291]": 296, "##\u6e05": 30429, "liberty": 7044, "1715": 22606, "\u00f8": 1100, "determining": 12515, "springsteen": 26002, "##\u5c1a": 30356, "##gaon": 27073, "##\u30d8": 30247, "stigma": 26453, "##aria": 10980, "being": 2108, "otis": 18899, "mammoth": 23714, "surrender": 7806, "willy": 16172, "\u05d9": 1250, "orphans": 21478, "housekeeper": 22583, "similarly": 6660, "toxic": 11704, "##tute": 24518, "insurrection": 27860, "spirituality": 21244, "imperialism": 28087, "##49": 26224, "impression": 8605, "##leader": 19000, "tribune": 10969, "33": 3943, "comments": 7928, "clarinet": 12089, "theoretically": 22634, "disappearing": 14489, "medallion": 22541, "lamb": 12559, "\u026a": 1119, "constitution": 4552, "##yp": 22571, "banned": 7917, "##gat": 20697, "##mus": 7606, "jackets": 17764, "credentials": 22496, "supervise": 28589, "correctional": 20873, "stored": 8250, "##rily": 11272, "unfortunately": 6854, "##\u10d5": 29979, "room": 2282, "##\u53f8": 30317, "##liness": 20942, "beginning": 2927, "332": 29327, "##\u0f44": 29963, "##rong": 17583, "rumored": 22710, "cedar": 11354, "rouen": 27030, "philanthropic": 25321, "beneath": 4218, "comics": 5888, "qatar": 12577, "##cht": 10143, "remington": 25282, "therapist": 19294, "cp": 18133, "tanker": 20135, "aiding": 24791, "bulky": 27446, "she": 2016, "##\u30a4": 30221, "[unused457]": 462, "##etto": 20082, "##pop": 16340, "services": 2578, "242": 22431, "tents": 17732, "russians": 12513, "mayfair": 28387, "cooled": 12981, "turf": 14585, "nighttime": 26031, "devout": 26092, "groans": 27778, "theoretical": 9373, "joanna": 15730, "##gged": 15567, "walters": 19097, "nationality": 10662, "schultz": 22378, "trailer": 9117, "sas": 21871, "##26": 23833, "##rooms": 29020, "##uis": 27020, "syria": 7795, "opening": 3098, "reinstated": 18671, "[unused94]": 95, "d": 1040, "haifa": 21303, "comparison": 7831, "##onia": 12488, "smelling": 19773, "##jit": 18902, "mentioned": 3855, "motifs": 17366, "gora": 26967, "bach": 10384, "306": 24622, "farewell": 13407, "regulations": 7040, "valid": 9398, "grow": 4982, "1984": 3118, "epsilon": 28038, "pursuing": 11828, "obscured": 23649, "maxim": 20446, "spaniards": 20999, "baskets": 25946, "##len": 7770, "external": 6327, "##vious": 24918, "##fine": 23460, "mcgill": 17919, "phillips": 8109, "##ctors": 24817, "##ool": 13669, "marche": 28791, "\u0251": 1110, "##hs": 7898, "##aud": 19513, "##fted": 18915, "bon": 14753, "alternate": 6585, "regeneration": 20045, "para": 11498, "##zz": 13213, "disaster": 7071, "follow": 3582, "[unused343]": 348, "diplomacy": 17610, "reversed": 11674, "tilted": 9939, "chesterfield": 22699, "mayfield": 27224, "pose": 13382, "captains": 15755, "brutal": 12077, "attitude": 7729, "##ff": 4246, "1745": 21809, "1820": 11102, "cameroon": 13841, "mention": 5254, "prosecutors": 19608, "ensures": 21312, "##tyn": 25680, "360": 9475, "rational": 11581, "doc": 9986, "trilogy": 11544, "compatible": 11892, "woody": 13703, "benfica": 26542, "shrieked": 22383, "montgomery": 8482, "budget": 5166, "lethal": 12765, "cong": 26478, "home": 2188, "c1": 27723, "hurriedly": 23878, "enzyme": 9007, "##ures": 14900, "punta": 27377, "beans": 13435, "belongs": 7460, "duchess": 11017, "stitch": 26035, "traveler": 20174, "yard": 4220, "casablanca": 24592, "##\u02e3": 29718, "paste": 19351, "fountains": 23497, "##ivity": 7730, "gov": 18079, "frail": 25737, "##osta": 28696, "mister": 12525, "##pace": 15327, "stanton": 15845, "barney": 15377, "utilizing": 16911, "verona": 20197, "ferdinand": 9684, "mentally": 10597, "dialed": 21300, "extended": 3668, "\u062a": 1273, "click": 11562, "endured": 16753, "gi": 21025, "obtain": 6855, "dunes": 17746, "sid": 15765, "\u0ba9": 1387, "drowned": 12805, "felicity": 27357, "ally": 9698, "##zow": 22670, "garment": 19002, "dwelling": 13160, "realising": 27504, "affluent": 22666, "##thorpe": 22398, "street": 2395, "obliged": 14723, "quincy": 16141, "notified": 19488, "skiing": 12701, "##mbling": 29256, "engagements": 20583, "##wise": 14244, "elvis": 12280, "##sities": 24279, "2009": 2268, "##ee": 4402, "united": 2142, "quicker": 19059, "##avian": 21654, "##ruck": 29314, "charlton": 17821, "industrial": 3919, "57th": 28623, "harrison": 6676, "intimate": 10305, "commencement": 20561, "quarterfinal": 29380, "authentic": 14469, "nile": 15179, "##orin": 28741, "##law": 14919, "traffic": 4026, "surfer": 27747, "\u209a": 1569, "##wan": 7447, "174": 19492, "jump": 5376, "worthless": 22692, "##itating": 16518, "boxers": 18508, "louise": 8227, "ward": 4829, "[unused153]": 158, "bus": 3902, "slammed": 7549, "[unused132]": 137, "transatlantic": 26617, "##\u57ce": 30330, "valentine": 10113, "artefacts": 25762, "harald": 20966, "osman": 28609, "dismiss": 19776, "##we": 8545, "yawned": 27626, "cooke": 16546, "##ila": 11733, "awoke": 19179, "information": 2592, "standalone": 26609, "gregor": 16973, "\u02d0": 1150, "[unused150]": 155, "homecoming": 20772, "tod": 28681, "jr": 3781, "ch": 10381, "biological": 6897, "##low": 8261, "enclave": 25867, "##iere": 21253, "bundle": 14012, "annex": 17827, "ska": 24053, "robbie": 12289, "outta": 24955, "continuing": 5719, "##pura": 21228, "convincing": 13359, "purchase": 5309, "toe": 11756, "almond": 26011, "##hopper": 27330, "pulpit": 23134, "nairobi": 21124, "suggested": 4081, "secrecy": 20259, "archival": 22796, "silesia": 21872, "fiancee": 19455, "stadion": 20756, "rao": 10546, "addition": 2804, "##nta": 12380, "slavic": 13838, "##ule": 9307, "alam": 26234, "assessments": 20794, "62": 5786, "##gi": 5856, "##\u4e94": 30279, "triangular": 14023, "##type": 13874, "rations": 29559, "xiang": 27735, "\u09ad": 1369, "descriptive": 22726, "##drik": 28730, "sms": 22434, "\u4e0a": 1742, "[unused836]": 841, "##wine": 21924, "gaius": 19564, "izzy": 16699, "\u305b": 1659, "settling": 9853, "victor": 5125, "character": 2839, "biochemistry": 22419, "rochelle": 25649, "unpublished": 19106, "lens": 10014, "[unused570]": 575, "##stones": 29423, "bloomberg": 22950, "lew": 24992, "saxophonist": 19977, "smoothed": 17966, "enrichment": 27226, "pads": 19586, "##imus": 19315, "appetite": 18923, "morley": 20653, "contractor": 13666, "moffat": 28528, "mast": 15429, "##wed": 15557, "edward": 3487, "diane": 12082, "primera": 14837, "bismarck": 22029, "immigrated": 17352, "whistled": 26265, "founding": 4889, "eight": 2809, "\u05d2": 1243, "sensory": 16792, "outreach": 15641, "brewer": 18710, "together": 2362, "abilities": 7590, "location": 3295, "kicks": 14590, "wreck": 12006, "acceptable": 11701, "perpetual": 18870, "sorbonne": 28452, "mondays": 28401, "baseline": 26163, "##hema": 28433, "##felt": 26675, "assign": 23911, "##\u0153": 29674, "associate": 5482, "institution": 5145, "resurrection": 15218, "springs": 6076, "##ward": 7652, "##nets": 22781, "purposely": 24680, "sudbury": 26487, "[unused29]": 30, "arroyo": 23882, "unofficially": 29322, "##cat": 11266, "setup": 16437, "\u1d4d": 1500, "\u0142odz": 17814, "##\u02b2": 29707, "hats": 16717, "attested": 18470, "airplanes": 24042, "capable": 5214, "drastically": 21040, "earrings": 27212, "actions": 4506, "dutton": 28784, "miguel": 8374, "##\u05e2": 29805, "daily": 3679, "referees": 25118, "financial": 3361, "road": 2346, "marc": 7871, "[unused900]": 905, "inactivated": 15663, "secrets": 7800, "providence": 11293, "\u83ef": 1942, "serbian": 6514, "##\u5e74": 30366, "appreciated": 12315, "diffuse": 28105, "1997": 2722, "basil": 14732, "206": 18744, "sober": 17358, "watershed": 12547, "xiao": 19523, "absorption": 16326, "##o": 2080, "drake": 7867, "bulldogs": 15120, "protects": 18227, "yeshiva": 22142, "chiefly": 15897, "nos": 16839, "fragmented": 26872, "barrie": 24953, "declared": 4161, "facilitated": 19601, "destiny": 10461, "blood": 2668, "##\u30e1": 30252, "shadowy": 22801, "yankees": 11081, "internally": 16058, "marius": 20032, "wound": 6357, "demos": 18267, "ruins": 8435, "basal": 15191, "stinging": 22748, "[UNK]": 100, "converse": 23705, "1895": 6301, "precursor": 14988, "convection": 23849, "spins": 23371, "reacher": 22970, "working": 2551, "rodgers": 15652, "contributions": 5857, "1882": 7131, "\u4f0a": 1762, "##ste": 13473, "richie": 14411, "sarawak": 21546, "1943": 3826, "fuss": 28554, "concurrently": 15442, "neighbours": 14754, "[unused239]": 244, "shrug": 13409, "heinrich": 10952, "##sure": 28632, "tremendous": 14388, "[unused122]": 127, "##nden": 25915, "corrupt": 13593, "##riz": 21885, "oldest": 4587, "statutes": 18574, "hilly": 22800, "autopsy": 24534, "marks": 6017, "iii": 3523, "titled": 4159, "##\u0917": 29853, "handled": 8971, "supermarket": 17006, "logan": 6307, "curt": 20099, "collided": 17745, "sealing": 23038, "##bbon": 27684, "fixing": 15887, "berries": 22681, "640": 19714, "enriched": 25202, "frontiers": 28750, "explained": 4541, "friday": 5958, "350": 8698, "ordnance": 14445, "eminent": 14953, "1963": 3699, "261": 24441, "commanded": 6311, "\u1105": 1458, "municipality": 3250, "interpret": 17841, "filling": 8110, "conservative": 4603, "##llus": 20159, "senior": 3026, "teaser": 27071, "keenan": 26334, "windy": 27370, "southwest": 4943, "[unused64]": 65, "temporarily": 8184, "##\u22c5": 30141, "man": 2158, "globalization": 24370, "\u5e78": 1841, "##usions": 22016, "parameters": 11709, "authentication": 27280, "developers": 9797, "##urer": 27595, "hamlets": 21631, "overall": 3452, "democrat": 7672, "##fest": 14081, "##gree": 28637, "webster": 11635, "[unused551]": 556, "pumps": 15856, "rule": 3627, "denotes": 14796, "\u660e": 1865, "appear": 3711, "ia": 24264, "split": 3975, "abandoning": 19816, "quiz": 19461, "declare": 13520, "54th": 29570, "rites": 17105, "thermal": 9829, "##mins": 21266, "frost": 10097, "gliding": 20292, "##cratic": 17510, "hints": 20385, "examination": 7749, "dialects": 11976, "shareholder": 18668, "##gar": 6843, "gathered": 5935, "[unused373]": 378, "keyboards": 6269, "[unused714]": 719, "reservations": 17829, "cuban": 9642, "subscribers": 17073, "something": 2242, "blackwell": 18776, "dudley": 12648, "subterranean": 28811, "causing": 4786, "wharton": 24249, "chip": 9090, "##rling": 22036, "[unused606]": 611, "outsider": 21002, "amnesia": 29222, "eldest": 7310, "discontinued": 8944, "##mum": 27147, "isis": 18301, "different": 2367, "val": 11748, "##ailing": 29544, "portage": 25140, "fronted": 23291, "[unused351]": 356, "##ioned": 19798, "iq": 26264, "##ales": 23266, "1000": 6694, "indexed": 25331, "prep": 17463, "storm": 4040, "superiors": 22983, "whitehead": 23257, "continues": 4247, "cristina": 22246, "alfredo": 19423, "auguste": 20758, "nee": 7663, "##carriage": 21539, "\u0ca8": 1400, "##poo": 24667, "continuum": 22961, "paramilitary": 22258, "520": 19611, "owning": 19273, "ronin": 29249, "spokesman": 14056, "##ask": 19895, "sasha": 14673, "minions": 28071, "##chule": 20269, "vault": 11632, "sang": 6369, "fresno": 20840, "darkly": 27148, "drones": 24633, "blades": 10491, "thessaloniki": 23162, "essential": 6827, "grover": 25242, "palermo": 18705, "serum": 20194, "orders": 4449, "righteous": 19556, "mechanic": 15893, "march": 2233, "control": 2491, "329": 29567, "ousted": 28368, "theodore": 10117, "kazakhstan": 11769, "recognition": 5038, "corps": 3650, "1971": 3411, "goodnight": 22708, "reasonably": 16286, "consist": 8676, "skilled": 10571, "boy": 2879, "shall": 4618, "transit": 6671, "\u02b3": 1142, "portuguese": 5077, "##dell": 12662, "why": 2339, "forged": 16158, "visits": 7879, "##is": 2483, "onion": 20949, "middle": 2690, "chorale": 26561, "##chemical": 15869, "##\u0633": 29824, "boot": 9573, "empty": 4064, "curator": 13023, "retorted": 24056, "ducked": 13781, "\u0153": 1107, "archer": 11024, "meng": 27955, "calmly": 12885, "1st": 3083, "uneasy": 15491, "masjid": 27779, "servant": 7947, "plausible": 24286, "##ig": 8004, "goddamn": 16477, "##worthy": 13966, "approximately": 3155, "tata": 23236, "albans": 26311, "##als": 9777, "##nessy": 25441, "nagoya": 24425, "delightful": 26380, "terre": 25170, "levant": 24485, "privatization": 23966, "experimental": 6388, "suspension": 8636, "peugeot": 26385, "cochrane": 22329, "rulers": 11117, "attained": 12754, "abraham": 8181, "li": 5622, "##c": 2278, "802": 23908, "##tad": 17713, "nudged": 18666, "owed": 12232, "sympathy": 11883, "tuscany": 23322, "chronicles": 11906, "[unused701]": 706, "prescription": 20422, "loser": 10916, "[unused84]": 85, "beatrice": 14807, "melvin": 20993, "tianjin": 26216, "touring": 6828, "[unused904]": 909, "1769": 20663, "##\u30e9": 30257, "mangrove": 29340, "enforce": 16306, "loyalist": 23414, "smarter": 25670, "ions": 15956, "##lge": 28875, "daytona": 18226, "cinema": 5988, "##fp": 22540, "lux": 28359, "\u03ba": 1164, "erskine": 27139, "someplace": 24956, "word": 2773, "duc": 26363, "raphael": 12551, "guantanamo": 23094, "[unused367]": 372, "geared": 23636, "scottish": 4104, "guests": 6368, "inhaled": 15938, "reinforce": 19444, "chinatown": 22321, "##tted": 16190, "sandy": 7525, "predicted": 10173, "expenses": 11727, "##sen": 5054, "otto": 8064, "belgian": 6995, "1672": 27253, "1980s": 3865, "indirect": 14958, "towering": 20314, "##ouin": 25058, "##rdy": 17460, "##enia": 19825, "chapman": 11526, "mysteries": 15572, "1976": 3299, "1754": 22593, "sale": 5096, "\u2153": 1581, "donors": 17843, "\u0111": 1102, "##tek": 23125, "##\u0930": 29869, "[unused315]": 320, "incapable": 19907, "##+": 29622, "##pps": 28281, "dea": 26709, "question": 3160, "yield": 10750, "downtown": 5116, "##using": 18161, "convicts": 24948, "cessna": 27664, "philip": 5170, "dyer": 23494, "keller": 16155, "extraction": 14676, "coping": 27520, "hillsborough": 29330, "##\u02b3": 29708, "\u2071": 1537, "hoped": 5113, "layne": 22452, "branches": 5628, "male": 3287, "chips": 11772, "payroll": 26854, "##ucher": 22368, "catholic": 3234, "enjoyment": 20195, "regain": 12452, "##ssing": 18965, "evacuated": 13377, "clerical": 23106, "obviously": 5525, "serbia": 7238, "airborne": 10519, "leveled": 22915, "dart": 14957, "gubernatorial": 19100, "mein": 24182, "\u0995": 1353, "dominique": 18165, "township": 3545, "justin": 6796, "sending": 6016, "##par": 19362, "##dek": 24463, "##sun": 19729, "histoire": 20088, "##\u044a": 29755, "unix": 19998, "twilight": 13132, "benefactor": 27398, "##ctic": 13306, "refusal": 13948, "ruining": 27853, "blacksmith": 20987, "months": 2706, "lawsuit": 9870, "##6": 2575, "honey": 6861, "1612": 29186, "clint": 16235, "damascus": 16094, "bali": 20222, "cotton": 6557, "plus": 4606, "recess": 28290, "hunt": 5690, "tripoli": 21841, "galen": 21062, "demands": 7670, "delayed": 8394, "safely": 9689, "##\u03c6": 29736, "margaret": 5545, "##nity": 22758, "jewellery": 21545, "ascribed": 28025, "[unused294]": 299, "tears": 4000, "speakers": 7492, "##\u0576": 29778, "bourbon": 15477, "amin": 24432, "studying": 5702, "curtis": 9195, "forgive": 9641, "##ryn": 18143, "parliamentary": 5768, "compilations": 22754, "baltic": 11275, "kidd": 25358, "reputed": 22353, "results": 3463, "mae": 11530, "##\u09a5": 29899, "loire": 20399, "sharing": 6631, "brisbane": 7717, "##hita": 23935, "##\u1d58": 30042, "son": 2365, "bleed": 19501, "bony": 22678, "##americana": 27026, "paper": 3259, "restoration": 6418, "shareholders": 15337, "##\u026c": 29687, "##bine": 16765, "ignatius": 26841, "shelby": 15294, "hydrogen": 9732, "\u306e": 1671, "smirk": 15081, "[unused987]": 992, "sticks": 12668, "lips": 2970, "dice": 18740, "abstract": 10061, "intellectual": 7789, "comfort": 7216, "##\u2077": 30076, "colon": 16844, "strong": 2844, "weaponry": 22711, "##ugh": 8953, "##aya": 12186, "[unused296]": 301, "montrose": 24990, "##tsu": 10422, "nell": 20970, "spanning": 13912, "coronation": 12773, "coast": 3023, "mammalian": 26524, "wc": 15868, "[unused906]": 911, "##efined": 28344, "conspiracy": 9714, "powell": 8997, "\u4e94": 1753, "draped": 15098, "amendments": 16051, "straighten": 28568, "literacy": 8433, "messaging": 24732, "priesthood": 17911, "depicts": 11230, "##ben": 10609, "alien": 7344, "protests": 8090, "116": 12904, "opposing": 10078, "##rol": 13153, "##cot": 24310, "depicting": 10775, "##ieri": 21939, "[unused236]": 241, "##ari": 8486, "fully": 3929, "tallest": 13747, "analyzed": 16578, "vessel": 6258, "##logist": 10727, "planets": 11358, "1897": 6347, "blanca": 27538, "##iciencies": 28227, "daniels": 13196, "blackpool": 17444, "183": 18677, "diseases": 7870, "bliss": 13670, "snout": 17291, "[unused27]": 28, "thereafter": 6920, "manager": 3208, "mfa": 26913, "beat": 3786, "ye": 6300, "1729": 28449, "accompany": 12673, "[unused45]": 46, "\u3081": 1680, "[unused165]": 170, "chapter": 3127, "##ans": 6962, "gravel": 11127, "ft": 3027, "staircase": 10714, "midwest": 13608, "tangled": 14170, "credit": 4923, "filming": 7467, "answers": 6998, "##\u307e": 30203, "sheer": 11591, "confirm": 12210, "programme": 4746, "rowing": 12037, "exactly": 3599, "amateur": 5515, "nationale": 17360, "imagine": 5674, "russo": 17023, "[unused312]": 317, "\u2078": 1542, "treasures": 17605, "helix": 25743, "landon": 20642, "sweeps": 26981, "photographs": 7008, "incredible": 9788, "murdered": 7129, "recapture": 27639, "professionally": 12145, "yunnan": 21607, "contests": 15795, "marek": 29318, "miranda": 9392, "##sion": 10992, "[unused293]": 298, "hanging": 5689, "thailand": 6504, "feeling": 3110, "##dd": 14141, "etymology": 26803, "conductors": 23396, "##alis": 13911, "rockies": 22366, "fancy": 11281, "mp3": 23378, "##sti": 16643, "rhythm": 6348, "##fast": 24333, "realities": 22213, "fuzzy": 18001, "stem": 7872, "burr": 22715, "packed": 8966, "visionary": 28036, "1702": 26776, "gases": 15865, "mumbled": 11567, "sable": 23492, "##\u3081": 30206, "298": 27240, "impact": 4254, "pounding": 9836, "condom": 20910, "heavens": 17223, "operate": 5452, "lazy": 13971, "picking": 8130, "reformed": 9114, "khz": 17737, "##cliffe": 18115, "deterioration": 26118, "formations": 13197, "psychologist": 15034, "ein": 16417, "hidden": 5023, "straightened": 11168, "placed": 2872, "marcus": 6647, "##ak": 4817, "##dermott": 29370, "cent": 9358, "##\u00a6": 29649, "corey": 18132, "bribes": 29117, "frowning": 14587, "nfc": 22309, "##\u5973": 30341, "gabby": 27183, "creation": 4325, "##\u11bc": 30025, "syrian": 9042, "##rim": 20026, "worry": 4737, "lexi": 16105, "##\u90e8": 30486, "anglia": 24217, "##nio": 27678, "abbey": 6103, "[unused705]": 710, "##bes": 12681, "palestinians": 21524, "mph": 5601, "schubert": 24645, "irish": 3493, "henson": 27227, "riot": 11421, "rib": 19395, "sentai": 28650, "##jana": 18803, "stereotypes": 22807, "chico": 22136, "[unused875]": 880, "ryan": 4575, "langley": 19094, "sharpened": 26694, "super": 3565, "compact": 9233, "colours": 8604, "airs": 14369, "vapor": 20064, "\u266f": 1628, "prevalence": 20272, "##oman": 20778, "espana": 20678, "excel": 24970, "##\u02bb": 29711, "##rred": 20529, "steel": 3886, "arrondissement": 20522, "dungeons": 20264, "robson": 23698, "[unused90]": 91, "murray": 6264, "kick": 5926, "linen": 17517, "podium": 14502, "operations": 3136, "bud": 13007, "parana": 28383, "substitute": 7681, "perform": 4685, "##\u03b9": 18199, "revue": 17480, "\u06d2": 1310, "rampant": 25883, "agreement": 3820, "convey": 16636, "situ": 26179, "thing": 2518, "##fk": 24316, "##\u2297": 30140, "\u5fe0": 1852, "executive": 3237, "##lly": 9215, "decorated": 7429, "buenos": 9204, "fellow": 3507, "rebranded": 18233, "inhabited": 9613, "piles": 18526, "scouting": 14299, "##rdo": 20683, "prestigious": 8919, "academics": 15032, "suburban": 9282, "think": 2228, "accolades": 27447, "[unused670]": 675, "mcc": 23680, "[unused872]": 877, "cruz": 8096, "magma": 28933, "gundam": 26152, "##enay": 27727, "##\u05d9": 29796, "##chet": 20318, "emerging": 8361, "armenia": 10110, "whose": 3005, "consideration": 9584, "flourish": 24299, "##aby": 21275, "gmina": 7061, "hiss": 19074, "sometime": 8811, "spontaneously": 27491, "rebuilt": 7183, "##ay": 4710, "parma": 19177, "realistic": 12689, "pure": 5760, "[unused655]": 660, "##uc": 14194, "##jk": 15992, "flute": 8928, "##nca": 20909, "##ning": 5582, "haitian": 21404, "julian": 6426, "prediction": 17547, "hacked": 28719, "spawning": 27957, "denver": 7573, "retains": 14567, "##che": 5403, "serves": 4240, "afb": 16909, "##\u043d": 18947, "suburb": 7575, "##di": 4305, "ness": 23384, "intensely": 20531, "dire": 18704, "rattled": 19252, "pamela": 17217, "needle": 12201, "athenian": 26956, "intercepted": 16618, "weight": 3635, "##breakers": 27623, "##\u677e": 30406, "headache": 14978, "##dman": 21804, "eps": 20383, "ethical": 12962, "fantastic": 10392, "ventral": 23420, "beds": 9705, "sunlight": 9325, "redesignated": 11836, "exception": 6453, "##\u30bb": 30234, "importance": 5197, "##ra": 2527, "boer": 19945, "venus": 11691, "tough": 7823, "tt": 23746, "expenditure": 20700, "mediation": 26435, "romance": 7472, "silently": 8601, "\u30aa": 1699, "##ulio": 24825, "economy": 4610, "colleen": 28385, "fled": 6783, "[unused628]": 633, "kensington": 17775, "attractive": 8702, "\u0438": 1188, "ludwig": 10302, "##gam": 22864, "kristina": 28802, "cassette": 13903, "nashville": 8423, "##\u3053": 30181, "bangkok": 12627, "tongues": 19677, "##er": 2121, "visit": 3942, "sinn": 26403, "superiority": 19113, "imported": 10964, "remotely": 19512, "contestant": 10832, "missy": 25019, "[unused890]": 895, "detention": 12345, "olaf": 20514, "briggs": 15487, "13": 2410, "##creen": 24410, "acceleration": 16264, "carmichael": 23537, "jana": 23341, "dawson": 11026, "electromagnetic": 17225, "koln": 28306, "[unused955]": 960, "gallon": 25234, "##lho": 28061, "1701": 26059, "motion": 4367, "discount": 19575, "portico": 23104, "available": 2800, "translators": 28396, "protecting": 8650, "splits": 19584, "179": 20311, "knowledge": 3716, "generous": 12382, "harlan": 24276, "peyton": 17931, "station": 2276, "lucie": 28831, "norris": 15466, "##apa": 22068, "##bi": 5638, "sanity": 20039, "riots": 12925, "sk": 15315, "mutations": 14494, "1782": 16890, "advances": 9849, "sadie": 21330, "##chenko": 25872, "cyber": 16941, "lately": 9906, "independents": 23756, "collector": 10018, "[unused12]": 13, "tertiary": 13553, "grotesque": 27707, "chart": 3673, "colts": 14390, "judas": 25326, "##ture": 11244, "footed": 28856, "[unused311]": 316, "gaining": 8550, "##ery": 7301, "observation": 8089, "augustus": 11668, "senator": 5205, "accusations": 13519, "passive": 13135, "[unused299]": 304, "alcoholic": 14813, "##\u2295": 30139, "hostage": 13446, "proceed": 10838, "dad": 3611, "vis": 25292, "##\u5e73": 30365, "mars": 7733, "tail": 5725, "susceptible": 18002, "cumulative": 23260, "int": 20014, "pretoria": 25366, "flowers": 4870, "##gs": 5620, "##wai": 21547, "laszlo": 28226, "[unused787]": 792, "hairs": 13606, "1849": 9037, "[unused672]": 677, "ak": 17712, "treaty": 5036, "horror": 5469, "user": 5310, "corsica": 27047, "[unused815]": 820, "##erted": 28728, "##ises": 13087, "quick": 4248, "nobility": 11760, "hovering": 16349, "##lington": 18722, "69": 6353, "detecting": 25952, "squealed": 26175, "lausanne": 22256, "somber": 28587, "##cut": 12690, "soothe": 28384, "wilmington": 17025, "##eal": 15879, "ugly": 9200, "internet": 4274, "courier": 18092, "forerunner": 23993, "black": 2304, "##ople": 27469, "whistling": 24350, "ricardo": 13559, "authorised": 19256, "mauritius": 18004, "nonlinear": 27400, "harper": 8500, "socio": 17522, "gilmore": 22999, "bullshit": 14636, "tobias": 16858, "agatha": 23863, "##rations": 28893, "##rington": 17281, "##imate": 21499, "##pp": 9397, "replay": 15712, "caliphate": 28034, "helicopter": 7739, "romero": 18290, "##osed": 24768, "##ingdon": 29138, "\u300a": 1639, "evade": 26399, "157": 17403, "sheds": 25999, "##tara": 27115, "##ilised": 21758, "##nb": 27698, "size": 2946, "\u2080": 1547, "envelope": 11255, "nk": 25930, "handsome": 8502, "lying": 4688, "hamilton": 5226, "overturned": 17068, "##urai": 24804, "assets": 7045, "##base": 15058, "triangle": 9546, "flattened": 16379, "brittle": 24650, "spirited": 24462, "[unused221]": 226, "harmon": 25546, "brains": 14332, "##yse": 23274, "bureaucracy": 25934, "glue": 25238, "curry": 15478, "pear": 28253, "turnpike": 17116, "republics": 24822, "scores": 7644, "forming": 5716, "##\u209c": 30099, "curl": 15390, "##hausen": 13062, "strip": 6167, "controlling": 9756, "featured": 2956, "[unused946]": 951, "1728": 26833, "merry": 12831, "owls": 22388, "##eration": 16754, "century": 2301, "ensure": 5676, "apr": 19804, "fitness": 10516, "crater": 11351, "##hiti": 27798, "##bb": 10322, "sheen": 20682, "roles": 4395, "##mission": 25481, "flowing": 8577, "mortimer": 17416, "guadalupe": 23529, "[unused355]": 360, "bloody": 6703, "##finger": 20349, "visas": 24487, "groundwater": 22761, "##inski": 19880, "##rad": 12173, "bristol": 7067, "nicholas": 6141, "##ghi": 28891, "##ratic": 23671, "##\u0baf": 29926, "domestically": 27143, "escaped": 6376, "islander": 12544, "inhabitants": 4864, "##\u1d4f": 30037, "twisted": 6389, "morocco": 9835, "bureau": 4879, "france": 2605, "spacious": 22445, "zev": 27909, "\u300f": 1644, "consular": 27326, "##lei": 23057, "lb": 6053, "vh1": 26365, "##cans": 26642, "longest": 6493, "triggering": 29170, "stung": 19280, "tract": 12859, "dukes": 16606, "chocolate": 7967, "sophie": 8234, "stressed": 13233, "disguised": 17330, "loved": 3866, "patent": 7353, "##ntes": 17340, "##nant": 16885, "web": 4773, "##dp": 18927, "levels": 3798, "##\u2032": 30066, "zen": 16729, "##holm": 18884, "##morphism": 19539, "pack": 5308, "discourse": 15152, "cheated": 22673, "##cko": 19665, "##oping": 17686, "carly": 18431, "camden": 13267, "broke": 3631, "\u9673": 1972, "130": 7558, "##iculate": 24153, "casualties": 8664, "##oric": 29180, "##gum": 22850, "progress": 5082, "neurons": 15698, "14th": 6400, "alfred": 6152, "biodiversity": 17194, "1888": 6690, "##akh": 27573, "tunnels": 10633, "venue": 6891, "##\u308a": 30212, "electoral": 6092, "addiction": 13449, "[unused562]": 567, "tres": 24403, "##hett": 28499, "##ands": 29560, "##\u30c1": 30236, "bunk": 25277, "##mable": 24088, "##eur": 11236, "##thi": 15222, "greaves": 27808, "cad": 28353, "##bular": 28808, "3rd": 3822, "commitments": 17786, "##roll": 28402, "scriptures": 22481, "ethernet": 26110, "##\u624b": 30384, "pierce": 9267, "\u5b80": 1818, "distance": 3292, "calhoun": 22982, "exceeding": 17003, "daytime": 12217, "tailor": 22701, "\u25cf": 1619, "deserves": 17210, "somalia": 14717, "superstructure": 28391, "routing": 16972, "tempo": 13657, "ease": 7496, "severn": 24753, "shrimp": 20130, "reinforced": 11013, "educating": 25088, "spotting": 27963, "##bers": 17198, "we": 2057, "ingrid": 22093, "##beck": 12750, "enjoys": 15646, "##neer": 19755, "oakley": 28876, "##hawks": 16043, "arrested": 4727, "##overs": 24302, "\u3089": 1685, "fluent": 19376, "findings": 9556, "lake": 2697, "\u06ba": 1306, "mug": 14757, "ambush": 15283, "##isms": 22556, "gala": 16122, "##inus": 13429, "adolescents": 25947, "[unused317]": 322, "##cultural": 29415, "71": 6390, "starring": 4626, "worms": 16253, "doomed": 20076, "bollywood": 16046, "##ganj": 22738, "470": 21064, "##mann": 5804, "##ffle": 18142, "roc": 21326, "allie": 16944, "scrutiny": 17423, "northeast": 4794, "[unused619]": 624, "acquiring": 13868, "\u1112": 1469, "##\u03b3": 29721, "\u09be": 1378, "erratic": 24122, "object": 4874, "operatives": 25631, "drainage": 11987, "\u8cb4": 1953, "abdul": 10298, "pearson": 12874, "thirties": 26313, "##bright": 26614, "158": 17696, "shortest": 20047, "hq": 16260, "pleasure": 5165, "habitats": 10746, "nuns": 16752, "goddess": 7804, "broncos": 14169, "giuseppe": 12574, "bites": 15424, "duet": 11979, "net": 5658, "crore": 21665, "slip": 7540, "advancing": 10787, "mecklenburg": 22007, "congratulations": 23156, "lotus": 13030, "##hp": 22269, "federation": 4657, "partnered": 12404, "dieter": 27976, "##\u0bc8": 29935, "emilia": 20417, "powder": 9898, "##zone": 15975, "hilarious": 26316, "hartford": 13381, "##\u05d8": 29795, "josh": 6498, "icy": 13580, "colonists": 15526, "quarry": 12907, "##iled": 18450, "availability": 11343, "evacuate": 22811, "charles": 2798, "##mt": 20492, "##ob": 16429, "[unused487]": 492, "##zzling": 20838, "propeller": 15692, "occasionally": 5681, "##tile": 15286, "susie": 23917, "chapels": 24130, "[unused791]": 796, "structure": 3252, "[unused426]": 431, "automatic": 6882, "##\u307f": 30204, "romanized": 7651, "##tl": 19646, "##ceae": 9071, "waterfall": 14297, "cornelius": 17354, "cone": 13171, "valleys": 12467, "knife": 5442, "miniatures": 28615, "##tow": 18790, "streets": 4534, "##\u0292": 29704, "behalf": 6852, "freeman": 11462, "oklahoma": 5858, "##\u6728": 30401, "\u03c9": 1179, "songwriting": 14029, "fracture": 19583, "asphalt": 16295, "voss": 24878, "##wear": 16689, "disputed": 11621, "excitement": 8277, "chi": 9610, "1944": 3646, "motions": 15323, "genius": 11067, "edited": 5493, "[unused616]": 621, "astronaut": 19748, "muscled": 24909, "ride": 4536, "mesh": 20437, "1740": 21757, "##\u674e": 30403, "goethe": 23173, "intensified": 15767, "##\u043c": 29745, "##schen": 23796, "bouts": 23666, "harmless": 19741, "debate": 5981, "making": 2437, "[unused215]": 220, "galloway": 22372, "punt": 18975, "nostalgia": 26968, "##you": 29337, "nedra": 28240, "began": 2211, "peoples": 7243, "141": 15471, "proposals": 10340, "bell": 4330, "barbecue": 26375, "booked": 17414, "cups": 10268, "emirates": 14041, "sv": 17917, "stockport": 26284, "dialect": 9329, "polite": 13205, "##bha": 22655, "uncredited": 8104, "##ock": 7432, "accusing": 16723, "wise": 7968, "developmental": 13908, "crush": 10188, "defences": 16828, "actresses": 19910, "cocoa": 22940, "assault": 6101, "dixie": 18910, "install": 16500, "maccabi": 24055, "hereditary": 14800, "above": 2682, "deportivo": 23696, "enamel": 29484, "geologic": 22125, "screening": 11326, "##\u884c": 30471, "harmful": 17631, "cleavage": 28691, "descending": 15127, "plotting": 20699, "pounder": 20091, "\u03b7": 1161, "##force": 14821, "connections": 7264, "risky": 19188, "fury": 8111, "\u0989": 1350, "expectations": 10908, "piloted": 27220, "mediterranean": 7095, "becky": 14407, "willed": 22705, "servicemen": 26714, "caves": 10614, "exist": 4839, "objects": 5200, "137": 14989, "terminates": 28790, "would": 2052, "recovery": 7233, "shell": 5806, "##irus": 26013, "connolly": 21018, "##tes": 4570, "choked": 12444, "##vard": 25911, "##biology": 21685, "avoided": 9511, "expected": 3517, "thayer": 25563, "devices": 5733, "opus": 16895, "napier": 21320, "kant": 26044, "muffled": 15783, "motorway": 13119, "1810": 11786, "tal": 21368, "offset": 16396, "tess": 15540, "priscilla": 25193, "cupping": 25076, "##af": 10354, "ix": 11814, "##tops": 25181, "\u09b7": 1375, "clutched": 13514, "sister": 2905, "##ulata": 18060, "291": 27173, "jeopardy": 26604, "midlands": 13256, "foxes": 24623, "continuation": 13633, "##uta": 13210, "\u91cc": 1962, "says": 2758, "felony": 24648, "geschichte": 28299, "putnam": 20230, "serious": 3809, "ping": 17852, "exploring": 11131, "1618": 29029, "forecast": 19939, "##esthesia": 25344, "pei": 26850, "##region": 23784, "##ivism": 22486, "watches": 12197, "captures": 19566, "pierced": 16276, "finish": 3926, "bandage": 24446, "\u1106": 1459, "wichita": 18614, "lviv": 23814, "mathematics": 5597, "plants": 4264, "transvaal": 28336, "differ": 11234, "temperance": 23372, "sobbed": 25960, "##umber": 29440, "moore": 5405, "distributors": 22495, "bills": 8236, "qui": 21864, "##\u2122": 30108, "##lar": 8017, "led": 2419, "##ducted": 29510, "[unused171]": 176, "len": 18798, "##\u1d62": 19109, "boredom": 29556, "indicators": 20390, "myanmar": 12620, "grimace": 25898, "[unused924]": 929, "fast": 3435, "stated": 3090, "\u0440": 1195, "[unused858]": 863, "greece": 5483, "le": 3393, "\u30fc": 1739, "arrives": 8480, "##mani": 20799, "bungalow": 27563, "thomson": 11161, "collier": 20466, "##sburg": 9695, "rector": 10935, "good": 2204, "desired": 9059, "initiating": 26616, "misery": 14624, "maggie": 8538, "##coll": 26895, "##pheus": 22809, "[unused637]": 642, "leave": 2681, "meritorious": 22053, "fluctuations": 28892, "howell": 18473, "coding": 16861, "##dder": 20791, "bison": 22285, "behaviors": 15592, "caliph": 22733, "regression": 26237, "utilities": 16548, "rats": 11432, "\u2016": 1519, "york": 2259, "\u300e": 1643, "##iot": 25185, "ash": 6683, "[unused102]": 107, "##\u6709": 30399, "eruption": 17259, "mara": 13955, "gentry": 20262, "brightly": 14224, "[unused511]": 516, "lee": 3389, "il": 6335, "fewer": 8491, "foo": 29379, "remain": 3961, "una": 14477, "mazda": 25286, "flushed": 12953, "slice": 14704, "gee": 20277, "smoothly": 15299, "##\u00a8": 29651, "rigorous": 20001, "##ential": 24271, "vogue": 17734, "cary": 20533, "provincial": 4992, "algorithm": 9896, "alma": 11346, "##\u05de": 29801, "divorce": 8179, "bloomington": 26372, "differential": 11658, "##hma": 22444, "embarrassing": 16436, "rates": 6165, "adhere": 25276, "rent": 9278, "##\u65b9": 30389, "identified": 4453, "wedding": 5030, "monterey": 19860, "[unused635]": 640, "punched": 11696, "1736": 28192, "\u6797": 1881, "ida": 16096, "needles": 17044, "kyiv": 25669, "##tangle": 23395, ">": 1028, "supervision": 10429, "aw": 22091, "localized": 22574, "civic": 8388, "childless": 26983, "passes": 5235, "rush": 5481, "1711": 28455, "tristan": 9822, "royalist": 20796, "costs": 5366, "brands": 9639, "enraged": 18835, "[unused675]": 680, "\u5408": 1792, "immortals": 26796, "wicked": 10433, "transfers": 15210, "installment": 18932, "invention": 11028, "canopy": 14582, "breeders": 20823, "loosen": 29476, "complaint": 12087, "uprising": 10138, "##acion": 21736, "annexed": 13291, "jul": 21650, "kendall": 14509, "rosy": 26851, "spoon": 15642, "propagation": 20594, "unprecedented": 15741, "historia": 19891, "1743": 25615, "looming": 23430, "[unused629]": 634, "breaker": 24733, "[unused125]": 130, "[unused910]": 915, "dot": 11089, "tiberius": 28411, "##ters": 7747, "1916": 4947, "chariot": 23507, "teaching": 4252, "centre": 2803, "s": 1055, "beverley": 29057, "registrar": 24580, "obvious": 5793, "##dong": 17679, "##\u00dfe": 17499, "[unused612]": 617, "principally": 16552, "deng": 26957, "makes": 3084, "entered": 3133, "##vant": 18941, "blinds": 28279, "##ling": 2989, "oval": 9242, "stable": 6540, "harry": 4302, "\u0f58": 1432, "pension": 11550, "treatments": 13441, "rubble": 17538, "08": 5511, "titanic": 20753, "peripheral": 15965, "whereby": 13557, "casey": 9036, "sixties": 22651, "leinster": 15684, "shatter": 27271, "intricate": 17796, "redesigned": 17051, "holm": 28925, "expedition": 5590, "hurried": 9520, "\u11b7": 1487, "horde": 21038, "anthropological": 28395, "fugitive": 21329, "dyed": 28432, "languages": 4155, "##hosh": 26643, "seized": 8243, "presidency": 8798, "ml": 19875, "recycled": 22207, "supporters": 6793, "##eh": 11106, "energy": 2943, "nicolas": 9473, "##\u045b": 29764, "fingered": 28842, "##ched": 7690, "##castle": 23662, "relieved": 7653, "rushing": 8375, "##inating": 19185, "oz": 11472, "duran": 22959, "zhang": 9327, "##uration": 18924, "##any": 19092, "##amy": 24079, "manila": 9011, "##tag": 15900, "marlon": 25861, "coiled": 24599, "tung": 27079, "##osphere": 25444, "dixon": 11357, "transitions": 22166, "speedway": 10688, "madonna": 11284, "##\u4ecb": 30285, "liturgy": 21176, "loaned": 13190, "betray": 20895, "[unused69]": 70, "havilland": 23994, "##ien": 9013, "##\u099b": 29893, "vhs": 17550, "steadily": 11328, "##lok": 29027, "juveniles": 25406, "jacket": 6598, "\u03b5": 1159, "##gement": 20511, "barry": 6287, "plane": 4946, "wounding": 27285, "amphibious": 16182, "bought": 4149, "programmed": 16984, "discussions": 10287, "moving": 3048, "volatile": 20606, "crosby": 14282, "willie": 9893, "specializing": 14055, "##baldi": 28807, "blockbuster": 27858, "nhs": 17237, "tumble": 28388, "coordinating": 19795, "##\u1102": 29992, "163": 17867, "planner": 24555, "exiting": 22371, "osaka": 13000, "##bain": 29148, "45th": 24634, "criticized": 6367, "frowns": 29303, "##nzo": 25650, "1862": 6889, "peninsular": 22682, "##lf": 10270, "reveals": 7657, "chairman": 3472, "[unused34]": 35, "aiden": 15086, "dispatch": 18365, "blooded": 26064, "klein": 12555, "developments": 8973, "alvin": 17348, "silva": 11183, "##dson": 25112, "brooke": 11535, "internationally": 7587, "lund": 21860, "toulon": 27160, "##cede": 22119, "##\u6797": 30407, "visa": 9425, "sausage": 24165, "snatch": 23365, "decision": 3247, "interventions": 19388, "controversies": 25962, "tab": 21628, "record": 2501, "##brook": 9697, "induced": 10572, "duly": 25073, "accommodated": 28959, "forestry": 13116, "hint": 9374, "tatiana": 22725, "amplifiers": 28633, "wilhelm": 9070, "illegitimate": 18102, "##bu": 8569, "##name": 18442, "1855": 8492, "cavalry": 5945, "resemblance": 14062, "belle": 9852, "healthcare": 9871, "thriving": 20319, "renovations": 15576, "\u043e": 1193, "allen": 5297, "1942": 3758, "olympic": 4386, "##tsky": 26824, "##ost": 14122, "5000": 13509, "secure": 5851, "##\u05e7": 29810, "##ann": 11639, "##\u694a": 30409, "let": 2292, "throughout": 2802, "protected": 5123, "scotch": 18937, "diplomats": 23473, "dialogue": 7982, "290": 17222, "##iva": 11444, "audio": 5746, "transparency": 16987, "##ch": 2818, "lot": 2843, "impoverished": 25488, "##tu": 8525, "##lita": 27606, "standardization": 28648, "inspect": 22459, "neo": 9253, "feminine": 12320, "eton": 21687, "error": 7561, "depends": 9041, "dvds": 22477, "devised": 14917, "##rland": 18324, "sure": 2469, "##wad": 26016, "flour": 13724, "ritual": 8887, "candidate": 4018, "\u03bf": 1169, "occupation": 6139, "dumont": 25830, "reporting": 7316, "birmingham": 6484, "\u27e9": 1630, "penetrate": 19136, "wilkinson": 16237, "olson": 21583, "floats": 24885, "##mouth": 14359, "bog": 22132, "##nan": 7229, "##peed": 25599, "rotated": 20931, "processor": 13151, "cyprus": 9719, "azerbaijan": 8365, "bret": 25626, "cheating": 16789, "crippled": 24433, "##atal": 27815, "issuing": 15089, "##lth": 24658, "notre": 10289, "tap": 11112, "marxism": 27255, "devoid": 22808, "physicist": 13702, "houghton": 21234, "giggle": 17565, "kathy": 14986, "nervously": 12531, "[unused964]": 969, "bryant": 12471, "magic": 3894, "saigon": 24001, "tradition": 4535, "tatum": 25913, "stronghold": 16995, "madeline": 16974, "[unused874]": 879, "invented": 8826, "incentives": 21134, "portrait": 6533, "maintain": 5441, "holders": 13304, "##tv": 9189, "##eering": 20550, "blocked": 8534, "angel": 4850, "aristocracy": 22706, "slug": 23667, "\u0996": 1354, "sorcerer": 23324, "betrayed": 12056, "1661": 24046, "joel": 8963, "##\u5834": 30332, "functioning": 12285, "marvelous": 28851, "jain": 17136, "substrate": 16305, "paige": 17031, "mercy": 8673, "teenager": 10563, "chen": 8802, "moved": 2333, "##)": 29620, "tapestry": 25213, "##\u0939": 29875, "##sea": 17310, "bound": 5391, "##iti": 25090, "##hole": 11484, "constabulary": 23791, "reminded": 6966, "##wide": 22517, "secular": 10644, "surrounds": 20626, "##bled": 23242, "##nco": 15305, "atkins": 21087, "hammering": 27883, "otherwise": 4728, "##inga": 28234, "315": 22904, "scripture": 18919, "von": 3854, "##et": 3388, "waterfront": 16317, "##ield": 12891, "bends": 23394, "\u30ab": 1700, "1946": 3918, "potatoes": 14629, "machines": 6681, "sold": 2853, "resident": 6319, "abnormal": 19470, "vietnamese": 9101, "strikes": 9326, "[unused33]": 34, "##\u2082": 8229, "attorney": 4905, "##verance": 21998, "lebanese": 12592, "[unused385]": 390, "conversion": 7584, "##ced": 11788, "curses": 23897, "baths": 19692, "sharma": 14654, "190": 11827, "reminiscent": 14563, "sermons": 20855, "translate": 17637, "\u30e2": 1727, "orr": 26914, "easter": 10957, "wind": 3612, "sandwiches": 22094, "maddie": 17805, "regiment": 3483, "hezbollah": 25713, "hitler": 8042, "violins": 25877, "belgarath": 21256, "finnish": 6983, "law": 2375, "[unused615]": 620, "[unused895]": 900, "throbbed": 27714, "listen": 4952, "peters": 12420, "evening": 3944, "##shida": 25541, "acquisitions": 19530, "quartermaster": 24688, "##enham": 23580, "worse": 4788, "halftime": 22589, "##\u094b": 29879, "donation": 13445, "slow": 4030, "vacuum": 11641, "day": 2154, "##bola": 24290, "##sell": 23836, "volcanoes": 23694, "learnt": 20215, "pulse": 8187, "1952": 3999, "mathew": 25436, "monkey": 10608, "1920": 4444, "1814": 10977, "experienced": 5281, "quilt": 27565, "flexed": 24244, "rituals": 13549, "carolyn": 15611, "homer": 11525, "blown": 10676, "##hen": 10222, "##ago": 23692, "orphanage": 18504, "malcolm": 8861, "downhill": 19448, "jurisdiction": 7360, "computing": 9798, "1016": 28707, "\u0935": 1335, "ii": 2462, "'": 1005, "[unused118]": 123, "angelica": 19458, "predecessors": 16372, "##fight": 20450, "approaches": 8107, "achievements": 10106, "[unused53]": 54, "einstein": 15313, "entity": 9178, "##oons": 27174, "praises": 27128, "clerks": 26706, "[unused405]": 410, "homemade": 25628, "##see": 19763, "luzon": 21622, "\u5fc3": 1849, "##boy": 11097, "##\u043d\u0430": 19865, "##cius": 25393, "wade": 10653, "##ned": 7228, "##nis": 8977, "ceremonies": 10912, "##ify": 8757, "##tum": 11667, "##iens": 24836, "consecrated": 12299, "space": 2686, "##\u2663": 30151, "rebelled": 25183, "##izing": 6026, "vicente": 17280, "##gers": 15776, "\u0e01": 1409, "sole": 7082, "aspen": 18567, "##si": 5332, "loyalists": 26590, "##sop": 28793, "strata": 22913, "##ern": 11795, "##rca": 18992, "##rand": 13033, "pristine": 27375, "##igan": 10762, "\u09b6": 1374, "slate": 12796, "rehab": 24497, "gallagher": 17297, "prc": 26141, "multiplication": 24856, "notions": 21951, "\u6b66": 1889, "##\u5e1d": 30364, "bodo": 28137, "golfer": 20601, "rousseau": 26868, "schuster": 24253, "stationary": 17337, "observatory": 9970, "##amp": 16613, "burial": 8940, "resembles": 12950, "crisp": 15594, "[unused956]": 961, "victoria": 3848, "mage": 17454, "unusually": 12890, "lights": 4597, "reelected": 20847, "##oses": 27465, "\u3002": 1636, "russian": 2845, "mab": 26661, "##\u592b": 30339, "atlantic": 4448, "monetary": 12194, "reformation": 13708, "commended": 22429, "organizing": 10863, "josephine": 16117, "derivation": 29280, "##lau": 17298, "myths": 17218, "\u201c": 1523, "greeks": 13176, "gerais": 29220, "adelaide": 7364, "chicago": 3190, "surveyed": 12876, "drive": 3298, "##\u0646": 15915, "commemoration": 22377, "corrected": 13371, "accidentally": 9554, "##\u1173": 30017, "##rites": 28884, "detachment": 11009, "chased": 13303, "count": 4175, "sacramento": 11932, "earn": 7796, "homo": 24004, "[unused765]": 770, "signifies": 27353, "grill": 18651, "kannada": 13873, "export": 9167, "##usly": 27191, "##rin": 6657, "stylistic": 24828, "programmes": 8497, "eating": 5983, "friendship": 6860, "unbearable": 24257, "##tious": 20771, "denies": 23439, "##sler": 20590, "dwight": 14304, "adorned": 19189, "[unused558]": 563, "##enna": 24397, "##\u30ea": 30258, "upton": 26900, "lindsay": 12110, "##56": 26976, "##ata": 6790, "common": 2691, "[unused416]": 421, "inland": 9514, "nesting": 21016, "blaming": 24114, "cursing": 19752, "margarita": 24570, "##\u0430\u043d": 28995, "hopeful": 17772, "churchill": 10888, "stumbled": 9845, "##shot": 19040, "##kti": 22462, "injection": 13341, "fading": 14059, "##\u5ba3": 30349, "captivity": 16187, "fate": 6580, "advantage": 5056, "uk": 2866, "stupid": 5236, "simeon": 24371, "emmett": 25685, "[unused732]": 737, "crashing": 12894, "gibbs": 15659, "[unused267]": 272, "stormed": 16201, "unfamiliar": 16261, "flopped": 24723, "werewolf": 12797, "picket": 28972, "html": 16129, "pairs": 7689, "gp": 14246, "upgrades": 18739, "educate": 16957, "parrot": 22530, "##mian": 20924, "island": 2479, "##\u4fdd": 30292, "cappella": 23013, "temple": 3379, "nc": 13316, "##emy": 26662, "[unused593]": 598, "10th": 6049, "##ley": 3051, "cl": 18856, "##ci": 6895, "directing": 9855, "thrive": 25220, "bitch": 7743, "tomb": 8136, "[unused727]": 732, "cheyenne": 17778, "##iad": 28665, "drum": 6943, "posse": 25751, "##sil": 27572, "355": 26271, "adjusting": 19158, "barn": 8659, "swimming": 5742, "1300": 19527, "\u6c5f": 1897, "bryce": 19757, "down": 2091, "filters": 17736, "[unused760]": 765, "##emon": 26941, "##sb": 19022, "exotic": 12564, "weighed": 12781, "\uff01": 1986, "socks": 14829, "uci": 14504, "rough": 5931, "quarterfinals": 9237, "[unused719]": 724, "compelled": 15055, "[unused652]": 657, "hatred": 11150, "scarred": 21985, "##ido": 13820, "quit": 8046, "wroc\u0142aw": 25160, "subgenus": 25356, "beautiful": 3376, "alumni": 9441, "1776": 13963, "holden": 9988, "lima": 12967, "costly": 17047, "pollution": 10796, "##tite": 23096, "otter": 22279, "engulfed": 24692, "company": 2194, "condor": 29260, "/": 1013, "##glio": 29480, "proving": 13946, "vain": 15784, "\u3080": 1679, "magnitude": 10194, "stacy": 18566, "oxide": 15772, "csi": 22174, "##nation": 9323, "usher": 20774, "winners": 4791, "##illa": 9386, "##fan": 15143, "480": 17295, "[unused805]": 810, "8": 1022, "overgrown": 26433, "##\u0f60": 29969, "[unused170]": 175, "2013": 2286, "[unused718]": 723, "fourteen": 7426, "write": 4339, "daylight": 11695, "farms": 8623, "moor": 16808, "##dog": 16168, "\u2083": 1550, "gorman": 25693, "briefcase": 21793, "[unused986]": 991, "remnants": 11270, "##lc": 15472, "cult": 8754, "##beat": 19442, "biggest": 5221, "forever": 5091, "metallic": 12392, "enactment": 26465, "##\u0435\u0432\u0438\u0447": 22646, "##\u03b4": 29722, "defend": 6985, "vittorio": 25914, "donaldson": 23164, "releases": 7085, "##umatic": 25360, "rhetoric": 17871, "des": 4078, "##nto": 13663, "tomorrow": 4826, "predators": 12630, "afar": 28978, "murals": 19016, "islanders": 16422, "universe": 5304, "vocalists": 27478, "\u0925": 1324, "kind": 2785, "##\u3086": 30209, "##\ufb01": 30510, "##\u30c6": 30239, "raiders": 10642, "\u043a": 1189, "labrador": 18604, "lit": 5507, "similarity": 14402, "[unused674]": 679, "removing": 9268, "resist": 9507, "poisoning": 16149, "##elled": 21148, "demise": 13614, "##gga": 23033, "establishing": 7411, "discharge": 11889, "abstraction": 24504, "##nham": 20465, "sails": 17553, "prejudice": 18024, "mvp": 12041, "imminent": 17566, "warmer": 16676, "freud": 19338, "eastwood": 24201, "la": 2474, "automobiles": 19207, "lakeside": 28701, "imperial": 4461, "##bek": 24597, "deep": 2784, "sake": 8739, "sy": 25353, "infrastructure": 6502, "isabelle": 13942, "\u30ec": 1734, "superb": 21688, "##u": 2226, "##turing": 16037, "manufacture": 9922, "sofa": 10682, "##opsis": 22599, "excelled": 23081, "##chai": 24925, "faso": 22773, "vicious": 13925, "contracting": 21012, "sergey": 22703, "swearing": 25082, "platform": 4132, "flavour": 28126, "predator": 15267, "alternatively": 14084, "beak": 23525, "pregnant": 6875, "commonwealth": 5663, "archduke": 27463, "##oms": 22225, "botanical": 13194, "color": 3609, "doing": 2725, "\u72ac": 1908, "##fs": 10343, "verdict": 14392, "garcia": 7439, "##feng": 24383, "resemble": 13014, "confidential": 18777, "##\u0645": 22192, "##lights": 15733, "steamship": 23869, "mick": 10872, "##vel": 15985, "pollock": 25218, "##bin": 8428, "colombo": 16224, "##tura": 27431, "warlock": 28861, "canon": 9330, "steak": 21475, "percent": 3867, "alone": 2894, "applied": 4162, "##20": 11387, "vera": 12297, "cleared": 5985, "##lating": 22248, "modeling": 11643, "##ntation": 23436, "continue": 3613, "##erine": 24226, "assistance": 5375, "cab": 9298, "##tology": 23479, "identifies": 14847, "##owski": 15249, "##58": 27814, "##cked": 18141, "##nary": 24041, "nikita": 29106, "caressing": 25296, "pinyin": 9973, "launches": 18989, "##os": 2891, "rotterdam": 15632, "##\u05e4": 29807, "[unused646]": 651, "sitcom": 13130, "sworn": 10741, "sales": 4341, "##\u11a8": 30020, "bias": 13827, "33rd": 20883, "282": 26267, "angeles": 3349, "vents": 28287, "\u2076": 1540, "sagged": 26719, "producer": 3135, "##lary": 28221, "possessing": 18840, "kellogg": 26129, "manner": 5450, "asean": 27974, "roe": 20944, "me": 2033, "fastened": 24009, "[unused608]": 613, "steven": 7112, "##ime": 14428, "georgina": 27358, "nak": 17823, "gt": 14181, "martinique": 29365, "collaborating": 20295, "##sis": 6190, "hurst": 26405, "vulture": 27588, "furthermore": 7297, "lama": 18832, "rings": 7635, "keel": 19602, "cloak": 11965, "##nat": 19833, "likeness": 28275, "niagara": 15473, "[unused611]": 616, "[unused541]": 546, "##\u767d": 30441, "uber": 19169, "##\u8fb6": 30482, "upset": 6314, "\u5e1d": 1838, "narrator": 11185, "creature": 6492, "fujian": 29551, "serpent": 16517, "rewards": 19054, "o": 1051, "clockwise": 22839, "steering": 9602, "fright": 25966, "bottled": 26071, "[unused87]": 88, "##games": 26393, "vanilla": 21161, "stabilized": 27697, "mccormick": 23213, "##fa": 7011, "##\u6226": 30382, "surprised": 4527, "popularity": 6217, "chemist": 15535, "##uer": 13094, "##cken": 19766, "twenties": 18946, "fingernails": 21243, "glittering": 20332, "##watch": 18866, "1982": 3196, "burning": 5255, "[unused421]": 426, "\u0564": 1222, "drink": 4392, "dundee": 14252, "determines": 16463, "meetings": 6295, "##haw": 14238, "channel": 3149, "mori": 22993, "model": 2944, "auditor": 20964, "highs": 26836, "knocked": 6573, "ronnie": 11688, "##icative": 25184, "##=": 29630, "235": 17825, "cried": 6639, "groningen": 29070, "dynamite": 21719, "pendulum": 28300, "[unused577]": 582, "whereas": 6168, "##\u6bd4": 30416, "flutes": 28453, "disposal": 13148, "[unused387]": 392, "advent": 13896, "fetal": 25972, "##\u2609": 30149, "irving": 12415, "compartments": 27998, "landau": 28570, "targeting": 14126, "##nee": 24045, "schumann": 29448, "\u0b9a": 1383, "helm": 16254, "jaipur": 28355, "\u3009": 1638, "evaluated": 16330, "internal": 4722, "inmates": 13187, "walter": 4787, "proceeded": 8979, "howard": 4922, "editors": 10195, "##astic": 20875, "jets": 9924, "judith": 12924, "norwich": 12634, "neighbors": 10638, "murphy": 7104, "[unused23]": 24, "starters": 29400, "caution": 14046, "ethnicity": 18240, "deck": 5877, "chases": 29515, "##00": 8889, "tombstone": 26671, "graveyard": 16685, "weasel": 29268, "timothy": 10805, "##gl": 23296, "vaults": 28658, "local": 2334, "##light": 7138, "sarcastically": 23800, "analytic": 23521, "devastating": 14886, "cash": 5356, "perhaps": 3383, "forced": 3140, "##mana": 24805, "cancers": 25409, "evolution": 6622, "lords": 8140, "nevada": 7756, "##yam": 14852, "briefly": 4780, "[unused905]": 910, "##sfield": 15951, "\u2096": 1565, "[unused489]": 494, "\u6c34": 1893, "concessions": 20638, "favour": 7927, "##quisite": 24871, "irony": 19728, "lodges": 26767, "caller": 20587, "[unused290]": 295, "##dler": 21222, "hyun": 21108, "##\u2286": 30138, "##ces": 9623, "pursed": 21954, "[unused493]": 498, "1600": 14883, "aggressively": 24663, "eyebrows": 8407, "muriel": 27616, "descend": 18855, "homosexual": 15667, "dioceses": 26586, "##ando": 28574, "bombardier": 29143, "##\u6cbb": 30426, "##zzy": 28753, "muslim": 5152, "east": 2264, "graduates": 10845, "\u2190": 1583, "memorabilia": 28663, "joao": 16304, "hornets": 24855, "bernardo": 21175, "ecclesiastical": 12301, "manga": 8952, "leigh": 11797, "##inate": 14776, "##}": 29642, "##her": 5886, "kidney": 14234, "gage": 10012, "despair": 13905, "barclay": 23724, "criterion": 19229, "incident": 5043, "flemish": 15427, "##cum": 24894, "##iate": 13143, "disrupted": 20275, "ineffective": 20694, "sharon": 10666, "maturity": 16736, "obligation": 14987, "stolen": 7376, "pang": 20657, "returned": 2513, "responds": 16412, "##\u0935": 29871, "warden": 13745, "tha": 22794, "3d": 7605, "stale": 26729, "should": 2323, "coal": 5317, "\u8449": 1943, "##pod": 27633, "nexus": 26041, "##wn": 7962, "acting": 3772, "\u091f": 1320, "##yon": 14001, "\u4fdd": 1766, "avoids": 26777, "##\u044f": 17432, "##win": 10105, "aren": 4995, "lending": 18435, "##wall": 9628, "##\u3046": 30174, "##ante": 12956, "##\u65b0": 30388, "larkin": 25570, "lest": 26693, "marriage": 3510, "glare": 10982, "##\u3064": 30190, "um": 8529, "solar": 5943, "controversy": 6704, "employees": 5126, "citizens": 4480, "##\u1d30": 30028, "ramp": 13276, "##\u1d49": 30035, "healing": 8907, "dex": 20647, "##pe": 5051, "utterly": 12580, "remained": 2815, "goa": 15244, "poly": 26572, "wage": 11897, "cheerleading": 25721, "##thesis": 25078, "printer": 15041, "assigned": 4137, "##alic": 27072, "labeling": 28847, "stewart": 5954, "##arding": 29154, "any": 2151, "\u091a": 1318, "finely": 22126, "judy": 12120, "##rath": 27362, "##rp": 14536, "\u7684": 1916, "filmfare": 25648, "plague": 11629, "[unused446]": 451, "61": 6079, "champs": 29008, "##elin": 18809, "##rocity": 21735, "lecture": 8835, "madam": 21658, "##fus": 25608, "miami": 5631, "devotion": 13347, "film": 2143, "##bolt": 22803, "hanover": 14393, "liberation": 7931, "frequent": 6976, "##gren": 13565, "[unused370]": 375, "builders": 16472, "aftermath": 10530, "##on": 2239, "liv": 22135, "go": 2175, "porcelain": 17767, "therefore": 3568, "coordinate": 13530, "cr": 13675, "franchises": 22506, "sumatra": 18262, "pages": 5530, "belly": 7579, "facebook": 9130, "disks": 23999, "farming": 7876, "appears": 3544, "breeding": 8119, "##jet": 15759, "evolutionary": 12761, "measures": 5761, "dye": 18554, "salisbury": 13817, "historical": 3439, "iowa": 5947, "##al": 2389, "driving": 4439, "affinity": 16730, "schwarz": 29058, "winner": 3453, "der": 4315, "eliminating": 15349, "##stituting": 21532, "magdalena": 23984, "##ovo": 16059, "lust": 11516, "clenching": 23970, "##tana": 20496, "lanes": 10914, "mattered": 13836, "##\u0634": 29825, "##cci": 14693, "czech": 5569, "deborah": 15555, "##lli": 6894, "measuring": 9854, "middleweight": 18741, "hesitantly": 24626, "paving": 28007, "marquette": 24223, "##zle": 29247, "mine": 3067, "villa": 6992, "##\u2282": 30137, "creating": 4526, "joking": 16644, "sweden": 4701, "108": 10715, "calculus": 19276, "hang": 6865, "insects": 9728, "accustomed": 17730, "##eus": 10600, "blocks": 5991, "singled": 25369, "##tti": 6916, "\u0930": 1333, "plotted": 27347, "hawthorn": 21671, "dominican": 10104, "quad": 17718, "##se": 3366, "stood": 2768, "harvest": 11203, "1986": 3069, "[unused140]": 145, "difficulties": 8190, "viking": 12886, "sequencing": 24558, "##nob": 25083, "huskies": 29471, "##harat": 28074, "charge": 3715, "ministry": 3757, "charms": 24044, "unveiled": 11521, "environment": 4044, "weakened": 11855, "\u9762": 1976, "fairy": 8867, "toby": 11291, "##\u0f54": 29966, "[unused871]": 876, "investments": 10518, "contributing": 8020, "ground": 2598, "\uff0e": 1991, "##anda": 13832, "##acle": 18630, "fans": 4599, "##metric": 12589, "mushrooms": 23827, "stripes": 13560, "naive": 15743, "wondering": 6603, "valet": 27238, "##\u6cd5": 30427, "observers": 14009, "\u00b0": 1080, "bike": 7997, "monmouth": 20433, "glossy": 19504, "\u1174": 1482, "sawyer": 13975, "toilets": 21674, "##nsis": 11745, "[unused48]": 49, "heel": 12073, "##ctable": 23576, "146": 16333, "[unused838]": 843, "pamphlets": 24752, "quinlan": 28451, "strikeouts": 20813, "##rber": 20473, "cognition": 26497, "94": 6365, "blaze": 15347, "meeting": 3116, "##etta": 16549, "##git": 23806, "backpack": 13383, "sprinter": 19938, "usaf": 18531, "##gc": 18195, "profits": 11372, "resurgence": 26303, "mexico": 3290, "couples": 6062, "chest": 3108, "scratching": 20291, "mania": 29310, "##ic": 2594, "glance": 6054, "turbulent": 22609, "92": 6227, "aromatic": 25496, "siege": 6859, "bulgarian": 7643, "##ller": 10820, "empirical": 17537, "##ogan": 21131, "sticky": 15875, "##fies": 14213, "##haven": 14650, "bow": 6812, "avant": 14815, "178": 19289, "productivity": 15836, "shady": 22824, "##abi": 28518, "admired": 12749, "\u1109": 1461, "offs": 12446, "advance": 5083, "covers": 4472, "layout": 9621, "workshop": 8395, "numerous": 3365, "skin": 3096, "age": 2287, "bourne": 15803, "##\u3063": 30189, "[unused62]": 63, "according": 2429, "wander": 17677, "tended": 11121, "##\u5b97": 30347, "rim": 11418, "thug": 26599, "speaking": 4092, "##\u062b": 29818, "chow": 20209, "##icides": 22698, "apologies": 25380, "555": 29541, "walled": 17692, "actively": 8851, "##logue": 24277, "##dda": 25062, "economically": 15318, "demand": 5157, "violation": 11371, "##gai": 23805, "donated": 6955, "cooper": 6201, "##\u306a": 30193, "montenegrin": 24099, "##der": 4063, "councillor": 10674, "interdisciplinary": 18593, "##aran": 20486, "##\u05d5": 29792, "implement": 10408, "interacting": 21935, "ribbons": 22688, "snakes": 12971, "[unused641]": 646, "kamen": 22099, "##p": 2361, "##ivated": 21967, "serene": 25388, "indictment": 24265, "hell": 3109, "##nivorous": 29193, "hara": 18820, "platforms": 7248, "mirza": 18366, "flesh": 5771, "##ishly": 19983, "packing": 14743, "ice": 3256, "luisa": 25412, "cuts": 7659, "blamed": 11248, "charging": 13003, "##eca": 19281, "exploitation": 14427, "devi": 14386, "peru": 7304, "qaeda": 18659, "\u2261": 1607, "##ardo": 24649, "tam": 17214, "bows": 21207, "flight": 3462, "nicknamed": 9919, "idf": 24011, "erect": 14908, "franklin": 5951, "##dos": 12269, "##pone": 29513, "velvet": 10966, "eagles": 8125, "wooden": 4799, "compassion": 15398, "ezekiel": 28743, "\u0621": 1269, "examining": 12843, "smells": 14747, "##uria": 27703, "1832": 10212, "optical": 9380, "easy": 3733, "clash": 13249, "royalty": 16664, "##jia": 26541, "##omorphic": 28503, "enjoy": 5959, "coastal": 5780, "\u98a8": 1977, "unlocked": 14058, "develops": 11791, "cue": 16091, "christchurch": 15880, "1947": 4006, "section": 2930, "##rnik": 26437, "##ability": 8010, "spokane": 21878, "stealing": 11065, "[unused697]": 702, "shut": 3844, "leonid": 27316, "variously": 17611, "odessa": 19693, "persuaded": 11766, "thyroid": 29610, "ox": 23060, "adrenaline": 14963, "carr": 12385, "##nza": 16786, "unarmed": 23206, "seldom": 15839, "reapers": 27733, "bangs": 28490, "wheelbase": 29141, "\u028e": 1135, "##flow": 12314, "minimum": 6263, "kara": 13173, "glasses": 7877, "alloy": 17564, "created": 2580, "freak": 11576, "##nstein": 15493, "browns": 13240, "cote": 17155, "unmarked": 25779, "alumnus": 19678, "eden": 10267, "tolerated": 25775, "scandinavia": 20612, "issues": 3314, "clustered": 25221, "pumpkin": 25730, "quietly": 5168, "kaplan": 22990, "sorrow": 14038, "perpendicular": 19581, "brothers": 3428, "##\u03b2": 29720, "thanking": 28638, "grammar": 8035, "casts": 23942, "##mento": 23065, "##sl": 14540, "came": 2234, "contenders": 27236, "astoria": 29285, "arabs": 14560, "inferior": 14092, "side": 2217, "ad": 4748, "comment": 7615, "willard": 19138, "inherit": 22490, "2019": 10476, "endorsed": 11763, "wheeling": 29142, "manufacturer": 7751, "##uting": 20807, "vidhan": 28590, "belgium": 5706, "determine": 5646, "##rt": 5339, "hysteria": 29004, "suspects": 13172, "edmonton": 10522, "##\u00aa": 29653, "censorship": 15657, "owing": 11427, "\u10d1": 1439, "substantial": 6937, "selangor": 28904, "##ta": 2696, "chrysler": 17714, "baptized": 19775, "##body": 23684, "krakow": 14576, "dried": 9550, "1910s": 28088, "brightest": 26849, "out": 2041, "will": 2097, "pretty": 3492, "option": 5724, "best": 2190, "159": 18914, "##tadt": 18808, "##tner": 18885, "null": 19701, "mandal": 24373, "turkmenistan": 25432, "requests": 11186, "##dad": 14697, "meet": 3113, "##hre": 28362, "firmly": 7933, "indicative": 24668, "leonard": 7723, "influence": 3747, "##lander": 22691, "sensations": 21378, "##oris": 21239, "##\u653f": 30386, "quiet": 4251, "umar": 27981, "concealed": 14091, "vinegar": 29387, "lists": 7201, "physical": 3558, "iraq": 5712, "##nds": 18376, "expenditures": 22697, "intentionally": 15734, "bedford": 12003, "[unused111]": 116, "eerie": 18823, "risk": 3891, "##\u56d7": 30323, "firefighters": 21767, "infected": 10372, "brenda": 15507, "mccarthy": 12584, "##rain": 21166, "[unused902]": 907, "treason": 14712, "@": 1030, "swinging": 11820, "##jected": 24455, "##\u4f8d": 30291, "waived": 16301, "pillow": 10005, "instructed": 10290, "jon": 6285, "##\u00bc": 29664, "extensions": 14305, "[unused980]": 985, "serial": 7642, "elliot": 11759, "nuremberg": 19346, "clerk": 7805, "bessie": 29298, "archers": 23118, "paralysis": 26287, "define": 9375, "[unused82]": 83, "mahogany": 23867, "siemens": 22108, "##so": 6499, "granville": 24926, "briefs": 28760, "##gg": 13871, "[unused694]": 699, "offence": 15226, "##lore": 20186, "decreases": 17913, "ingram": 23231, "stretches": 14082, "swamps": 22722, "##aries": 12086, "wwf": 16779, "yin": 18208, "nitrate": 29607, "##fires": 26332, "##lina": 13786, "christine": 10941, "meat": 6240, "quieter": 27486, "##gne": 10177, "protruding": 23868, "res": 24501, "advisor": 8619, "##giri": 23243, "insurance": 5427, "\u03c1": 1171, "[unused770]": 775, "beginnings": 16508, "uncanny": 28953, "octopus": 24318, "fuel": 4762, "yarmouth": 28792, "##fia": 22749, "nonprofit": 14495, "\u056b": 1225, "interpreting": 25455, "##polis": 17699, "centuries": 4693, "capabilities": 9859, "borough": 5538, "gardening": 21529, "catchment": 22865, "severity": 18976, "##ossa": 21842, "oversees": 22558, "person": 2711, "ds": 16233, "[unused813]": 818, "balancing": 20120, "##words": 22104, "recurring": 10694, "laurel": 11893, "episcopal": 9134, "declined": 6430, "honduras": 14373, "gazette": 11391, "weightlifting": 29305, "##sos": 17063, "kenya": 7938, "##orus": 21694, "blinded": 20641, "somali": 16831, "architect": 4944, "[unused266]": 271, "[unused247]": 252, "intercontinental": 18725, "excluded": 12421, "340": 16029, "sped": 16887, "##aja": 22734, "senses": 9456, "whitman": 21311, "\u9f8d": 1982, "desperate": 7143, "locking": 14889, "##schaft": 26527, "hindus": 18221, "aristotle": 17484, "eighties": 27690, "volunteer": 6951, "parisian": 24262, "modifications": 12719, "##bib": 28065, "offensive": 5805, "filipino": 10275, "##\u027e": 29692, "##um": 2819, "[unused418]": 423, "kilometers": 7338, "##mont": 9629, "##cian": 14483, "##omics": 25524, "guineas": 22385, "##ser": 8043, "tensions": 13136, "sexual": 4424, "tavern": 13090, "dale": 8512, "microscopic": 26396, "trump": 8398, "position": 2597, "supporter": 10129, "##bate": 20179, "francis": 4557, "papyrus": 29575, "participates": 17257, "placement": 11073, "cruisers": 16722, "raged": 28374, "tend": 7166, "##ginal": 24965, "bathrooms": 28942, "sara": 7354, "sectional": 27197, "gloria": 10778, "##uno": 27819, "hysterical": 25614, "freiburg": 22871, "##otte": 28495, "robots": 13507, "cupboard": 25337, "toxicity": 22423, "fair": 4189, "specialised": 17009, "chatting": 22331, "commonplace": 27550, "instructions": 8128, "kobe": 24113, "\u110f": 1466, "landmark": 8637, "##uk": 6968, "greeting": 14806, "intervene": 18793, "empowerment": 23011, "sampling": 16227, "##\u05da": 29797, "resurrected": 23053, "hu": 15876, "no": 2053, "continental": 6803, "agile": 29003, "menacing": 24060, "muster": 20327, "hon": 10189, "property": 3200, "sweetie": 22872, "rita": 11620, "##ular": 7934, "[unused51]": 52, "galileo": 21514, "even": 2130, "churning": 26765, "co\u2082": 20190, "60th": 20928, "pointed": 4197, "jerked": 8245, "##\u7a7a": 30456, "lissa": 20244, "##ce": 3401, "for": 2005, "stricken": 16654, "detection": 10788, "cushion": 22936, "looked": 2246, "monica": 9018, "mission": 3260, "ballots": 17069, "soho": 23771, "[unused68]": 69, "grady": 19011, "\u0634": 1283, "##play": 13068, "orion": 18747, "pronounced": 8793, "##ught": 18533, "danny": 6266, "##lka": 26518, "##pac": 19498, "jp": 16545, "bea": 26892, "jacob": 6213, "deadly": 9252, "claude": 8149, "subdivision": 12572, "recipe": 17974, "1666": 27407, "meade": 26501, "stainless": 18676, "studio": 2996, "##tery": 20902, "4th": 4343, "ai": 9932, "forster": 21316, "##leen": 24129, "arranging": 19018, "accompanied": 5642, "##cott": 13124, "continents": 17846, "##bc": 9818, "##hair": 26227, "[unused840]": 845, "##oku": 21940, "gentle": 7132, "\u21a6": 1588, "figure": 3275, "hubbard": 16580, "##lone": 27165, "news": 2739, "lowered": 6668, "##ault": 23505, "athletic": 5188, "##arney": 25831, "##anies": 28064, "excursion": 26144, "possession": 6664, "welding": 23604, "##\u8c9d": 30478, "pleistocene": 25080, "runoff": 19550, "##ctions": 22014, "##turn": 22299, "mateo": 19327, "feeder": 21429, "##roved": 26251, "\u207b": 1545, "##lor": 10626, "atrocities": 23482, "nomenclature": 23718, "fifteenth": 16249, "rajasthan": 16815, "##mori": 24610, "[unused434]": 439, "[unused81]": 82, "##gist": 24063, "synthesizer": 13564, "##rl": 12190, "tally": 19552, "helena": 10269, "##rries": 26801, "rep": 16360, "plug": 13354, "bonding": 19882, "widowed": 22874, "ta": 11937, "1949": 4085, "alcohol": 6544, "##\u026b": 29686, "racks": 27259, "restricted": 7775, "slogan": 14558, "lastly": 22267, "316": 23980, "noctuidae": 24893, "\u043c": 1191, "pagan": 14318, "hip": 5099, "escort": 8620, "labels": 10873, "##gy": 6292, "148": 16459, "\u5ddd": 1835, "##\u0641": 29833, "domes": 26193, "dai": 18765, "##\u3059": 30184, "yesterday": 7483, "stove": 16247, "excuses": 21917, "[unused104]": 109, "constituents": 24355, "##channel": 26058, "technically": 10892, "\u0131": 1104, "reformer": 24767, "slacks": 27786, "arrogance": 24416, "##bs": 5910, "rescues": 26001, "laboratory": 5911, "nostrils": 15325, "berber": 27514, "reunion": 10301, "enabling": 12067, "emphasizes": 20618, "right": 2157, "nipples": 28124, "finalists": 13527, "plume": 26888, "##elli": 13348, "reunification": 28044, "fulbright": 26695, "ahl": 18347, "##eng": 13159, "##meyer": 24344, "##tures": 22662, "prepare": 7374, "\u570b": 1800, "sc": 8040, "##ses": 8583, "sneaking": 20727, "den": 7939, "vanguard": 18332, "fry": 14744, "fuse": 19976, "[unused766]": 771, "grant": 3946, "tirana": 24631, "##\u209b": 30098, "adapting": 25357, "largest": 2922, "puerto": 5984, "presentations": 18216, "forbes": 10822, "packard": 24100, "administrative": 3831, "realism": 15650, "##hered": 27190, "basement": 8102, "spearheaded": 27721, "himself": 2370, "avengers": 14936, "##oja": 22918, "victories": 9248, "plead": 25803, "liturgical": 19246, "1981": 3261, "be": 2022, "enjoyable": 22249, "dwarf": 11229, "famine": 15625, "assisted": 7197, "denounced": 17787, "cute": 10140, "flanks": 23547, "annum": 28907, "learners": 26262, "terror": 7404, "##\u897f": 30473, "graphic": 8425, "##ach": 6776, "fiery": 15443, "treat": 7438, "doe": 18629, "[unused46]": 47, "imagined": 8078, "scandals": 29609, "hygiene": 19548, "murmur": 20227, "knees": 5042, "##minated": 26972, "##\u0982": 29882, "vein": 12818, "regime": 6939, "resigning": 24642, "1815": 10679, "announced": 2623, "paw": 22195, "shaved": 20665, "bois": 19651, "chromosomes": 26874, "##bant": 29604, "[unused864]": 869, "said": 2056, "dedication": 12276, "wardrobe": 17828, "stout": 18890, "magnolia": 24659, "##mond": 11442, "\u1d9c": 1511, "##erson": 18617, "[unused799]": 804, "locked": 5299, "shear": 18330, "title": 2516, "##dry": 21190, "##rmin": 27512, "preservation": 8347, "ottomans": 17774, "sobs": 21503, "mozambique": 16274, "acknowledging": 21894, "##am": 3286, "important": 2590, "680": 23944, "cartridges": 22998, "upside": 14961, "pathogen": 26835, "##bling": 9709, "luce": 19913, "fountain": 9545, "miles": 2661, "affecting": 12473, "##khov": 25495, "box": 3482, "##lized": 28931, "genoa": 15771, "southend": 26104, "\u05d7": 1248, "ether": 28855, "phantom": 11588, "diamond": 6323, "target": 4539, "##enbach": 21409, "groaning": 24781, "[unused537]": 542, "hoisted": 27269, "peshawar": 28777, "classify": 26268, "switzerland": 5288, "goldsmith": 22389, "honors": 7836, "##makers": 12088, "knotted": 27039, "36": 4029, "1707": 25029, "trophy": 5384, "psi": 17816, "reconcile": 21063, "##\u0e22": 29952, "viewing": 10523, "minas": 21750, "screened": 12238, "##mony": 22847, "##\u30eb": 30259, "raises": 13275, "hokkaido": 20826, "federal": 2976, "baking": 21522, "simultaneously": 7453, "congregations": 16850, "rapidly": 5901, "##cam": 28727, "substantive": 27737, "football": 2374, "##sible": 19307, "##rled": 27501, "bangladesh": 7269, "##hiko": 22204, "##ification": 9031, "##anta": 26802, "persecuted": 27666, "##eborg": 27614, "brief": 4766, "##are": 12069, "game": 2208, "disagreement": 18185, "goalscorer": 28602, "dusk": 18406, "[unused818]": 823, "countryside": 10833, "bonus": 6781, "neighborhood": 5101, "windsor": 10064, "##imi": 27605, "wines": 14746, "##ume": 17897, "##craft": 10419, "dos": 9998, "greene": 11006, "##\u1d48": 30034, "296": 27200, "##drome": 29171, "simplest": 21304, "floods": 14295, "disorder": 8761, "glorious": 14013, "incomes": 29373, "comical": 29257, "##rates": 20370, "##weig": 27204, "unaware": 11499, "phelps": 20475, "wrote": 2626, "example": 2742, "sediment": 19671, "##hof": 14586, "wand": 23967, "cindy": 15837, "instrumental": 6150, "emerald": 14110, "##\u0584": 29786, "##ehan": 24660, "##iers": 10136, "cast": 3459, "##%": 29616, "anxious": 11480, "tanks": 7286, "##avs": 29553, "##dridge": 21482, "##rich": 13149, "ra": 10958, "fungi": 15289, "[unused188]": 193, "[unused174]": 179, "titans": 13785, "axe": 12946, "mu": 14163, "explaining": 9990, "surroundings": 11301, "lighted": 26390, "ho": 7570, "##amina": 27651, "\u967d": 1973, "apparel": 26278, "stranded": 15577, "igor": 14661, "[unused936]": 941, "sufficient": 7182, "chung": 15972, "persuasion": 27577, "ridley": 20608, "[unused786]": 791, "##may": 27871, "arcade": 10877, "womb": 26578, "sounds": 4165, "raf": 7148, "rama": 14115, "witnessing": 24740, "industrialist": 21691, "massive": 5294, "egyptian": 6811, "##\u0e40": 29959, "acted": 6051, "##rose": 13278, "##\u8a9e": 30476, "##nas": 11649, "mystical": 17529, "retired": 3394, "\ufb02": 1985, "atlanta": 5865, "bo": 8945, "##gong": 17036, "suffrage": 15178, "claws": 10702, "antennas": 26315, "mont": 18318, "var": 13075, "dub": 12931, "rhone": 22351, "elsewhere": 6974, "1719": 28162, "cuthbert": 24583, "\u0e2d": 1421, "talents": 11725, "arrest": 6545, "shore": 5370, "barber": 13362, "convince": 8054, "sequential": 25582, "[unused424]": 429, "##tung": 21847, "joint": 4101, "join": 3693, "knowles": 22815, "mcnamara": 28340, "fist": 7345, "aft": 16638, "thread": 11689, "##rth": 15265, "litter": 19070, "##mith": 19864, "unfortunate": 15140, "75": 4293, "obama": 8112, "\u0627": 1270, "fx": 23292, "[unused862]": 867, "john": 2198, "##e": 2063, "paradox": 20506, "clad": 13681, "##owed": 15096, "##k": 2243, "goodman": 14514, "##ders": 13375, "disappointment": 10520, "amazon": 9733, "rand": 14566, "flaws": 21407, "superseded": 19886, "tales": 7122, "[unused725]": 730, "wiltshire": 17045, "excused": 28512, "##ovsky": 21983, "fetch": 18584, "violence": 4808, "sulfur": 17864, "liberals": 13350, "sect": 17831, "initials": 20381, "recognise": 17614, "instruction": 7899, "werewolves": 18306, "typed": 21189, "wolverhampton": 20085, "[unused79]": 80, "resource": 7692, "\u03b2": 1156, "\u0252": 1111, "##lves": 20899, "forbade": 27315, "spice": 17688, "pensacola": 26073, "saxony": 13019, "##position": 26994, "va": 12436, "rope": 8164, "peered": 10757, "packers": 15285, "\u11b8": 1488, "bankrupt": 17482, "translated": 5421, "flipping": 18497, "poles": 10567, "sideways": 12579, "elaborated": 25187, "rid": 9436, "matrix": 8185, "##rage": 24449, "protector": 16167, "explodes": 27583, "##usia": 24118, "candles": 14006, "communes": 16569, "##eries": 28077, "##combe": 14149, "trainer": 10365, "aden": 16298, "somerville": 27209, "\u897f": 1947, "relativity": 20805, "vested": 26003, "##mine": 11233, "\u529b": 1778, "rhyme": 20622, "behaved": 26979, "assignments": 14799, "04": 5840, "geese": 28519, "##clops": 28659, "##itis": 13706, "soviets": 15269, "plunged": 16687, "governorate": 15162, "ages": 5535, "projective": 27473, "##ght": 13900, "1804": 13140, "sustained": 8760, "assimilation": 27574, "historic": 3181, "rayon": 26810, "##uw": 25974, "satellite": 5871, "don": 2123, "272": 24231, "writes": 7009, "tightening": 18711, "algorithms": 13792, "##ags": 26454, "weir": 16658, "theologians": 29013, "\u09a8": 1366, "mexican": 4916, "column": 5930, "keynote": 25569, "trips": 9109, "disqualification": 27782, "##mmon": 24521, "hyde": 11804, "slapped": 11159, "wrenched": 26971, "puget": 27879, "kei": 26679, "organisations": 8593, "\u2500": 1615, "##personal": 28823, "##spar": 27694, "financing": 12135, "hackney": 28425, "##rita": 17728, "##wee": 28394, "promoting": 7694, "sep": 19802, "##chrome": 20366, "macon": 20025, "lasting": 9879, "regulating": 21575, "oxygen": 7722, "appealing": 16004, "cdc": 26629, "\u044a": 1205, "\u09af": 1371, "arab": 5424, "capital": 3007, "pond": 8644, "##lein": 19856, "winkler": 20472, "composite": 12490, "stimulating": 27295, "rican": 13641, "covent": 29456, "felix": 8383, "chamber": 4574, "tamara": 21772, "tow": 15805, "legacy": 8027, "\u4e2d": 1746, "\u1d48": 1498, "canton": 8770, "##crats": 23423, "fascinated": 15677, "prize": 3396, "tugging": 17100, "gao": 17377, "##uary": 24384, "tunisian": 22946, "scar": 11228, "skill": 8066, "mariano": 22695, "##\u043b": 29436, "ambitious": 12479, "salad": 16521, "auspices": 20153, "baku": 16807, "assyrian": 19950, "wrestlers": 14039, "walsh": 11019, "minerals": 13246, "expands": 24545, "seemingly": 9428, "1697": 28690, "romantic": 6298, "##fall": 13976, "[unused560]": 565, "##ke": 3489, "reporter": 6398, "housemates": 28152, "bilateral": 17758, "##tions": 9285, "pisa": 25472, "doll": 10658, "rampage": 29216, "1875": 7466, "\u1100": 1455, "patrolling": 24248, "decreasing": 16922, "##kor": 21815, "trustee": 13209, "inquiry": 9934, "amnesty": 16154, "commerce": 6236, "fairbanks": 24502, "\u00a1": 1067, "endowed": 19038, "##ccus": 27631, "dreamer": 24726, "preserve": 7969, "##\u110a": 29998, "done": 2589, "##rned": 21119, "##pressing": 24128, "##xy": 18037, "mrna": 28848, "founder": 3910, "currents": 14731, "treasurer": 10211, "crafts": 14030, "terri": 26568, "arts": 2840, "hailed": 16586, "blasts": 25829, "##zaki": 18637, "zion": 19999, "niger": 16842, "fusiliers": 27207, "bharatiya": 24243, "jagger": 25827, "bulletin": 13146, "events": 2824, "archaeological": 7611, "stafford": 15064, "coil": 17085, "prasad": 17476, "directory": 14176, "mausoleum": 19049, "seeks": 11014, "cooks": 26929, "wish": 4299, "subfamily": 10946, "sequel": 8297, "##cit": 26243, "requirements": 5918, "rammed": 27653, "sean": 5977, "invisible": 8841, "##rvis": 29074, "cookies": 16324, "[unused582]": 587, "painter": 5276, "dt": 26718, "contentious": 29308, "laughs": 11680, "client": 7396, "hating": 22650, "interpreted": 10009, "tracker": 27080, "park": 2380, "hinges": 25484, "##cia": 7405, "##\u6587": 30387, "sardinia": 21594, "##\u209a": 30097, "[unused56]": 57, "celebrating": 12964, "tenderness": 24605, "threaded": 26583, "phones": 11640, "managers": 10489, "ru": 21766, "cryptic": 26483, "\u8a01": 1949, "curving": 21439, "warned": 7420, "recruited": 8733, "viscount": 12182, "period": 2558, "[unused326]": 331, "lash": 25210, "##\u2665": 30152, "insulin": 22597, "##bana": 19445, "seems": 3849, "grin": 5861, "1605": 28202, "nikolai": 13870, "christmas": 4234, "contacts": 10402, "##izzly": 29266, "racetrack": 28435, "searched": 9022, "metropolitan": 4956, "crowley": 20748, "sam": 3520, "bowed": 11489, "##ads": 19303, "palette": 27396, "##scoe": 28147, "chong": 24008, "communist": 4750, "##13": 17134, "reeves": 17891, "sour": 14768, "uncovered": 14486, "randolph": 13031, "chuckles": 26088, "beings": 9552, "freshman": 10452, "derek": 7256, "conclusions": 15306, "##\u85e4": 30470, "ken": 6358, "curriculum": 8882, "venom": 15779, "saves": 13169, "##sions": 27466, "third": 2353, "cedric": 26170, "libraries": 8860, "retreated": 11672, "\u2074": 1538, "yerevan": 23383, "science": 2671, "[unused870]": 875, "deeply": 6171, "tentatively": 19325, "psalms": 26130, "##sters": 15608, "##33": 22394, "hosts": 6184, "tractors": 28292, "tower": 3578, "##aki": 8978, "populations": 7080, "gasoline": 13753, "##\u0438\u044f": 23483, "12": 2260, "elisabeth": 12877, "butterfly": 9112, "##ang": 5654, "narrows": 25142, "hooker": 17074, "hewitt": 19482, "bartender": 15812, "tesla": 26060, "##quitable": 28298, "background": 4281, "skip": 13558, "junctions": 27169, "oversee": 17467, "tuesday": 9857, "characterised": 17253, "1874": 7586, "incumbent": 7703, "returning": 4192, "##\u5927": 30336, "wrinkled": 15968, "730": 28004, "##uss": 17854, "consistently": 10862, "ton": 10228, "readers": 8141, "treaties": 16013, "qualifier": 10981, "##cision": 28472, "shen": 21882, "newell": 28052, "kindly": 19045, "amidst": 17171, "subdivided": 15369, "reforms": 8818, "swiss": 5364, "1823": 12522, "##ington": 7853, "sentiment": 15792, "##ment": 3672, "##suit": 28880, "##\u4e0b": 30269, "outdoor": 7254, "##masters": 27751, "curling": 11599, "\u2218": 1599, "thrusts": 25842, "patterson": 12424, "[unused435]": 440, "atomic": 9593, "u": 1057, "continued": 2506, "dublin": 5772, "port": 3417, "timber": 7227, "relocating": 26811, "labelled": 18251, "cabinet": 5239, "\u211d": 1579, "syndicate": 16229, "##wire": 20357, "martins": 19953, "##lp": 14277, "drain": 12475, "milan": 6954, "syn": 19962, "jerk": 12181, "server": 8241, "##rase": 23797, "##fied": 10451, "applies": 12033, "such": 2107, "floppy": 28491, "##quist": 18331, "##ruff": 26919, "andreas": 12460, "660": 20982, "san": 2624, "##owa": 21293, "citizenship": 9068, "##ram": 6444, "##ooped": 20671, "remix": 6136, "oriental": 11481, "cracked": 9630, "howie": 28211, "merit": 7857, "massey": 21402, "raymond": 7638, "justine": 26377, "furrowed": 20555, "jammu": 21433, "passage": 6019, "rebuilding": 14584, "goin": 17249, "novella": 20674, "flirt": 27978, "commando": 15054, "theologian": 17200, "[unused911]": 916, "introduces": 13999, "everybody": 7955, "galley": 27124, "##ischen": 24488, "increasing": 4852, "hulk": 16009, "seeker": 29444, "broader": 12368, "##\u03c9": 29739, "routledge": 21180, "\u1d56": 1504, "##sitor": 28307, "mornings": 16956, "##\u0bbe": 29931, "what": 2054, "95": 5345, "enforcement": 7285, "kimberley": 25004, "radios": 22229, "##\u8eca": 30480, "shots": 7171, "wishing": 10261, "antagonist": 17379, "paso": 17161, "dillon": 14602, "##ction": 7542, "huffed": 25014, "panzer": 16946, "##\u304b": 30177, "##gni": 29076, "worship": 7425, "##rized": 18425, "streetcar": 21420, "tasks": 8518, "kv": 24888, "erasmus": 26809, "distinctions": 25995, "sentence": 6251, "##jas": 17386, "gaines": 28645, "attach": 22476, "##cer": 17119, "##typical": 27086, "mckenna": 21749, "twitter": 10474, "rotation": 9963, "##tors": 6591, "dortmund": 23912, "periodically": 18043, "\u30a3": 1694, "##iter": 21646, "\u00aa": 1076, "##ide": 5178, "##kus": 22332, "##ductive": 26638, "aubrey": 18961, "##ou": 7140, "1912": 4878, "##\u0647": 14157, "lunged": 17755, "employee": 7904, "ascent": 16354, "h\u2082o": 24833, "portal": 9445, "summary": 12654, "bai": 21790, "[unused319]": 324, "sources": 4216, "abrams": 23063, "steele": 12872, "leather": 5898, "##sley": 8002, "harmed": 25596, "hacker": 23307, "discovering": 13648, "deafening": 28840, "borg": 28709, "##hwa": 18663, "combinations": 14930, "intra": 26721, "regimental": 17604, "##thal": 24090, "laird": 21964, "57": 5401, "max": 4098, "planck": 26486, "textures": 29343, "paintings": 5265, "slang": 21435, "edit": 10086, "shamrock": 28782, "gust": 26903, "##mple": 23344, "proton": 20843, "patterned": 25336, "appointing": 28050, "floated": 13715, "domenico": 18638, "emergency": 5057, "wang": 7418, "##inations": 22045, "##wing": 9328, "##nig": 25518, "patting": 26085, "its": 2049, "##rien": 23144, "##\u7701": 30446, "lieutenant": 3812, "[unused158]": 163, "spy": 8645, "##scia": 27210, "\u5f35": 1844, "outs": 21100, "##dly": 18718, "parramatta": 22820, "aroma": 23958, "este": 28517, "landscaping": 28404, "loft": 19459, "registering": 25719, "##cos": 13186, "sixth": 4369, "##\u0434": 29742, "please": 3531, "##eurs": 26744, "connell": 17199, "mortals": 23844, "largely": 4321, "price": 3976, "##\u0e2a": 29956, "mastery": 26364, "##elis": 29282, "charlotte": 5904, "download": 8816, "indie": 10271, "images": 4871, "##linson": 25051, "]": 1033, "##\u09b9": 29913, "timetable": 23839, "[unused295]": 300, "i": 1045, "alabama": 6041, "barnett": 20073, "networking": 14048, "##il": 4014, "caused": 3303, "96": 5986, "bucharest": 14261, "shifting": 9564, "##oc": 10085, "tree": 3392, "##as": 3022, "beg": 11693, "del": 3972, "gestures": 18327, "crazed": 28343, "##rwin": 27349, "##ger": 4590, "##anov": 25417, "[unused573]": 578, "externally": 27223, "##lie": 8751, "\u06c1": 1308, "\u091c": 1319, "crate": 27297, "veto": 22102, "differences": 5966, "ulrich": 19619, "##gano": 29451, "ramsey": 15092, "barrels": 13826, "counterpart": 13637, "steiner": 21264, "\u22c5": 1614, "abducted": 20361, "##\u00bf": 29666, "##lay": 8485, "hoping": 5327, "breached": 25769, "ricky": 11184, "announces": 17472, "##brush": 18623, "sloane": 17558, "##ira": 7895, "edgar": 9586, "kaye": 23686, "protesting": 21248, "milling": 22491, "[unused93]": 94, "w": 1059, "2000": 2456, "mark": 2928, "vectors": 19019, "flower": 6546, "ascension": 18071, "featherweight": 27145, "hammersmith": 28420, "useful": 6179, "specials": 19247, "annually": 6604, "manipulating": 26242, "surprise": 4474, "leto": 24543, "terrorism": 10130, "##dt": 11927, "##aged": 18655, "haggard": 27912, "however": 2174, "manufactured": 7609, "lone": 10459, "##ber": 5677, "newfound": 27608, "penthouse": 22855, "##\u30d2": 30245, "##test": 22199, "azores": 28320, "whilst": 5819, "hercules": 15067, "##tori": 29469, "house": 2160, "musee": 18070, "farther": 8736, "fleet": 4170, "mw": 12464, "aggregate": 9572, "##most": 11800, "gs": 28177, "freedoms": 22467, "##nk": 8950, "approx": 22480, "replaced": 2999, "response": 3433, "vary": 8137, "upwards": 14873, "interior": 4592, "replace": 5672, "suffix": 16809, "litres": 25783, "##ias": 7951, "##enne": 24336, "##och": 11663, "dead": 2757, "horton": 18469, "##ries": 5134, "apply": 6611, "fool": 7966, "harm": 7386, "promotions": 15365, "blinked": 7948, "trees": 3628, "\u0632": 1281, "smug": 20673, "thrilled": 16082, "ruler": 7786, "evil": 4763, "failures": 15428, "tangle": 24453, "\u30ce": 1717, "princeton": 9173, "forthcoming": 16875, "\u624b": 1858, "minus": 15718, "##bt": 19279, "[unused795]": 800, "##ilis": 24411, "##gative": 26792, "islamist": 27256, "headwaters": 25345, "earthquakes": 17932, "disclosed": 21362, "ras": 20710, "##\u3068": 30192, "presentation": 8312, "cord": 11601, "unfit": 29439, "skull": 7412, "flint": 13493, "winter": 3467, "##dget": 24291, "northampton": 15944, "dinner": 4596, "slipped": 5707, "unicode": 27260, "depot": 8470, "nigel": 12829, "##uli": 15859, "cornell": 10921, "##opped": 27288, "[unused854]": 859, "banging": 22255, "##cl": 20464, "reproductive": 15124, "##tley": 18492, "[unused49]": 50, "viceroy": 19007, "worth": 4276, "beaten": 7854, "specialized": 7772, "##rdon": 28176, "hammer": 8691, "hagen": 24047, "laps": 10876, "oven": 17428, "##atics": 17592, "doctrine": 8998, "texted": 24637, "favorably": 27597, "[unused437]": 442, "1792": 13414, "given": 2445, "1994": 2807, "##tructing": 26310, "palais": 22113, "##\u028c": 29700, "noticing": 15103, "heron": 22914, "oboe": 22523, "italics": 19408, "work": 2147, "trenches": 19874, "judaism": 13725, "rang": 8369, "country": 2406, "[unused439]": 444, "restrict": 21573, "##iques": 19516, "boarded": 17383, "por": 18499, "field": 2492, "[unused13]": 14, "savings": 10995, "boroughs": 21413, "##ape": 24065, "##washed": 27283, "patel": 20455, "revival": 6308, "eastman": 24252, "everything": 2673, "sprinted": 25156, "recreation": 8640, "spilling": 18054, "millennia": 27620, "##gny": 19393, "genevieve": 20245, "nigeria": 7387, "whig": 21632, "slots": 19832, "soloists": 27516, "antilles": 27695, "grease": 21956, "[unused868]": 873, "internationale": 21339, "stakeholders": 22859, "counselor": 17220, "##id": 3593, "ames": 19900, "adams": 5922, "stalls": 19753, "number": 2193, "sediments": 20476, "rallied": 24356, "writing": 3015, "wellesley": 25658, "greatest": 4602, "##ima": 9581, "bwv": 23860, "scars": 13521, "##sov": 23230, "hears": 14994, "formally": 6246, "shay": 18789, "upgraded": 9725, "\u5143": 1769, "##cd": 19797, "fates": 26417, "##nesia": 21509, "jenkins": 11098, "lyndon": 23037, "corbin": 24003, "##vor": 14550, "strides": 22215, "augustine": 14060, "\uff09": 1988, "macedonia": 11492, "explore": 8849, "##bilities": 14680, "commit": 10797, "##drich": 23335, "turnbull": 26439, "clinch": 29119, "nervous": 6091, "physically": 8186, "garth": 21523, "forgotten": 6404, "filmmaking": 24466, "adapted": 5967, "##ter": 3334, "[unused688]": 693, "##cable": 21170, "trucks": 9322, "drifting": 15013, "unconventional": 23693, "[unused502]": 507, "retrospective": 15354, "sheffield": 8533, "\u11af": 1486, "cancer": 4456, "emmanuel": 14459, "stomach": 4308, "[unused338]": 343, "scarlett": 20862, "[unused723]": 728, "1675": 27194, "completing": 7678, "licensing": 13202, "escorting": 23831, "johann": 8968, "team": 2136, "##clave": 23650, "falcon": 11684, "experts": 8519, "rom": 17083, "##zie": 14272, "publisher": 6674, "[unused7]": 8, "journalists": 8845, "generic": 12391, "prime": 3539, "1830s": 20400, "mistaken": 13534, "today": 2651, "ecuador": 10378, "acidic": 24171, "harvey": 7702, "elton": 19127, "purposes": 5682, "evicted": 25777, "##erik": 27350, "ended": 3092, "plea": 14865, "##wives": 23744, "magnificent": 12047, "[unused462]": 467, "[unused161]": 166, "trio": 7146, "grasses": 21620, "impulse": 14982, "committed": 5462, "##pore": 26691, "dramatically": 12099, "##us": 2271, "\u03bd": 1167, "shifter": 18189, "myriad": 25028, "losing": 3974, "policemen": 19809, "##\u0452": 29758, "##work": 6198, "##urne": 21737, "set": 2275, "mathias": 20494, "##zee": 23940, "semantic": 21641, "combustion": 16513, "morphological": 24012, "lottery": 15213, "myrtle": 21381, "latino": 7402, "##layer": 24314, "gospels": 24131, "1764": 21488, "abdomen": 13878, "[unused173]": 178, "started": 2318, "##\uff1f": 30520, "understood": 5319, "\u11bc": 1489, "bruise": 24851, "walker": 5232, "pulling": 4815, "around": 2105, "inheritance": 12839, "##lard": 20822, "intake": 13822, "##\u2f65": 30160, "[unused232]": 237, "pianist": 9066, "russ": 18072, "posthumously": 12770, "attendant": 16742, "reminds": 15537, "benoit": 21721, "pouch": 21445, "##nting": 24360, "##\u2205": 30121, "place": 2173, "transitional": 17459, "cousins": 12334, "##ges": 8449, "solos": 24339, "vp": 21210, "catalina": 22326, "castle": 3317, "proportional": 14267, "blows": 13783, "retailer": 20196, "computers": 7588, "remarked": 10783, "figures": 4481, "meridian": 17984, "##edging": 28002, "winnipeg": 11093, "lea": 12203, "compressor": 29329, "doorway": 7086, "##ael": 21147, "toured": 7255, "retracted": 28214, "bridget": 19218, "tear": 7697, "wonderland": 20365, "##lic": 10415, "savior": 24859, "##icles": 20921, "mccartney": 15320, "1816": 12357, "surveying": 19654, "once": 2320, "##aldo": 27318, "barking": 19372, "##cera": 19357, "##upt": 29441, "buster": 18396, "therapy": 7242, "starved": 26042, "hired": 5086, "anthology": 9637, "daphne": 16847, "intercourse": 23198, "bonnie": 12220, "multinational": 20584, "##ini": 5498, "attracting": 15411, "proprietary": 16350, "flock": 19311, "churchyard": 19812, "represents": 5836, "painted": 4993, "##yre": 16363, "notices": 14444, "utopia": 26425, "vladimir": 8748, "unnamed": 13294, "midnight": 7090, "responding": 14120, "tex": 16060, "[unused38]": 39, "rum": 19379, "salty": 23592, "reputation": 5891, "cannes": 14775, "feldman": 26908, "pitches": 19299, "her": 2014, "##\u53e3": 30314, "##maid": 28478, "annals": 16945, "##mmer": 15810, "bundesliga": 14250, "tailored": 21727, "[unused878]": 883, "on": 2006, "smaller": 3760, "nicholson": 16955, "dent": 21418, "rumors": 11256, "approach": 3921, "liking": 16663, "faith": 4752, "independence": 4336, "laureate": 17656, "manchu": 26650, "isa": 18061, "glamorgan": 23861, "stimulus": 19220, "68": 6273, "athens": 7571, "lucivar": 21401, "analysts": 18288, "[unused901]": 906, "##js": 22578, "vertices": 18984, "##sle": 25016, "ric": 26220, "treating": 12318, "twentieth": 9086, "##\u9234": 30491, "##erton": 20995, "[unused411]": 416, "\u8ecd": 1955, "##eim": 12112, "peptide": 25117, "campeonato": 17675, "commentaries": 21241, "molecular": 8382, "##uka": 15750, "punishments": 29115, "galaxy": 9088, "voters": 7206, "trajectory": 22793, "cinemas": 19039, "mat": 13523, "hawaii": 7359, "australian": 2827, "[unused985]": 990, "booth": 9065, "ind": 27427, "##chy": 11714, "##uga": 16377, "\u2013": 1516, "judge": 3648, "##\u0f0b": 29960, "feral": 18993, "idols": 24438, "demonic": 23170, "y": 1061, "apples": 18108, "##dation": 20207, "inexpensive": 23766, "##avia": 15164, "##rz": 15378, "##kie": 11602, "learning": 4083, "##nard": 16564, "blade": 6085, "gospel": 8036, "flaw": 28450, "\u0441": 1196, "cordoba": 17986, "upon": 2588, "##jan": 8405, "reprise": 16851, "##ensburg": 28812, "##yl": 8516, "explode": 15044, "activity": 4023, "unclear": 10599, "doorstep": 26581, "orange": 4589, "duffy": 17971, "##\u043a": 23925, "homicide": 18268, "journal": 3485, "aragon": 16146, "restructuring": 18322, "\u0940": 1342, "nr": 17212, "##\u00bb": 29663, "##lithic": 28508, "[unused927]": 932, "112": 11176, "seaside": 20276, "##xes": 20156, "sinking": 10186, "weaving": 15360, "nouveau": 25272, "\u221a": 1600, "##rak": 16555, "##iating": 15370, "betsy": 22396, "pitt": 15091, "infinite": 10709, "\u3057": 1657, "\u3053": 1655, "\u0f53": 1429, "##tao": 28555, "##isa": 14268, "##non": 8540, "adventures": 7357, "goats": 17977, "attache": 29489, "maltese": 18563, "miss": 3335, "1933": 4537, "kinase": 21903, "considering": 6195, "##tec": 26557, "##cured": 19405, "##sol": 19454, "refueling": 23026, "el": 3449, "\u6f22": 1904, "\u4f8d": 1765, "1829": 11523, "dennis": 6877, "perceived": 8690, "turbo": 15386, "##efe": 27235, "##ication": 21261, "plans": 3488, "ct": 14931, "##rval": 26585, "nearby": 3518, "dedicated": 4056, "harden": 28751, "picture": 3861, "pines": 17527, "[unused453]": 458, "sincere": 18006, "##9": 2683, "washed": 8871, "malone": 16321, "takeover": 15336, "##gaard": 18839, "216": 20294, "1901": 5775, "chunk": 20000, "landscape": 5957, "##ista": 11921, "indicator": 17245, "##rop": 18981, "upland": 25770, "judah": 23022, "##scent": 27654, "owen": 7291, "resigned": 5295, "\u0bb3": 1393, "##urities": 29366, "##uder": 29190, "walden": 24834, "perspectives": 15251, "beside": 3875, "portion": 4664, "unacceptable": 21873, "##app": 29098, "flared": 14937, "##ene": 8625, "tips": 10247, "equivalent": 5662, "maximus": 21692, "dying": 5996, "ellis": 8547, "##\u0915": 29851, "virus": 7865, "##amps": 25167, "##user": 20330, "nawab": 26543, "ejected": 22607, "writings": 7896, "##belle": 25766, "baggage": 20220, "[unused596]": 601, "##zu": 9759, "riding": 5559, "fruit": 5909, "\u05de": 1255, "prakash": 22233, "monitoring": 8822, "securing": 12329, "thinner": 23082, "##\u2606": 30148, "marshal": 8610, "ceasefire": 26277, "pipe": 8667, "grass": 5568, "[unused450]": 455, "##nais": 28020, "andover": 29463, "wasps": 23146, "##rith": 24292, "mantle": 16019, "possessive": 22105, "##tropical": 25528, "##eros": 27360, "select": 7276, "##dicate": 16467, "statistics": 6747, "festivities": 21206, "duke": 3804, "##fera": 27709, "ser": 14262, "nonstop": 25493, "photographer": 8088, "[unused382]": 387, "absolutely": 7078, "##\u09c0": 29916, "initiatives": 11107, "ever": 2412, "\u5bb6": 1825, "operation": 3169, "rothschild": 19712, "pigment": 28815, "gaza": 14474, "diaz": 12526, "##uance": 26620, "scooped": 20804, "beatles": 11555, "academies": 20994, "1727": 25350, "37th": 23027, "suriname": 25050, "##stic": 10074, "##tering": 17989, "current": 2783, "##rba": 28483, "##birds": 12887, "meaning": 3574, "introductions": 25795, "insignificant": 27018, "occasional": 8138, "tennessee": 5298, "##ital": 18400, "marches": 20691, "265": 20549, "rain": 4542, "swept": 7260, "probable": 15596, "guerrillas": 26955, "widening": 17973, "##ello": 15350, "creative": 5541, "117": 12567, "##ations": 10708, "501": 16202, "mitochondrial": 23079, "reza": 26323, "##sso": 24137, "skinny": 15629, "stillness": 29435, "170": 10894, "avon": 16131, "##vinsky": 27704, "humiliating": 28284, "folder": 19622, "whitehall": 28361, "plan": 2933, "ares": 23631, "##\u1d56": 30040, "candidacy": 17057, "##lon": 7811, "\u7530": 1911, "buckley": 17898, "daisy": 10409, "che": 18178, "hansen": 13328, "raft": 21298, "adviser": 11747, "crop": 10416, "chronicle": 9519, "\u09a4": 1362, "outlaw": 19104, "##mbit": 28878, "kung": 18577, "guest": 4113, "elected": 2700, "hickory": 28158, "172": 18253, "recital": 25521, "konrad": 22958, "stony": 16104, "pots": 18911, "slack": 19840, "edouard": 21627, "##\u05e1": 29804, "biscuits": 27529, "##ishing": 21837, "zane": 6944, "follows": 4076, "##gart": 27378, "cow": 11190, "dickinson": 17590, "artworks": 22000, "##iga": 13340, "[unused177]": 182, "spells": 11750, "factories": 11123, "habits": 14243, "267": 25491, "nhl": 7097, "nbc": 6788, "reactor": 13308, "mis": 28616, "kern": 22762, "dammit": 20878, "\u5e7f": 1842, "\u0645": 1295, "##ivision": 24607, "##gn": 16206, "full": 2440, "##ium": 5007, "affairs": 3821, "\u30c6": 1713, "accessed": 11570, "encounters": 11340, "hamlet": 8429, "gulp": 26546, "##sden": 27903, "newly": 4397, "nadia": 14942, "abdominal": 21419, "harsh": 8401, "proxy": 24540, "renee": 17400, "ahmedabad": 27249, "particle": 10811, "dealt": 9411, "##itte": 27100, "\u30d5": 1720, "bar": 3347, "##runner": 23195, "ives": 23945, "##inae": 16414, "relief": 4335, "taekwondo": 28529, "share": 3745, "fore": 18921, "brendan": 15039, "rc": 22110, "176": 18561, "catalogue": 10161, "transfer": 4651, "spears": 13957, "avenge": 24896, "zoe": 11199, "advised": 9449, "archaeologist": 18821, "fueled": 17999, "frank": 3581, "prolific": 12807, "provence": 19923, "##hia": 12995, "##rize": 25709, "vegetation": 10072, "memorials": 22899, "##van": 6212, "##yx": 17275, "burkina": 23089, "vineyards": 20597, "bk": 23923, "##ency": 11916, "pga": 14198, "durham": 9296, "camps": 7958, "secretariat": 15128, "posing": 20540, "[unused155]": 160, "##\u03c1": 29732, "horne": 24084, "##ifier": 18095, "padre": 28612, "agencies": 6736, "concurrency": 24154, "process": 2832, "\u05d4": 1245, "lung": 11192, "interviewing": 27805, "granite": 9753, "spectacle": 21177, "##max": 17848, "blackened": 25788, "##held": 24850, "prone": 13047, "grand": 2882, "macintosh": 22228, "usl": 22448, "kilometres": 3717, "professor": 2934, "1812": 9842, "##ri": 3089, "reprinted": 13603, "paying": 7079, "ankara": 20312, "##\u09aa": 29903, "sweetly": 22557, "kumar": 9600, "butch": 17520, "\u3046": 1648, "401": 22649, "heroin": 19690, "waterfalls": 24236, "currency": 9598, "##zuka": 22968, "##\u7530": 30437, "##isson": 24077, "495": 29302, "thorne": 14296, "shaped": 5044, "mosques": 21922, "sickness": 15556, "realizes": 10919, "##drick": 24092, "perfect": 3819, "sonny": 13584, "validation": 27354, "goo": 27571, "tipping": 25486, "doses": 21656, "sensors": 13907, "benefits": 6666, "compromise": 12014, "assumed": 5071, "bless": 19994, "##mite": 23419, "merge": 13590, "##ndon": 19333, "##rrow": 28597, "arlington": 13929, "haas": 22996, "##ritan": 25279, "empowered": 26480, "akbar": 20730, "martin": 3235, "##ism": 2964, "##hear": 26560, "cbe": 15852, "##eon": 10242, "##\u0f0d": 29961, "milk": 6501, "bray": 19743, "ago": 3283, "##\u0261": 29682, "secondly": 16378, "gilded": 23880, "shovel": 24596, "cavalier": 28778, "[unused67]": 68, "shale": 18488, "ich": 22564, "unsafe": 25135, "sanitation": 18723, "perfume": 17013, "bright": 4408, "##aia": 27131, "interpretations": 15931, "\u0982": 1346, "pier": 10356, "vice": 3580, "1700": 16601, "funny": 6057, "opium": 21075, "##mental": 26901, "##sas": 20939, "yuan": 11237, "intel": 13420, "##nsk": 25564, "decimal": 26066, "262": 21950, "louis": 3434, "olympiad": 25225, "##\u6c35": 30420, "##abe": 16336, "widen": 21255, "winery": 23910, "internacional": 27607, "racehorse": 25068, "whitley": 27007, "##ishment": 21808, "spp": 26924, "$": 1002, "formats": 11630, "expeditionary": 15372, "[unused427]": 432, "icc": 16461, "unification": 16905, "\u056c": 1226, "##dote": 23681, "icons": 18407, "viz": 26619, "##rza": 24175, "derby": 7350, "commemorative": 17524, "slamming": 15209, "were": 2020, "allows": 4473, "heroism": 27117, "rei": 24964, "carla": 17081, "pat": 6986, "woodrow": 23954, "213": 19883, "expense": 10961, "focus": 3579, "rower": 21984, "perfection": 15401, "contend": 27481, "bill": 3021, "oaxaca": 26923, "calf": 19134, "granada": 16553, "et": 3802, "##pta": 22799, "mer": 21442, "\u5357": 1785, "steals": 15539, "generators": 16937, "abstracts": 29474, "278": 24709, "\u1d62": 1507, "##man": 2386, "##rained": 27361, "23rd": 13928, "communication": 4807, "genre": 6907, "atom": 13787, "nam": 15125, "dilapidated": 29283, "usc": 15529, "nathan": 7150, "audrey": 14166, "ui": 21318, "bears": 6468, "cited": 6563, "rebel": 8443, "breasts": 12682, "interrupt": 17938, "squid": 26852, "une": 16655, "someone": 2619, "\u3075": 1674, "##ergy": 24395, "vo": 29536, "product": 4031, "rv": 27634, "press": 2811, "torque": 15894, "upbeat": 27999, "undertook": 12543, "violent": 6355, "organizes": 22013, "organs": 11595, "rhymes": 24468, "gdp": 14230, "gateway": 11909, "##kel": 11705, "thai": 7273, "lawyer": 5160, "di": 4487, "##plicity": 27293, "recordings": 5633, "stade": 15649, "mermaid": 22322, "clamped": 18597, "ensured": 16316, "1703": 28366, "880": 26839, "tingling": 23690, "mundo": 25989, "strategies": 9942, "bolted": 18088, "##flower": 14156, "men": 2273, "1907": 5528, "saints": 6586, "##arians": 28369, "mirage": 21483, "syndication": 26973, "kiel": 20963, "remarried": 19316, "explain": 4863, "icelandic": 14024, "##oria": 11069, "##vsky": 15904, "conferences": 9281, "[unused85]": 86, "kimberly": 23729, "skeleton": 13526, "munich": 7469, "[unused228]": 233, "1853": 8933, "cubic": 11919, "##nent": 21576, "##iard": 14619, "119": 13285, "deaths": 6677, "scout": 7464, "##bush": 22427, "[unused622]": 627, "##inal": 13290, "austria": 5118, "[unused476]": 481, "##65": 26187, "##gno": 26745, "##\u6211": 30381, "ant": 14405, "##lts": 21593, "tendency": 11765, "seasonal": 12348, "attracts": 17771, "1930s": 5687, "convergence": 19143, "greet": 17021, "##\u53e4": 30315, "butt": 10007, "piccolo": 29368, "##liche": 27412, "brownish": 19437, "\u05d5": 1246, "##col": 25778, "cascade": 16690, "introduce": 8970, "barriers": 13500, "narrowed": 8061, "establishments": 17228, "##ka": 2912, "afi": 28697, "atlantis": 16637, "##tical": 14656, "##how": 14406, "pearls": 21944, "going": 2183, "##nna": 9516, "agrees": 10217, "vogel": 27063, "velocity": 10146, "crises": 25332, "gerard": 11063, "##rano": 20770, "odds": 10238, "officer": 2961, "##shah": 25611, "towards": 2875, "commandos": 25144, "nina": 9401, "##gle": 9354, "##oic": 19419, "mutation": 16221, "rebirth": 22785, "swimmers": 21669, "2021": 25682, "qualifying": 6042, "[unused470]": 475, "##cin": 15459, "lame": 20342, "[unused210]": 215, "interesting": 5875, "networks": 6125, "revisions": 24699, "spreads": 20861, "fabricated": 24212, "pursuit": 8463, "nagar": 16395, "tis": 22320, "knuckles": 13513, "religion": 4676, "vin": 19354, "1": 1015, "##evic": 17726, "tokyo": 5522, "macleod": 23075, "surname": 11988, "dispatched": 14501, "coach": 2873, "nippon": 19364, "unbeaten": 20458, "\u0259": 1114, "chiang": 17684, "supplemented": 20585, "##gration": 29397, "##\u2085": 30081, "silk": 6953, "stuffing": 28652, "girls": 3057, "lord": 2935, "tyres": 24656, "##\u306d": 30196, "[unused856]": 861, "watt": 15231, "##shaft": 25679, "1922": 4798, "archive": 8756, "1930": 4479, "mumbai": 8955, "gun": 3282, "laura": 6874, "cornerstone": 23354, "jamaican": 17851, "rubin": 20524, "within": 2306, "intimidated": 28028, "kari": 27356, "blurred": 18449, "plate": 5127, "performs": 10438, "droplets": 27126, "manchester": 5087, "worsened": 27622, "\u1d63": 1508, "darwin": 11534, "leslie": 8886, "focusing": 7995, "heidi": 21372, "##\u305f": 30187, "trivial": 20610, "1866": 7647, "ellie": 10707, "climbing": 8218, "swaying": 21826, "absence": 6438, "##skie": 23955, "pump": 10216, "respecting": 27818, "##rri": 18752, "bulldog": 28628, "344": 29386, "high": 2152, "gordon": 5146, "enacted": 11955, "offenders": 19591, "##\u2660": 30150, "butler": 7055, "lined": 7732, "mil": 23689, "antonia": 24272, "browser": 16602, "stanley": 6156, "mirrored": 22243, "##tma": 29418, "headlights": 18167, "eve": 6574, "time": 2051, "sheet": 7123, "mon": 12256, "luton": 17807, "formal": 5337, "\u1d3a": 1494, "comfortably": 18579, "adjoining": 13562, "271": 25103, "automation": 19309, "marry": 5914, "##aru": 15728, "drinks": 8974, "verbal": 12064, "tossed": 7463, "ankle": 10792, "wheat": 10500, "2006": 2294, "minneapolis": 11334, "chester": 8812, "virginity": 26970, "perished": 23181, "stark": 9762, "halo": 17201, "badger": 24186, "reynolds": 9579, "\u9234": 1965, "##ayton": 29319, "anna": 4698, "prefer": 9544, "converts": 19884, "woven": 17374, "lister": 27177, "mouthed": 20521, "##pled": 21132, "1914": 4554, "littered": 24777, "collaborate": 20880, "##shan": 9688, "##lines": 12735, "##nne": 10087, "dexter": 14375, "germans": 7074, "coco": 25033, "aging": 12520, "##kka": 15714, "autobiographical": 18534, "##hus": 9825, "responsibility": 5368, "traps": 16735, "fang": 15197, "reflects": 11138, "carried": 3344, "valkyrie": 26696, "paris": 3000, "endorsement": 20380, "raven": 10000, "warnings": 16234, "clawed": 22544, "forrest": 16319, "##\u0274": 29690, "california": 2662, "\u30f3": 1737, "topographic": 24254, "teenage": 9454, "relocated": 7448, "flank": 12205, "nursery": 13640, "charming": 11951, "minimal": 10124, "phase": 4403, "globe": 7595, "families": 2945, "tobin": 28096, "detachments": 29568, "taxpayers": 26457, "##uising": 28580, "##herton": 27949, "barre": 23189, "corridors": 17506, "sweetheart": 12074, "dowry": 29603, "foster": 6469, "exclusively": 7580, "revision": 13921, "gabled": 26182, "bas": 19021, "##train": 23654, "belarus": 12545, "opposed": 4941, "wow": 10166, "campos": 26925, "reminder": 14764, "consoles": 22659, "sons": 4124, "##\u05d1": 29789, "disc": 5860, "showers": 23442, "boat": 4049, "173": 19410, "dissemination": 28170, "arc": 8115, "##oder": 27381, "fabrication": 25884, "##ffe": 16020, "colleges": 6667, "coined": 13279, "uniforms": 11408, "dewey": 20309, "##ush": 20668, "\u4e00": 1740, "##bala": 25060, "##eded": 19082, "carbonate": 26427, "yelling": 13175, "##ctum": 27272, "[unused162]": 167, "thomas": 2726, "composition": 5512, "stabilization": 28715, "friedrich": 8896, "fee": 7408, "aegean": 27198, "##ur": 3126, "##wind": 11101, "where": 2073, "ua": 25423, "##meter": 22828, "##ddling": 21814, "collect": 8145, "joey": 9558, "firm": 3813, "irs": 25760, "originating": 14802, "wants": 4122, "achieving": 10910, "ck": 23616, "weather": 4633, "apple": 6207, "karma": 19902, "listing": 10328, "thwarted": 28409, "parted": 10277, "catalonia": 16711, "prophet": 12168, "##giving": 23795, "subsistence": 27667, "typical": 5171, "messenger": 11981, "\u539f": 1787, "concert": 4164, "##bard": 21458, "tables": 7251, "flat": 4257, "indefinitely": 20733, "runes": 29161, "hearst": 25419, "sloop": 24786, "##\u0637": 29828, "disasters": 18665, "mach": 24532, "outlets": 11730, "250": 5539, "professionals": 8390, "rca": 12639, "becker": 15309, "practically": 8134, "upstairs": 8721, "rugged": 17638, "caught": 3236, "##go": 3995, "pops": 16949, "fiji": 11464, "[unused342]": 347, "##shi": 6182, "neuroscience": 23700, "cu": 12731, "southland": 29121, "premises": 10345, "idol": 10282, "##ignment": 24838, "benito": 23595, "societal": 23382, "exiles": 27127, "modules": 14184, "##hima": 16369, "##\u301c": 30171, "vidal": 29259, "dane": 14569, "tenderly": 26596, "anand": 18887, "perceptions": 23271, "managing": 6605, "##lus": 7393, "cities": 3655, "1929": 4612, "novi": 21574, "arrows": 12563, "##w": 2860, "northeastern": 8763, "presumed": 14609, "plank": 24000, "fiction": 4349, "traverse": 20811, "##cards": 17965, "privilege": 14293, "cremated": 28376, "##cek": 25368, "coup": 8648, "[unused364]": 369, "rifle": 5883, "spec": 28699, "attackers": 17857, "odisha": 21874, "##movable": 25661, "elites": 27021, "##unas": 23904, "settlers": 7322, "fling": 27655, "unemployed": 18787, "mor": 22822, "corporation": 3840, "cabins": 20321, "handicap": 15822, "comprising": 9605, "pleasing": 24820, "1821": 11723, "[unused776]": 781, "catherine": 6615, "coins": 7824, "\u2018": 1520, "kelley": 19543, "mtv": 8692, "##heim": 8049, "choreographed": 23317, "45": 3429, "truncated": 25449, "telecom": 18126, "##dou": 26797, "murdering": 21054, "294": 28135, "ep": 4958, "55": 4583, "1714": 25241, "intend": 13566, "##like": 10359, "sorority": 27600, "medina": 15761, "wallis": 24029, "fleming": 13779, "crossover": 16335, "swamp": 11963, "peterborough": 17587, "accompanying": 10860, "reached": 2584, "[unused811]": 816, "##\u898b": 30474, "##\u7fa9": 30462, "codes": 9537, "griffith": 14135, "festival": 2782, "literally": 6719, "##55": 24087, "115": 10630, "flies": 10029, "safer": 13726, "##tra": 6494, "torre": 22047, "##\u304f": 30179, "johnston": 10773, "barren": 20225, "execution": 7781, "activism": 16841, "##laise": 25122, "wrapped": 5058, "tags": 22073, "promptly": 13364, "exceeded": 14872, "troy": 9553, "areas": 2752, "tolerance": 13986, "confirmed": 4484, "\u2085": 1552, "apartments": 9620, "limits": 6537, "##mit": 22930, "##core": 17345, "##para": 28689, "streamlined": 29445, "goblin": 22639, "1962": 3705, "increase": 3623, "##boro": 12691, "historian": 5272, "##phi": 21850, "repository": 22409, "colorful": 14231, "##vd": 16872, "stream": 5460, "\u6728": 1875, "ounce": 19471, "excluding": 13343, "18th": 4985, "nutritional": 28268, "mid": 3054, "vegetarian": 23566, "##mie": 9856, "bio": 16012, "##ast": 14083, "1847": 9176, "1670": 26253, "runway": 9271, "##uding": 24539, "##croft": 14716, "\u6625": 1867, "[unused120]": 125, "regaining": 28657, "flushing": 23519, "1620": 24259, "##mous": 27711, "hans": 7003, "cells": 4442, "embark": 28866, "battled": 19787, "stabbing": 21690, "masters": 5972, "enfield": 25821, "hungary": 5872, "worrying": 15366, "[unused504]": 509, "##\u30ca": 30241, "##adan": 26335, "##lands": 8653, "##khan": 26370, "garden": 3871, "##lot": 10994, "rocky": 6857, "stryker": 25429, "shattering": 21797, "tie": 5495, "canadiens": 21247, "bubble": 11957, "royce": 14789, "<": 1026, "stalin": 13125, "odyssey": 18735, "designation": 8259, "##adi": 17190, "nec": 26785, "chennai": 12249, "originated": 7940, "fossils": 11954, "abnormalities": 28828, "##\u1107": 29996, "##ots": 12868, "commons": 7674, "560": 21267, "diversion": 20150, "clone": 17598, "theorists": 28442, "options": 7047, "chop": 24494, "homosexuality": 15949, "feed": 5438, "cows": 17188, "##sul": 23722, "flashback": 21907, "##\u0995": 29889, "\u2010": 1513, "alain": 15654, "##ese": 6810, "mating": 15100, "muslims": 7486, "zoo": 9201, "sum": 7680, "unwilling": 15175, "rejoin": 25261, "hazard": 15559, "crept": 13147, "##yme": 25219, "ari": 10488, "\u20b1": 1575, "friedman": 18486, "teeth": 4091, "concussion": 23159, "issn": 23486, "gunn": 22079, "amassed": 22151, "gabriel": 6127, "animated": 6579, "deeds": 15616, "resembling": 15525, "scattering": 17501, "docks": 15093, "keane": 27228, "##omic": 22026, "shows": 3065, "##\u0621": 29815, "admits": 14456, "mystery": 6547, "beaumont": 16210, "nominee": 9773, "undoubtedly": 17319, "respected": 9768, "ks": 29535, "lebanon": 8341, "verve": 29230, "##farlane": 23511, "1610": 25800, "##udence": 29424, "recipients": 15991, "works": 2573, "##ect": 22471, "ashley": 9321, "messengers": 28938, "rocker": 24779, "##tzer": 29546, "lunch": 6265, "##ga": 3654, "americana": 25988, "lena": 14229, "couple": 3232, "cnn": 13229, "lungs": 8948, "cream": 6949, "disruption": 20461, "peak": 4672, "musically": 21385, "[unused597]": 602, "decline": 6689, "martyr": 17216, "fascinating": 17160, "redistribution": 25707, "warwickshire": 18430, "##\u56db": 30324, "##grapher": 18657, "plaza": 8232, "39th": 22702, "host": 3677, "##ving": 6455, "monthly": 7058, "whirled": 17097, "##oda": 13390, "##vern": 23062, "communion": 15661, "\u0636": 1285, "##h": 2232, "##\u0289": 29697, "kerry": 11260, "311": 23532, "##aker": 22626, "##nse": 12325, "##cing": 6129, "administer": 21497, "1844": 9730, "##rte": 19731, "greasy": 26484, "##ense": 16700, "reluctant": 11542, "advisers": 24205, "deliberate": 15063, "ff": 21461, "amir": 18904, "based": 2241, "advisory": 7319, "philips": 19087, "child": 2775, "attempt": 3535, "suck": 11891, "thighs": 9222, "republic": 3072, "##bra": 10024, "dotted": 20384, "donna": 10972, "##dis": 10521, "##aid": 14326, "philadelphia": 4407, "loren": 28779, "1975": 3339, "scaled": 18953, "##\u0906": 29848, "dating": 5306, "hull": 6738, "hugs": 24459, "1908": 5316, "capped": 13880, "##my": 8029, "jurassic": 19996, "femme": 26893, "##^": 29637, "##\u30c4": 30238, "xinjiang": 25904, "##ece": 26005, "floor": 2723, "hines": 25445, "amplified": 26986, "dolly": 19958, "computation": 22334, "eras": 28500, "governments": 6867, "##till": 28345, "busiest": 20530, "aerodrome": 23843, "somebody": 8307, "35": 3486, "##ad": 4215, "acquisition": 7654, "##rial": 14482, "johnnie": 27716, "internment": 29041, "candi": 27467, "rec": 28667, "refined": 15514, "gemini": 21424, "lucknow": 23571, "dora": 21008, "cb": 17324, "jurisprudence": 24697, "division": 2407, "\u201e": 1525, "protective": 9474, "##valent": 24879, "pantry": 27796, "##dur": 24979, "cornice": 27848, "stranger": 7985, "lang": 11374, "turkish": 5037, "dies": 8289, "tracked": 12808, "exile": 8340, "filmed": 6361, "##[": 29634, "\u098f": 1351, "##\u02b7": 29709, "[unused16]": 17, "reg": 19723, "log": 8833, "redemption": 18434, "dairy": 11825, "recording": 3405, "serbs": 16757, "ap": 9706, "group": 2177, "##yra": 19563, "challenge": 4119, "cigar": 19135, "guerrero": 16938, "gross": 7977, "classification": 5579, "##nt": 3372, "pins": 16300, "toll": 9565, "vikings": 13468, "basin": 6403, "gwen": 11697, "[unused544]": 549, "metres": 3620, "savage": 9576, "oblast": 10379, "partially": 6822, "catastrophe": 25539, "solemn": 19487, "websites": 11744, "[unused412]": 417, "##tom": 20389, "considerably": 9839, "##aco": 22684, "apartheid": 17862, "realization": 12393, "##eza": 28640, "tip": 5955, "[unused963]": 968, "fantasia": 29203, "##\u00e6": 29667, "splinter": 27546, "slaves": 7179, "[unused30]": 31, "[unused639]": 644, "grafton": 28680, "bed": 2793, "1880": 6756, "assertion": 23617, "nestled": 22704, "totals": 21948, "##dora": 24562, "##\u1110": 30003, "##ffled": 28579, "surgical": 11707, "precipitation": 13511, "about": 2055, "##eras": 24140, "complimented": 27175, "enters": 8039, "##ret": 13465, "##hein": 26496, "##ete": 12870, "[unused623]": 628, "##etti": 18319, "shootout": 18297, "scenarios": 16820, "galveston": 26630, "al": 2632, "hormone": 18714, "##\u2083": 11622, "millie": 19561, "becomes": 4150, "\u8c9d": 1952, "significant": 3278, "[unused303]": 308, "tapes": 13324, "interim": 9455, "harbour": 7440, "secretaries": 23660, "resentment": 20234, "villiers": 25333, "crash": 5823, "playoff": 7808, "tides": 22487, "shooter": 13108, "societies": 8384, "announcement": 8874, "que": 10861, "##\u028b": 29699, "##eno": 16515, "integers": 24028, "lays": 19764, "activated": 8878, "darrell": 23158, "##zers": 16750, "clashes": 17783, "[unused240]": 245, "reissue": 17173, "##yoshi": 19196, "leagues": 8121, "sinclair": 11881, "###": 29614, "##blood": 26682, "##eving": 23559, "suppliers": 20141, "po": 13433, "rico": 7043, "boca": 22765, "##ik": 5480, "audi": 20075, "standings": 11869, "defunct": 11984, "whites": 12461, "davenport": 16273, "links": 6971, "##lena": 20844, "##\u5f35": 30370, "poking": 21603, "hartman": 26766, "connie": 16560, "\u0268": 1118, "plenty": 7564, "opponent": 7116, "deposed": 18298, "##\u2217": 30125, "##ical": 7476, "rods": 19485, "##rit": 14778, "cam": 11503, "ashes": 11289, "stella": 11894, "##centric": 22461, "##quette": 29416, "pigeon": 16516, "##\u2265": 30136, "superhuman": 27061, "##essed": 23656, "##zh": 27922, "span": 8487, "disagreed": 18335, "faust": 24021, "##alle": 24164, "heir": 8215, "##\u20b1": 30103, "expose": 14451, "1762": 20827, "kid": 4845, "reform": 5290, "goalkeeper": 9653, "nose": 4451, "dietrich": 22567, "slung": 20078, "illusion": 12492, "stick": 6293, "considerations": 16852, "hard": 2524, "models": 4275, "cyril": 16049, "societe": 18341, "med": 19960, "inaugural": 7725, "combine": 11506, "emission": 15760, "274": 25586, "##gan": 5289, "careers": 10922, "intentions": 11174, "monique": 26194, "##hyllum": 27750, "seek": 6148, "carmen": 11425, "guggenheim": 20402, "creeks": 24974, "balthazar": 25021, "appreciate": 9120, "pinned": 11807, "##\u1da0": 30047, "freighter": 27945, "berman": 29482, "drawing": 5059, "##sable": 19150, "damned": 9636, "cher": 24188, "salsa": 26509, "[unused931]": 936, "closure": 8503, "peaked": 6601, "[unused536]": 541, "enthusiastic": 14727, "##mun": 23041, "assassinate": 25683, "[unused627]": 632, "damien": 12587, "##zed": 5422, "teaming": 27025, "rotherham": 27456, "pi": 14255, "##66": 28756, "upbringing": 24615, "wrestling": 4843, "winds": 7266, "terrace": 11134, "##gos": 12333, "##mah": 25687, "automated": 12978, "sights": 15925, "1911": 5184, "obey": 15470, "airmen": 29437, "##200": 28332, "[unused128]": 133, "component": 6922, "thirteenth": 14725, "hurricane": 7064, "apostles": 19178, "learns": 10229, "proximity": 10039, "scribe": 27789, "##tters": 24168, "beverly": 12218, "jacksonville": 13057, "dwellers": 28857, "stockton": 19161, "249": 23628, "fare": 13258, "pete": 6969, "lexie": 24123, "suffolk": 12291, "hugged": 10308, "gdansk": 21942, "##xley": 20959, "[unused592]": 597, "pipeline": 13117, "begun": 5625, "billionaire": 22301, "coyotes": 26880, "##list": 9863, "##enter": 29110, "phenomenon": 9575, "recognizing": 14622, "monarchy": 12078, "amazingly": 29350, "moe": 22078, "pound": 9044, "ukrainian": 5969, "\u10da": 1447, "underneath": 7650, "##lad": 27266, "keeper": 10684, "visitors": 5731, "land": 2455, "##good": 24146, "##oco": 24163, "duck": 9457, "node": 13045, "krishna": 10871, "shudder": 18261, "lancashire": 9638, "cage": 7980, "truce": 18415, "akira": 21616, "dish": 9841, "visuals": 26749, "[unused935]": 940, "trades": 14279, "potsdam": 26554, "reach": 3362, "rogers": 7369, "francs": 24313, "bingo": 27137, "project": 2622, "artery": 16749, "giggles": 26466, "movements": 5750, "211": 19235, "stuffed": 11812, "ceramic": 14692, "copeland": 27303, "##sse": 11393, "talented": 10904, "[unused302]": 307, "willingness": 19732, "hires": 28208, "shivering": 19197, "argyle": 26503, "##rier": 16252, "gael": 28151, "##ography": 9888, "2002": 2526, "yves": 19687, "albums": 4042, "##rger": 25858, "exercise": 6912, "tone": 4309, "transferring": 14391, "sami": 17015, "##int": 18447, "huts": 23326, "undergraduate": 8324, "elevator": 7764, "##bound": 15494, "\u0dbb": 1405, "franks": 21310, "flames": 7311, "thumped": 28963, "grinned": 6973, "broom": 23528, "##cp": 21906, "##pods": 22925, "##\u6cb3": 30425, "contemplated": 23133, "##kers": 11451, "happy": 3407, "regents": 22832, "swallow": 10577, "dashboard": 24923, "enroll": 25612, "\u2295": 1612, "migrants": 16836, "##tem": 18532, "ruby": 10090, "yanking": 25716, "bahamas": 17094, "\u7537": 1912, "retreating": 17512, "jaenelle": 20757, "attendance": 5270, "whispered": 3990, "gamble": 18503, "pba": 21563, "clip": 12528, "##for": 29278, "cartoonist": 19659, "sax": 19656, "rob": 6487, "lt": 8318, "moments": 5312, "raleigh": 15842, "result": 2765, "cruise": 8592, "##\u535a": 30312, "matters": 5609, "\u057d": 1234, "link": 4957, "chaired": 12282, "##lism": 28235, "##\u0bb0": 29927, "code": 3642, "[unused75]": 76, "##mora": 22122, "emptiness": 23397, "municipalities": 7602, "shaking": 5513, "power": 2373, "taped": 19374, "##ulu": 20391, "ambushed": 22168, "##osis": 12650, "##dition": 20562, "opera": 3850, "##\u00a3": 29646, "\u5dde": 1836, "celebrates": 21566, "securities": 12012, "iteration": 27758, "iberian": 21988, "aura": 15240, "##dlow": 27002, "devin": 23601, "misleading": 22369, "disrepair": 27799, "emphasize": 17902, "secondary": 3905, "marcel": 13389, "taylor": 4202, "\u05df": 1256, "might": 2453, "shave": 27545, "##nagar": 14346, "##udy": 20217, "ferrer": 28390, "ecology": 13517, "ezio": 23043, "greta": 26111, "reservation": 11079, "merchants": 10310, "wealth": 7177, "defects": 18419, "teaches": 12011, "conveyed": 21527, "[unused503]": 508, "depended": 17292, "\u30e7": 1730, "jews": 5181, "gaul": 26522, "gregg": 18281, "yellowish": 17804, "steward": 17946, "respondents": 25094, "colonel": 4327, "harmonic": 19452, "actress": 3883, "nassau": 14646, "frightening": 17115, "highest": 3284, "noses": 27518, "beacon": 14400, "failed": 3478, "gregorian": 25847, "ankles": 15392, "backup": 10200, "automotive": 12945, "arising": 17707, "##ckey": 29183, "heaven": 6014, "acton": 28794, "responses": 10960, "melanie": 13286, "prove": 6011, "##\u0932": 29870, "eng": 25540, "baptist": 7550, "danger": 5473, "instruments": 5693, "headline": 17653, "execute": 15389, "cesar": 14923, "antarctic": 10227, "chilled": 23362, "##saurus": 22244, "pri": 26927, "##rization": 26910, "chatham": 16727, "sing": 6170, "##ghton": 21763, "prototypes": 19599, "intervened": 21116, "\u306c": 1669, "##qa": 19062, "##comb": 18274, "delay": 8536, "##aith": 22465, "##zziness": 29212, "penalties": 12408, "switch": 6942, "##ckman": 24080, "##olar": 19478, "##around": 24490, "411": 27517, "crewe": 22188, "##(": 29619, "presses": 14616, "marched": 9847, "##egan": 20307, "ax": 22260, "meanings": 15383, "##shire": 7430, "1860": 7313, "stil": 25931, "##ulation": 9513, "drill": 12913, "popular": 2759, "[unused59]": 60, "outstanding": 5151, "advises": 25453, "jed": 24401, "##\u3042": 30172, "knows": 4282, "ortiz": 19439, "syed": 19740, "##res": 6072, "string": 5164, "limo": 23338, "ti": 14841, "##\u026a": 29685, "dunbar": 23034, "receipt": 24306, "ebook": 26885, "transferred": 4015, "dfb": 28894, "rejected": 5837, "relocation": 18344, "gloves": 11875, "humphrey": 15462, "153": 16710, "\u062e": 1277, "ripping": 17039, "waved": 7147, "scoffed": 26326, "schizophrenia": 23683, "aidan": 12643, "\u5fc4": 1850, "pronouns": 26028, "kisses": 8537, "underlying": 10318, "bellamy": 25544, "border": 3675, "##\u1d64": 30044, "##tled": 14782, "wits": 25433, "penitentiary": 29569, "vendor": 21431, "##nce": 5897, "##station": 20100, "comparing": 13599, "bolshevik": 24477, "##pine": 19265, "##gal": 9692, "##lton": 13947, "siena": 23754, "ban": 7221, "botswana": 19414, "exchequer": 28889, "chieftain": 26625, "[unused233]": 238, "representatives": 4505, "health": 2740, "breadth": 25291, "designated": 4351, "stone": 2962, "[unused5]": 6, "lizard": 15450, "##lah": 14431, "100th": 16919, "##\u043f": 29746, "##rians": 23543, "crucial": 10232, "gum": 16031, "##ophone": 25232, "haryana": 23261, "\u00bf": 1094, "connected": 4198, "basically": 10468, "rovers": 9819, "diameter": 6705, "tape": 6823, "buffalo": 6901, "corp": 13058, "##udeau": 27627, "berlin": 4068, "nokia": 22098, "batman": 8942, "historians": 7862, "[unused164]": 169, "5th": 4833, "sail": 9498, "##fulness": 20938, "1892": 6527, "##py": 7685, "##\u2071": 30072, "means": 2965, "nino": 20801, "##phobic": 20200, "entrepreneurship": 20213, "stronger": 6428, "##lom": 21297, "cruel": 10311, "talent": 5848, "botanist": 17098, "taft": 19911, "##zyn": 23749, "sofie": 26359, "sadly": 13718, "toy": 9121, "greer": 25939, "\u2282": 1610, "\u03be": 1168, "horace": 12757, "##zel": 12638, "prayer": 7083, "resign": 12897, "salvage": 18340, "necessity": 13185, "##\u0f62": 29970, "scrub": 18157, "occupied": 4548, "##iography": 26535, "\u10db": 1448, "##truct": 18300, "imagining": 16603, "[unused807]": 812, "maxwell": 10691, "bishops": 8414, "residents": 3901, "veracruz": 23741, "heads": 4641, "accidental": 17128, "electronic": 4816, "stains": 27094, "winged": 14462, "trend": 9874, "##\u05d3": 29791, "baha": 13253, "vendors": 17088, "roma": 12836, "dinah": 26562, "pop": 3769, "mansion": 7330, "strung": 23509, "escape": 4019, "kildare": 24275, "##amine": 19915, "1894": 6539, "skulls": 21542, "\u540d": 1795, "waist": 5808, "##market": 20285, "primaries": 27419, "##\u0cbe": 29938, "satire": 18312, "##ep": 13699, "square": 2675, "baldwin": 10970, "axis": 8123, "##ml": 19968, "compares": 22963, "##isches": 27239, "adoption": 9886, "poe": 18922, "mineral": 9754, "packs": 15173, "picnic": 12695, "ist": 21541, "rainfall": 10101, "peasants": 13193, "emissions": 11768, "thrusting": 21468, "classic": 4438, "items": 5167, "technique": 6028, "ismail": 19214, "##\u1165": 30008, "displeasure": 28606, "unionist": 17104, "##\u2191": 30112, "##dant": 28210, "pitcher": 8070, "armstrong": 9143, "dealers": 16743, "darby": 25844, "ng": 12835, "##\u5948": 30340, "appeared": 2596, "revenue": 6599, "little": 2210, "estrada": 26482, "published": 2405, "altar": 9216, "##rish": 18774, "rally": 8320, "##ease": 19500, "##\u00b2": 10701, "indus": 27746, "struck": 4930, "##\u025b": 29275, "##tails": 22081, "sailors": 11279, "verified": 20119, "explosive": 11355, "camping": 13215, "midsummer": 28171, "curtiss": 26431, "imposing": 16625, "sighs": 19906, "binary": 12441, "contributors": 16884, "than": 2084, "##ville": 3077, "405": 23988, "saskatoon": 25447, "main": 2364, "as": 2004, "##\u045a": 29763, "badge": 10780, "enter": 4607, "documentation": 12653, "g": 1043, "##\u09c7": 29917, "spence": 22186, "documents": 5491, "withstand": 19319, "suzuki": 14278, "##lage": 20679, "jerking": 22387, "bordeaux": 16384, "fernando": 9158, "scrambled": 13501, "pick": 4060, "daryl": 22514, "thoughtful": 16465, "\u0456": 1213, "induce": 19653, "docking": 25776, "celebrated": 6334, "arises": 18653, "integer": 16109, "karl": 6382, "montpellier": 28153, "willem": 18811, "melt": 14899, "temples": 8436, "sutherland": 14274, "proceeding": 18207, "rested": 8614, "##ado": 9365, "reporters": 12060, "dancing": 5613, "##\u00b3": 18107, "disability": 11980, "naked": 6248, "emir": 23434, "##tation": 12516, "rumbling": 26670, "[unused885]": 890, "##\u03b5": 29723, "##erty": 15010, "initiation": 17890, "##sily": 26863, "in": 1999, "\u20ac": 1574, "[unused699]": 704, "\u79cb": 1929, "##arts": 20591, "admissions": 20247, "[unused237]": 242, "push": 5245, "cochin": 28982, "earnest": 17300, "cleric": 29307, "capitalist": 19640, "##agi": 22974, "tina": 11958, "fort": 3481, "phased": 21718, "arbor": 19679, "celestial": 17617, "pollard": 25513, "magician": 16669, "throat": 3759, "singing": 4823, "##ru": 6820, "kruger": 27823, "roundabout": 22831, "org": 8917, "corpus": 13931, "points": 2685, "advocating": 20324, "anzac": 29224, "junction": 5098, "##\u2015": 30053, "confesses": 22826, "dragging": 11920, "abuses": 21078, "crossings": 20975, "ryu": 19367, "state": 2110, "welcomed": 10979, "sony": 8412, "integrity": 11109, "intermittent": 23852, "##year": 29100, "[unused950]": 955, "renovated": 10601, "##ggle": 24679, "sites": 4573, "kitchens": 26051, "missing": 4394, "eye": 3239, "alistair": 23752, "reddy": 18998, "indonesia": 6239, "militia": 8396, "##tase": 18260, "substantially": 12381, "\u30bf": 1709, "instrumentalist": 29253, "##anor": 27869, "2001": 2541, "materialized": 27075, "ensuing": 13831, "interference": 11099, "fungal": 28079, "##au": 4887, "leonardo": 14720, "superficial": 23105, "masculine": 14818, "##ile": 9463, "summarized": 22539, "1864": 6717, "blind": 6397, "undergo": 13595, "compiling": 21953, "1718": 26995, "achieved": 4719, "master": 3040, "telangana": 23764, "colorado": 5169, "##rea": 16416, "inline": 23881, "laborers": 23428, "lithuanian": 10333, "em": 7861, "donnelly": 28317, "funds": 5029, "zhao": 15634, "grace": 4519, "miners": 11257, "[unused531]": 536, "coaching": 7748, "estimate": 10197, "us": 2149, "##\u00a9": 29652, "##lika": 25421, "excessive": 11664, "1723": 26621, "[unused320]": 325, "\u0446": 1201, "additive": 29167, "paddy": 16063, "positioned": 10959, "\u795e": 1925, "ceremony": 5103, "dimension": 9812, "joker": 19318, "dust": 6497, "##\u0b9f": 29920, "rn": 29300, "priestess": 27677, "##rga": 28921, "gay": 5637, "affiliates": 18460, "##bourg": 20431, "travis": 10001, "mollusk": 13269, "silicon": 13773, "alternately": 23554, "sergeant": 6722, "\u6a39": 1884, "##tee": 17389, "appropriated": 29223, "jessica": 8201, "engineered": 13685, "sells": 15187, "lawn": 10168, "barefoot": 22985, "##hane": 28006, "1790": 13393, "death": 2331, "bratislava": 22992, "unsure": 12422, "##teacher": 24741, "copied": 15826, "##chal": 18598, "adjusted": 10426, "sho": 26822, "[unused243]": 248, "##sed": 6924, "signatures": 16442, "ear": 4540, "remodeled": 27170, "before": 2077, "shankar": 17429, "##san": 8791, "poem": 5961, "trier": 25487, "lobes": 24423, "##\u5f18": 30369, "andrea": 8657, "jungle": 8894, "##ride": 15637, "##lch": 29358, "shipment": 22613, "stat": 28093, "peabody": 20004, "\uff1a": 1993, "##fahan": 28975, "jefferson": 7625, "##tility": 18724, "occupies": 14133, "batting": 9640, "argued": 5275, "warning": 5432, "dome": 8514, "amelie": 25285, "administrator": 8911, "just": 2074, "ethiopian": 15101, "revelation": 11449, "ter": 28774, "##hosis": 25229, "[unused458]": 463, "106": 10114, "allowed": 3039, "comeback": 12845, "bancroft": 29351, "kassel": 27884, "arun": 28217, "final": 2345, "snort": 26759, "##ered": 6850, "depart": 18280, "flores": 17343, "##illon": 20343, "polka": 29499, "nodded": 3368, "hilton": 15481, "harlow": 22545, "prohibiting": 26325, "champ": 24782, "##nick": 13542, "preferred": 6871, "adequate": 11706, "selective": 13228, "##nery": 27415, "##cross": 16458, "##try": 11129, "hooked": 13322, "shri": 14880, "[unused397]": 402, "approximate": 15796, "##27": 22907, "[unused403]": 408, "della": 8611, "timor": 19746, "194": 19955, "entropy": 23077, "##\u099a": 29892, "wagner": 10304, "intention": 6808, "[unused704]": 709, "##cter": 21162, "\u00bd": 1092, "soils": 13622, "operating": 4082, "arching": 27335, "mythology": 11327, "##iel": 9257, "##hiro": 18334, "##asurable": 28329, "hart": 7530, "mathematicians": 29374, "bn": 24869, "changed": 2904, "paranoia": 27890, "[unused203]": 208, "nationalism": 14594, "dinamo": 22306, "\u043f": 1194, "\u2192": 1585, "##ncy": 9407, "compliant": 24577, "##nda": 8943, "[unused88]": 89, "1780": 15051, "##las": 8523, "nasser": 26099, "##urus": 20089, "rhythmic": 14797, "##hyl": 29598, "ironically": 18527, "precision": 11718, "pirates": 8350, "medieval": 5781, "jaw": 5730, "[unused516]": 521, "##asa": 16782, "##cars": 20745, "cobalt": 25627, "burials": 23109, "manners": 14632, "missionaries": 11743, "quantum": 8559, "liberties": 18271, "tracey": 25984, "spreading": 9359, "enterprise": 6960, "discover": 7523, "dancer": 8033, "valves": 17355, "415": 24690, "instant": 7107, "introduction": 4955, "say": 2360, "[unused937]": 942, "mask": 7308, "hated": 6283, "worcester": 12539, "##odies": 27391, "##vus": 27500, "courts": 5434, "shuddered": 13937, "\u2ea9": 1632, "temptation": 17232, "gardener": 19785, "##act": 18908, "##az": 10936, "flea": 26735, "[unused824]": 829, "##\u5e78": 30367, "\u90e8": 1960, "fredrik": 25454, "unease": 27880, "downstairs": 10025, "discrimination": 9147, "camel": 19130, "2014": 2297, "monk": 8284, "##icia": 24108, "moves": 5829, "grandmaster": 27101, "mainline": 20575, "parapet": 27372, "reggae": 15662, "considered": 2641, "territory": 3700, "monroe": 9747, "emil": 16243, "##ieg": 28872, "##brick": 25646, "faux": 29276, "burroughs": 25991, "issue": 3277, "resistant": 13070, "operated": 3498, "qin": 19781, "pact": 14790, "[unused211]": 216, "bled": 23919, "pill": 17357, "far": 2521, "##ution": 13700, "##vac": 24887, "dealer": 11033, "shielding": 25553, "124": 13412, "handler": 28213, "chaos": 8488, "ceiling": 5894, "##\u2096": 30094, "finale": 9599, "##52": 25746, "source": 3120, "##\u771f": 30447, "ravaged": 25537, "milton": 9660, "dress": 4377, "prussian": 10734, "rene": 10731, "##\u092d": 29866, "ngc": 27645, "2": 1016, "frankish": 26165, "contribution": 6691, "loose": 6065, "##ogo": 22844, "halifax": 10475, "polish": 3907, "##\u2010": 30048, "israel": 3956, "\u0f51": 1428, "riches": 26768, "kelly": 5163, "revealing": 8669, "##\u2193": 30114, "councillors": 13189, "pilgrim": 21214, "ordination": 18129, "##xi": 9048, "resumed": 7943, "cuba": 7394, "ctv": 28720, "nanjing": 21455, "orlando": 10108, "##nology": 21020, "\u2021": 1527, "tenants": 14665, "ambassadors": 20986, "appellate": 23240, "expelled": 10016, "##ero": 10624, "edition": 3179, "supervisors": 22565, "wrought": 18481, "[unused850]": 855, "[unused737]": 742, "trembled": 14823, "ideal": 7812, "isabel": 11648, "hearts": 8072, "enhance": 11598, "styled": 13650, "ts": 24529, "stairwell": 22109, "bologna": 14102, "blanco": 20036, "roast": 25043, "celia": 18020, "##kia": 21128, "##\u826f": 30464, "chimney": 17321, "##fles": 28331, "chopin": 25479,
[...]
